{
  "version": "1.0",
  "truncation": null,
  "padding": null,
  "added_tokens": [
    {
      "id": 0,
      "content": "[UNK]",
      "single_word": false,
      "lstrip": false,
      "rstrip": false,
      "normalized": false,
      "special": true
    },
    {
      "id": 1,
      "content": "[PAD]",
      "single_word": false,
      "lstrip": false,
      "rstrip": false,
      "normalized": false,
      "special": true
    },
    {
      "id": 2,
      "content": "[CLS]",
      "single_word": false,
      "lstrip": false,
      "rstrip": false,
      "normalized": false,
      "special": true
    },
    {
      "id": 3,
      "content": "[SEP]",
      "single_word": false,
      "lstrip": false,
      "rstrip": false,
      "normalized": false,
      "special": true
    },
    {
      "id": 4,
      "content": "[MASK]",
      "single_word": false,
      "lstrip": false,
      "rstrip": false,
      "normalized": false,
      "special": true
    }
  ],
  "normalizer": {
    "type": "Sequence",
    "normalizers": [
      {
        "type": "NFD"
      },
      {
        "type": "Lowercase"
      },
      {
        "type": "StripAccents"
      }
    ]
  },
  "pre_tokenizer": null,
  "post_processor": null,
  "decoder": null,
  "model": {
    "type": "WordPiece",
    "unk_token": "[UNK]",
    "continuing_subword_prefix": "",
    "max_input_chars_per_word": 1000000000,
    "vocab": {
      "[UNK]": 0,
      "[PAD]": 1,
      "[CLS]": 2,
      "[SEP]": 3,
      "[MASK]": 4,
      "\n": 5,
      " ": 6,
      "!": 7,
      "\"": 8,
      "#": 9,
      "$": 10,
      "%": 11,
      "&": 12,
      "'": 13,
      "(": 14,
      ")": 15,
      "+": 16,
      ",": 17,
      "-": 18,
      ".": 19,
      "/": 20,
      "0": 21,
      "1": 22,
      "2": 23,
      "3": 24,
      "4": 25,
      "5": 26,
      "6": 27,
      "7": 28,
      "8": 29,
      "9": 30,
      ":": 31,
      ";": 32,
      "<": 33,
      "=": 34,
      ">": 35,
      "@": 36,
      "[": 37,
      "]": 38,
      "a": 39,
      "b": 40,
      "c": 41,
      "d": 42,
      "e": 43,
      "f": 44,
      "g": 45,
      "h": 46,
      "i": 47,
      "j": 48,
      "k": 49,
      "l": 50,
      "m": 51,
      "n": 52,
      "o": 53,
      "p": 54,
      "q": 55,
      "r": 56,
      "s": 57,
      "t": 58,
      "u": 59,
      "v": 60,
      "w": 61,
      "x": 62,
      "y": 63,
      "z": 64,
      "~": 65,
      "£": 66,
      "°": 67,
      "²": 68,
      "µ": 69,
      "æ": 70,
      "–": 71,
      "—": 72,
      "‘": 73,
      "’": 74,
      "“": 75,
      "”": 76,
      "†": 77,
      "₤": 78,
      "₹": 79,
      "の": 80,
      "ァ": 81,
      "ア": 82,
      "ウ": 83,
      "キ": 84,
      "ュ": 85,
      "リ": 86,
      "ル": 87,
      "場": 88,
      "戦": 89,
      "e ": 90,
      " t": 91,
      "s ": 92,
      " th": 93,
      "in": 94,
      " a": 95,
      "er": 96,
      "d ": 97,
      " the ": 98,
      "on": 99,
      "t ": 100,
      "or": 101,
      "un": 102,
      "an": 103,
      "en": 104,
      "re": 105,
      "ti": 106,
      "y ": 107,
      ", ": 108,
      "ar": 109,
      "of": 110,
      "al": 111,
      "th": 112,
      ". ": 113,
      "unk": 114,
      "ing": 115,
      "ed ": 116,
      "<unk": 117,
      "<unk>": 118,
      " an": 119,
      "er ": 120,
      "o ": 121,
      "<unk> ": 122,
      "st": 123,
      "ro": 124,
      "es ": 125,
      "at": 126,
      "on ": 127,
      "ed": 128,
      "ch": 129,
      "li": 130,
      "in ": 131,
      "of ": 132,
      "ing ": 133,
      " and ": 134,
      "hi": 135,
      "de": 136,
      "= ": 137,
      "for": 138,
      "ou": 139,
      "si": 140,
      "ri": 141,
      "wa": 142,
      "a ": 143,
      " to ": 144,
      "om": 145,
      " a ": 146,
      "am": 147,
      "ir": 148,
      "@ ": 149,
      "la": 150,
      "al ": 151,
      "ra": 152,
      "el": 153,
      "wi": 154,
      "was ": 155,
      "di": 156,
      "es": 157,
      "it": 158,
      "ati": 159,
      "lo": 160,
      " , ": 161,
      "of the ": 162,
      "@-": 163,
      "em": 164,
      "le ": 165,
      "go": 166,
      "ur": 167,
      "with": 168,
      "sh": 169,
      "an ": 170,
      "ly ": 171,
      "ic": 172,
      "ec": 173,
      "ea": 174,
      "@-@ ": 175,
      "ere ": 176,
      "en ": 177,
      "\" ": 178,
      "ha": 179,
      "ma": 180,
      "= = ": 181,
      "ts ": 182,
      "bu": 183,
      "gh": 184,
      "at ": 185,
      "ck": 186,
      " to": 187,
      "m ": 188,
      "l ": 189,
      "con": 190,
      "ol": 191,
      "be": 192,
      "and ": 193,
      ". \n": 194,
      "sp": 195,
      "in the ": 196,
      "il": 197,
      "su": 198,
      "is ": 199,
      ". the ": 200,
      "op": 201,
      "ds ": 202,
      "'s ": 203,
      "is": 204,
      "ce ": 205,
      "were ": 206,
      "st ": 207,
      "ve ": 208,
      "com": 209,
      "ter": 210,
      "19": 211,
      "ow": 212,
      "vi": 213,
      " p": 214,
      " and": 215,
      "ul": 216,
      " al": 217,
      " as ": 218,
      "( ": 219,
      " that ": 220,
      ", and ": 221,
      "ons ": 222,
      "ent ": 223,
      "ver": 224,
      " the": 225,
      "ear": 226,
      "ent": 227,
      "or ": 228,
      "ch ": 229,
      "mo": 230,
      "whi": 231,
      "ex": 232,
      "wh": 233,
      "um": 234,
      "ation ": 235,
      "fro": 236,
      "tion ": 237,
      "no": 238,
      "ci": 239,
      "se ": 240,
      " ar": 241,
      "n ": 242,
      ", the ": 243,
      "oth": 244,
      "ld ": 245,
      "wor": 246,
      "for ": 247,
      "ac": 248,
      "lu": 249,
      "im": 250,
      "pro": 251,
      "00": 252,
      "po": 253,
      "se": 254,
      "ame ": 255,
      ") ": 256,
      "it ": 257,
      "k ": 258,
      "with ": 259,
      "ate ": 260,
      " air": 261,
      "eg": 262,
      "pre": 263,
      "ers ": 264,
      "pla": 265,
      "co": 266,
      "de ": 267,
      "gods ": 268,
      "by ": 269,
      "as": 270,
      "int": 271,
      " @": 272,
      "ties ": 273,
      "sa": 274,
      "and": 275,
      "the ": 276,
      "ev": 277,
      "rec": 278,
      "th ": 279,
      "be ": 280,
      " at": 281,
      "ed the ": 282,
      "p ": 283,
      "et": 284,
      "qu": 285,
      "ing the ": 286,
      "yp": 287,
      "<unk> , ": 288,
      "ed to ": 289,
      "he ": 290,
      "ar ": 291,
      "str": 292,
      "s , ": 293,
      "tic": 294,
      "per": 295,
      "shi": 296,
      "par": 297,
      "du": 298,
      "gi": 299,
      "his ": 300,
      " ac": 301,
      "ew": 302,
      "fer": 303,
      "por": 304,
      "one ": 305,
      "she ": 306,
      " = = ": 307,
      "ong": 308,
      "ted ": 309,
      "fi": 310,
      "ran": 311,
      "ine ": 312,
      "ge ": 313,
      "sc": 314,
      "und": 315,
      "low": 316,
      " their": 317,
      "man": 318,
      " as": 319,
      "ck ": 320,
      "comm": 321,
      "her ": 322,
      "ly": 323,
      " to the ": 324,
      "0 ": 325,
      "egyp": 326,
      "ca": 327,
      ", and": 328,
      "ab": 329,
      "raf": 330,
      "by": 331,
      "gu": 332,
      "are ": 333,
      "ga": 334,
      "so": 335,
      "ter ": 336,
      "fic": 337,
      "18": 338,
      "; ": 339,
      "les ": 340,
      "lit": 341,
      "ser": 342,
      "cont": 343,
      "bo": 344,
      "ities ": 345,
      "for the ": 346,
      "inc": 347,
      "ated ": 348,
      "from ": 349,
      "lea": 350,
      "us": 351,
      "– ": 352,
      " m": 353,
      "our": 354,
      "fir": 355,
      "ke ": 356,
      "on the ": 357,
      "ord": 358,
      " . ": 359,
      "all": 360,
      "with the ": 361,
      " their ": 362,
      "pp": 363,
      "ally ": 364,
      "mor": 365,
      "ary ": 366,
      "ould ": 367,
      "ation": 368,
      "2 ": 369,
      "end": 370,
      "from": 371,
      "other ": 372,
      "its ": 373,
      "ity ": 374,
      "ad": 375,
      "deities ": 376,
      "f ": 377,
      "fa": 378,
      "gn": 379,
      "ru": 380,
      "form": 381,
      "which ": 382,
      "egypti": 383,
      "ome ": 384,
      "to ": 385,
      " this ": 386,
      "son ": 387,
      "tion": 388,
      "20": 389,
      "gre": 390,
      " af": 391,
      "ligh": 392,
      "ough": 393,
      "ations ": 394,
      "pres": 395,
      "e , ": 396,
      " that": 397,
      "rou": 398,
      "play": 399,
      "ba": 400,
      "craf": 401,
      "lan": 402,
      "had ": 403,
      "but ": 404,
      "not ": 405,
      "ta": 406,
      "year": 407,
      "char": 408,
      "so ": 409,
      " an ": 410,
      "car": 411,
      "spec": 412,
      "3 ": 413,
      "col": 414,
      "game ": 415,
      "i ": 416,
      "s and ": 417,
      "ese ": 418,
      "tle ": 419,
      "s . ": 420,
      "= = \n": 421,
      "est": 422,
      " tw": 423,
      "ents ": 424,
      "1 ": 425,
      "new": 426,
      "lic": 427,
      "buil": 428,
      "ber ": 429,
      "pi": 430,
      "ory ": 431,
      "emp": 432,
      "vel": 433,
      "ed in ": 434,
      "has ": 435,
      "ei": 436,
      "red ": 437,
      "have ": 438,
      "4 ": 439,
      "cre": 440,
      "sen": 441,
      "ori": 442,
      "= \n": 443,
      " aircraf": 444,
      ",@ ": 445,
      ".@ ": 446,
      "na": 447,
      "<unk> <unk> ": 448,
      "sign": 449,
      "who ": 450,
      " @,@ ": 451,
      " @.@ ": 452,
      "ding ": 453,
      "eam": 454,
      "sec": 455,
      "mi": 456,
      " them": 457,
      " these ": 458,
      " they ": 459,
      "ari": 460,
      "ark": 461,
      "out ": 462,
      " are ": 463,
      "pri": 464,
      " at ": 465,
      "es , ": 466,
      "cul": 467,
      " tra": 468,
      "da": 469,
      "s the ": 470,
      "val": 471,
      "tions ": 472,
      "out": 473,
      "201": 474,
      "fo": 475,
      "mu": 476,
      "ph": 477,
      "und ": 478,
      "tim": 479,
      "by the ": 480,
      "serv": 481,
      "bi": 482,
      "fe": 483,
      "gam": 484,
      "ss ": 485,
      "ure ": 486,
      "comp": 487,
      "5 ": 488,
      "sel": 489,
      "ous ": 490,
      "bec": 491,
      "min": 492,
      "sm": 493,
      "sea": 494,
      "some ": 495,
      "te ": 496,
      "ver ": 497,
      "we": 498,
      "first ": 499,
      "more ": 500,
      "from the ": 501,
      "dur": 502,
      "gin": 503,
      "to": 504,
      "uni": 505,
      "all ": 506,
      "oper": 507,
      "ces": 508,
      "gen": 509,
      "ance ": 510,
      "god ": 511,
      "ong ": 512,
      "fin": 513,
      "king": 514,
      "lat": 515,
      "ment ": 516,
      "inter": 517,
      "ans ": 518,
      "lay": 519,
      "duc": 520,
      " tim": 521,
      " am": 522,
      "rea": 523,
      "ther ": 524,
      "war": 525,
      "in 19": 526,
      "most ": 527,
      "pa": 528,
      "us ": 529,
      "ali": 530,
      " two ": 531,
      "g ": 532,
      "od": 533,
      "sed ": 534,
      "sion ": 535,
      "est ": 536,
      "200": 537,
      "s to ": 538,
      "es . ": 539,
      "ship": 540,
      " <unk> ": 541,
      "au": 542,
      "bri": 543,
      "cla": 544,
      "ef": 545,
      "ga ": 546,
      "ence ": 547,
      "little ": 548,
      "inclu": 549,
      "rough": 550,
      " there ": 551,
      "ant ": 552,
      "y , ": 553,
      "ed as ": 554,
      "while ": 555,
      "ship ": 556,
      " that the ": 557,
      " aircraft ": 558,
      "7 ": 559,
      "8 ": 560,
      "ble ": 561,
      "ep": 562,
      "gro": 563,
      "sk": 564,
      "ed by ": 565,
      "<unk> and ": 566,
      "sist": 567,
      "soci": 568,
      "et ": 569,
      "four": 570,
      "hea": 571,
      "ja": 572,
      "jo": 573,
      "red": 574,
      "ria ": 575,
      "port": 576,
      ", al": 577,
      "mon": 578,
      "nation": 579,
      "ot": 580,
      "in a ": 581,
      "ed a ": 582,
      "div": 583,
      "cke": 584,
      " at the ": 585,
      "ob": 586,
      " ad": 587,
      "urn": 588,
      "own": 589,
      "charac": 590,
      ", a ": 591,
      "c ": 592,
      "sy": 593,
      "egyptian ": 594,
      "eam ": 595,
      ": ": 596,
      "hum": 597,
      "ky": 598,
      "s were ": 599,
      "nam": 600,
      "sur": 601,
      "tu": 602,
      "bet": 603,
      "valky": 604,
      "valkyria ": 605,
      "6 ": 606,
      "9 ": 607,
      "could ": 608,
      "her": 609,
      "ron": 610,
      " au": 611,
      ". <unk> ": 612,
      ". she ": 613,
      "ower ": 614,
      "divine ": 615,
      "lar": 616,
      "sou": 617,
      "stat": 618,
      "rom": 619,
      "ess ": 620,
      "' ": 621,
      "cu": 622,
      "over": 623,
      "pu": 624,
      "ven": 625,
      "ved ": 626,
      "es of ": 627,
      "way ": 628,
      "world ": 629,
      "many ": 630,
      " as the ": 631,
      "blu": 632,
      " through": 633,
      "ree ": 634,
      "repres": 635,
      " to be ": 636,
      "sh ": 637,
      "= = = \n": 638,
      " and the ": 639,
      "new ": 640,
      "season ": 641,
      "clo": 642,
      "der": 643,
      "ju": 644,
      "ss": 645,
      "inst": 646,
      "star": 647,
      "fore ": 648,
      " = = = ": 649,
      "speci": 650,
      "betwe": 651,
      "bla": 652,
      "king ": 653,
      " aer": 654,
      "ect": 655,
      "main": 656,
      "which": 657,
      "able ": 658,
      "bat": 659,
      "how": 660,
      "id": 661,
      "num": 662,
      "tra": 663,
      "indi": 664,
      "only ": 665,
      "had": 666,
      "ever ": 667,
      "little ro": 668,
      "bark": 669,
      "fol": 670,
      "le": 671,
      "ning ": 672,
      "re ": 673,
      "ten ": 674,
      "would ": 675,
      "s of ": 676,
      "reli": 677,
      "though": 678,
      ". \" ": 679,
      "ell": 680,
      "dif": 681,
      "god": 682,
      "been ": 683,
      "stru": 684,
      "cull": 685,
      "gener": 686,
      "national ": 687,
      "can ": 688,
      "clu": 689,
      "ll": 690,
      "ne": 691,
      "y and ": 692,
      "stri": 693,
      "made ": 694,
      "such": 695,
      "work ": 696,
      "scri": 697,
      "blue ": 698,
      "ag": 699,
      "ap": 700,
      "as ": 701,
      "bro": 702,
      "up": 703,
      "tive ": 704,
      "of a ": 705,
      "like ": 706,
      "hist": 707,
      "sion": 708,
      "was the ": 709,
      "it was ": 710,
      "colum": 711,
      "dom": 712,
      "ge": 713,
      "gun": 714,
      "ii": 715,
      "oc": 716,
      "son": 717,
      "ven ": 718,
      "war ": 719,
      " ta": 720,
      " tran": 721,
      "the": 722,
      ". he ": 723,
      "dez": 724,
      "devel": 725,
      "rac": 726,
      "loc": 727,
      "gold ": 728,
      " all ": 729,
      ", and the ": 730,
      "represent": 731,
      "barker ": 732,
      "blue ja": 733,
      "develop": 734,
      "nan": 735,
      "ok": 736,
      "ry ": 737,
      " app": 738,
      "t , ": 739,
      "ed in the ": 740,
      "high": 741,
      "dep": 742,
      "before ": 743,
      "fernan": 744,
      " after ": 745,
      "secon": 746,
      "four ": 747,
      "follow": 748,
      "religi": 749,
      "fernandez": 750,
      "cri": 751,
      "cent": 752,
      "fun": 753,
      "sing": 754,
      "ten": 755,
      "side ": 756,
      "may ": 757,
      "beli": 758,
      "spor": 759,
      "when ": 760,
      "qui": 761,
      "during the ": 762,
      " time ": 763,
      "odrom": 764,
      "ckets ": 765,
      "cer": 766,
      "gra": 767,
      "od ": 768,
      "pe": 769,
      "sti": 770,
      "offic": 771,
      "ther": 772,
      "lish": 773,
      "@-@": 774,
      "early ": 775,
      "186": 776,
      " after": 777,
      "light": 778,
      "origin": 779,
      "blue jackets ": 780,
      " = ": 781,
      "both": 782,
      "ho": 783,
      "hl ": 784,
      "kn": 785,
      "pop": 786,
      "sin": 787,
      "sch": 788,
      "ting ": 789,
      "w ": 790,
      "t of ": 791,
      "en the ": 792,
      "als ": 793,
      "chron": 794,
      "ember ": 795,
      "icles ": 796,
      "pilo": 797,
      " @,@ 00": 798,
      "columbu": 799,
      "chronicles ": 800,
      "me": 801,
      "my": 802,
      "mis": 803,
      "nor": 804,
      "reg": 805,
      "ret": 806,
      "descri": 807,
      "with a ": 808,
      "each ": 809,
      "being ": 810,
      "building ": 811,
      "south ": 812,
      "cro": 813,
      "cep": 814,
      "ves ": 815,
      "ys ": 816,
      "ant": 817,
      "relea": 818,
      "ing to ": 819,
      "chil": 820,
      "of <unk> ": 821,
      "el ": 822,
      "ise ": 823,
      "coun": 824,
      "nav": 825,
      "black": 826,
      " aerodrom": 827,
      "age ": 828,
      "can": 829,
      "call": 830,
      "ded ": 831,
      "der ": 832,
      "gli": 833,
      "hun": 834,
      "no ": 835,
      "wom": 836,
      "x ": 837,
      "reas": 838,
      ". in ": 839,
      "ings ": 840,
      "ed to": 841,
      "ited ": 842,
      "but": 843,
      "199": 844,
      "work": 845,
      "posi": 846,
      "tic ": 847,
      "peri": 848,
      "care": 849,
      "senal ": 850,
      "valkyria chronicles ": 851,
      "dol": 852,
      "fe ": 853,
      "flow": 854,
      "gn ": 855,
      "hel": 856,
      "ined ": 857,
      "remain": 858,
      "also ": 859,
      "state ": 860,
      "form ": 861,
      "view": 862,
      " as a ": 863,
      "not": 864,
      "pos": 865,
      "into": 866,
      "contin": 867,
      "operations ": 868,
      "pub": 869,
      "cullen ": 870,
      "rin": 871,
      "same ": 872,
      "wri": 873,
      " avi": 874,
      "chan": 875,
      "dition": 876,
      "sup": 877,
      "exp": 878,
      "port ": 879,
      "commer": 880,
      "character": 881,
      "bor": 882,
      "nec": 883,
      "phi": 884,
      "ty ": 885,
      "tower ": 886,
      "vol": 887,
      " temp": 888,
      " three ": 889,
      "albu": 890,
      "ster": 891,
      "at the ": 892,
      "edi": 893,
      "ed and ": 894,
      "ed to the ": 895,
      "design": 896,
      "ely ": 897,
      " po": 898,
      "where ": 899,
      "00 ": 900,
      "under": 901,
      "kingdom": 902,
      "joh": 903,
      "continu": 904,
      " in ": 905,
      ", as ": 906,
      "af": 907,
      "ces ": 908,
      "fly": 909,
      "hor": 910,
      "mar": 911,
      "ni": 912,
      "nhl ": 913,
      "s that ": 914,
      "slay": 915,
      "ton ": 916,
      "res ": 917,
      "regi": 918,
      "o @-@ ": 919,
      "ed that ": 920,
      "ght ": 921,
      "own ": 922,
      "ular ": 923,
      " all": 924,
      " also ": 925,
      " arm": 926,
      "produc": 927,
      "human ": 928,
      "blacki": 929,
      "fam": 930,
      "ful": 931,
      "iri": 932,
      "les": 933,
      "line ": 934,
      "nat": 935,
      "van": 936,
      "ints ": 937,
      "ard": 938,
      "er , ": 939,
      "stand": 940,
      "gover": 941,
      "old ": 942,
      "suc": 943,
      "is a ": 944,
      "ow ": 945,
      "sever": 946,
      "e , 19": 947,
      "became ": 948,
      "number ": 949,
      "commerci": 950,
      "blackie , 19": 951,
      "bers ": 952,
      "mat": 953,
      "mem": 954,
      "ren": 955,
      "ving ": 956,
      "eric": 957,
      "un ": 958,
      "<unk> . ": 959,
      "ous": 960,
      "maj": 961,
      "import": 962,
      "; blackie , 19": 963,
      "year ": 964,
      "columbus ": 965,
      "\" , ": 966,
      "gan": 967,
      "ial ": 968,
      "long": 969,
      "mil": 970,
      "ose ": 971,
      "over ": 972,
      "temp": 973,
      "vate ": 974,
      " than ": 975,
      " aga": 976,
      "al t": 977,
      "ing a ": 978,
      "ed , ": 979,
      "round": 980,
      "log": 981,
      "sub": 982,
      "sul": 983,
      " per": 984,
      "ular": 985,
      "into ": 986,
      "record": 987,
      "recei": 988,
      "ety ": 989,
      "briti": 990,
      "little rock ": 991,
      "fernandez ": 992,
      "both ": 993,
      ") , ": 994,
      ". this ": 995,
      "fran": 996,
      "pat": 997,
      "team ": 998,
      "use ": 999,
      "e of ": 1000,
      "t . ": 1001,
      "t of the ": 1002,
      "off": 1003,
      "atory ": 1004,
      "deity ": 1005,
      "direc": 1006,
      "ic ": 1007,
      "issu": 1008,
      " acti": 1009,
      "fiel": 1010,
      "scor": 1011,
      "cap": 1012,
      "contro": 1013,
      "cess": 1014,
      "observ": 1015,
      "flying ": 1016,
      "slayer ": 1017,
      "bas": 1018,
      "cur": 1019,
      "dr": 1020,
      "eu": 1021,
      "lin": 1022,
      "uk ": 1023,
      "ors ": 1024,
      "end ": 1025,
      "y . ": 1026,
      "n @-@ ": 1027,
      "gods were ": 1028,
      "egyptians ": 1029,
      "differ": 1030,
      "godde": 1031,
      "club": 1032,
      "second ": 1033,
      "single ": 1034,
      "return": 1035,
      "describ": 1036,
      "hung": 1037,
      "women ": 1038,
      "govern": 1039,
      "15": 1040,
      "bon": 1041,
      "fac": 1042,
      "fligh": 1043,
      "gg": 1044,
      "han": 1045,
      "jec": 1046,
      "lar ": 1047,
      "ok ": 1048,
      "pur": 1049,
      "win": 1050,
      "zed ": 1051,
      " ab": 1052,
      "united ": 1053,
      "ansa": 1054,
      "ens": 1055,
      "ard ": 1056,
      "es and ": 1057,
      "es are ": 1058,
      "lim": 1059,
      "him": 1060,
      "sions ": 1061,
      "m ) ": 1062,
      "place ": 1063,
      "recor": 1064,
      "partic": 1065,
      "under ": 1066,
      " associ": 1067,
      "lant": 1068,
      "milit": 1069,
      "bia ": 1070,
      ", although": 1071,
      "however ": 1072,
      "such as ": 1073,
      ". these ": 1074,
      "/ ": 1075,
      "ad ": 1076,
      "blo": 1077,
      "draf": 1078,
      "fed": 1079,
      "h ": 1080,
      "ld": 1081,
      "ple ": 1082,
      "som": 1083,
      "tend": 1084,
      "ve": 1085,
      "ying ": 1086,
      "inf": 1087,
      "eng": 1088,
      "read": 1089,
      "<unk> the ": 1090,
      "es ( ": 1091,
      "chri": 1092,
      "live ": 1093,
      "was a ": 1094,
      "is the ": 1095,
      "nov": 1096,
      "said": 1097,
      "seri": 1098,
      "arian ": 1099,
      "musi": 1100,
      "between ": 1101,
      "batt": 1102,
      " @,@ 000 ": 1103,
      "dollar ": 1104,
      " aviation ": 1105,
      "feder": 1106,
      ". a ": 1107,
      "ber": 1108,
      "cor": 1109,
      "fil": 1110,
      "ra ": 1111,
      "s t": 1112,
      "tor ": 1113,
      "well": 1114,
      "zrin": 1115,
      "s . the ": 1116,
      " though": 1117,
      "resul": 1118,
      "arsenal ": 1119,
      "role ": 1120,
      "lation ": 1121,
      "ell ": 1122,
      "ement ": 1123,
      "ements ": 1124,
      "ts , ": 1125,
      "spon": 1126,
      "ople ": 1127,
      "ation of ": 1128,
      "coa": 1129,
      "person": 1130,
      "due ": 1131,
      "used ": 1132,
      "fairi": 1133,
      "creat": 1134,
      "compl": 1135,
      "to the ": 1136,
      "class ": 1137,
      "struc": 1138,
      "development ": 1139,
      "flower ": 1140,
      "writ": 1141,
      "fami": 1142,
      "lanta ": 1143,
      "zriny": 1144,
      ". they ": 1145,
      "bru": 1146,
      "grou": 1147,
      "id ": 1148,
      "ll ": 1149,
      "lev": 1150,
      "name ": 1151,
      "plan": 1152,
      "um ": 1153,
      "vil": 1154,
      "respon": 1155,
      "often ": 1156,
      "that ": 1157,
      "stem": 1158,
      "es of the ": 1159,
      "life ": 1160,
      "for a ": 1161,
      "did ": 1162,
      "ative ": 1163,
      "ice ": 1164,
      " tow": 1165,
      "comb": 1166,
      "ently ": 1167,
      "other": 1168,
      "and the ": 1169,
      "back": 1170,
      " them ": 1171,
      "small": 1172,
      "includ": 1173,
      "grow": 1174,
      "character ": 1175,
      "system": 1176,
      "history ": 1177,
      "believ": 1178,
      "sport ": 1179,
      "myth": 1180,
      "south of ": 1181,
      "several ": 1182,
      "hungarian ": 1183,
      "some": 1184,
      "1 , ": 1185,
      "ace ": 1186,
      "ced ": 1187,
      "land ": 1188,
      "og ": 1189,
      "pr": 1190,
      "pen": 1191,
      "ze ": 1192,
      "ining ": 1193,
      "stu": 1194,
      "es were ": 1195,
      "list": 1196,
      "desp": 1197,
      "a . ": 1198,
      "dist": 1199,
      "ite ": 1200,
      "consi": 1201,
      "open": 1202,
      " ark": 1203,
      "stro @-@ ": 1204,
      "fic ": 1205,
      "bodi": 1206,
      "– 1": 1207,
      "estab": 1208,
      "vely ": 1209,
      " aircraft": 1210,
      "private ": 1211,
      "self ": 1212,
      "fini": 1213,
      "ships ": 1214,
      "following ": 1215,
      "critic": 1216,
      "original ": 1217,
      "into the ": 1218,
      "south of hea": 1219,
      "air": 1220,
      "down": 1221,
      "fel": 1222,
      "hy": 1223,
      "hou": 1224,
      "ist": 1225,
      "man ": 1226,
      "olog": 1227,
      "ture ": 1228,
      "up ": 1229,
      "wo": 1230,
      "y to ": 1231,
      "zher": 1232,
      "zog ": 1233,
      "s of the ": 1234,
      "invol": 1235,
      "erzher": 1236,
      "enti": 1237,
      "res": 1238,
      "rela": 1239,
      "off ": 1240,
      "ale ": 1241,
      "roy": 1242,
      "rais": 1243,
      "eas": 1244,
      "consist": 1245,
      " pro": 1246,
      "previ": 1247,
      "one of the ": 1248,
      "she was ": 1249,
      "order": 1250,
      "feat": 1251,
      "univer": 1252,
      "larg": 1253,
      "just ": 1254,
      "sses ": 1255,
      "depic": 1256,
      "public": 1257,
      "important ": 1258,
      "ansas ": 1259,
      "consider": 1260,
      "stro @-@ hungarian ": 1261,
      "erzherzog ": 1262,
      "bil": 1263,
      "cal": 1264,
      "cord": 1265,
      "den": 1266,
      "fru": 1267,
      "hin": 1268,
      "iti": 1269,
      "ima": 1270,
      "jam": 1271,
      "late ": 1272,
      "ment": 1273,
      "pt": 1274,
      "ps ": 1275,
      "squ": 1276,
      " ter": 1277,
      " team ": 1278,
      "onom": 1279,
      "requi": 1280,
      "review": 1281,
      "alli": 1282,
      " another ": 1283,
      "<unk> <unk> , ": 1284,
      "stor": 1285,
      "round ": 1286,
      "ed that the ": 1287,
      "in ma": 1288,
      "last ": 1289,
      "itali": 1290,
      "sho": 1291,
      "main ": 1292,
      " to a ": 1293,
      "m ( ": 1294,
      "space ": 1295,
      "198": 1296,
      "vities ": 1297,
      "vision ": 1298,
      " play": 1299,
      " albu": 1300,
      "increas": 1301,
      "out the ": 1302,
      "foot": 1303,
      "time ": 1304,
      "febru": 1305,
      "games ": 1306,
      "cup ": 1307,
      " appear": 1308,
      "since ": 1309,
      "count": 1310,
      "valkyria chronicles ii": 1311,
      "john ": 1312,
      "commercial ": 1313,
      "establish": 1314,
      " @-@ ": 1315,
      ". al": 1316,
      "brea": 1317,
      "do": 1318,
      "don ": 1319,
      "fl": 1320,
      "he": 1321,
      "ms ": 1322,
      "pan": 1323,
      "pic": 1324,
      "sol": 1325,
      "tor": 1326,
      "vari": 1327,
      " then ": 1328,
      "on a ": 1329,
      "of these ": 1330,
      "ed by the ": 1331,
      "er of the ": 1332,
      "<unk> in ": 1333,
      "<unk> ) ": 1334,
      "cha": 1335,
      "dea": 1336,
      "dec": 1337,
      "del": 1338,
      "ritu": 1339,
      "way": 1340,
      "omb": 1341,
      "ird ": 1342,
      "ray ": 1343,
      "shor": 1344,
      "\" <unk> ": 1345,
      "mov": 1346,
      "tion of ": 1347,
      "prot": 1348,
      " atlanta ": 1349,
      "her sist": 1350,
      "had been ": 1351,
      "tain ": 1352,
      "small ": 1353,
      "during ": 1354,
      "had a ": 1355,
      "histor": 1356,
      "local ": 1357,
      "gold dollar ": 1358,
      "people ": 1359,
      " after the ": 1360,
      " points ": 1361,
      "november ": 1362,
      "family ": 1363,
      "february ": 1364,
      "cat": 1365,
      "came ": 1366,
      "din": 1367,
      "ft ": 1368,
      "har": 1369,
      "hal": 1370,
      "if": 1371,
      "me ": 1372,
      "mark": 1373,
      "pas": 1374,
      "power ": 1375,
      "san": 1376,
      "sing ": 1377,
      "song": 1378,
      "va": 1379,
      "wal": 1380,
      "— ": 1381,
      "ins ": 1382,
      "unti": 1383,
      "reat": 1384,
      ", but ": 1385,
      "al and ": 1386,
      "ally": 1387,
      "ed with ": 1388,
      " any ": 1389,
      "st. ": 1390,
      "roop": 1391,
      "ing of the ": 1392,
      "rif": 1393,
      "a , ": 1394,
      "make ": 1395,
      "connec": 1396,
      "192": 1397,
      " airspace ": 1398,
      "events ": 1399,
      "perform": 1400,
      " accord": 1401,
      "egypt ": 1402,
      "gue ": 1403,
      "contrac": 1404,
      "player ": 1405,
      "back ": 1406,
      "year , ": 1407,
      "carbon": 1408,
      "day ": 1409,
      "foc": 1410,
      "ong with ": 1411,
      "ward ": 1412,
      "austro @-@ hungarian ": 1413,
      "could be ": 1414,
      " auth": 1415,
      "species ": 1416,
      "little rock": 1417,
      "re @-@ ": 1418,
      "stric": 1419,
      " take ": 1420,
      " transport ": 1421,
      "religion ": 1422,
      "religious ": 1423,
      "scho": 1424,
      "pilots ": 1425,
      "regul": 1426,
      "childr": 1427,
      "career ": 1428,
      " temples ": 1429,
      "kingdom ": 1430,
      "nature ": 1431,
      "record ": 1432,
      " association ": 1433,
      "influ": 1434,
      "flower fairi": 1435,
      "south of heaven ": 1436,
      "footb": 1437,
      "carbonari": 1438,
      "children ": 1439,
      ") and ": 1440,
      "10": 1441,
      "1 @.@ ": 1442,
      "bl": 1443,
      "city ": 1444,
      "d the ": 1445,
      "flo": 1446,
      "ges ": 1447,
      "hour": 1448,
      "ific": 1449,
      "jun": 1450,
      "ke": 1451,
      "led": 1452,
      "mul": 1453,
      "met": 1454,
      "mary ": 1455,
      "near": 1456,
      "per ": 1457,
      "ssi": 1458,
      "t and ": 1459,
      "t to ": 1460,
      "wea": 1461,
      "y the ": 1462,
      " turn": 1463,
      "s , and ": 1464,
      " than": 1465,
      " those ": 1466,
      "inch": 1467,
      "ards ": 1468,
      "<unk> @-@ ": 1469,
      "<unk> . \n": 1470,
      "rop": 1471,
      "on @-@ ": 1472,
      "def": 1473,
      "dem": 1474,
      "ford ": 1475,
      "sil": 1476,
      "ir ": 1477,
      "labor": 1478,
      "estim": 1479,
      "itt": 1480,
      "icro": 1481,
      "eared ": 1482,
      "cka": 1483,
      "beg": 1484,
      "being": 1485,
      "191": 1486,
      " pi": 1487,
      " per ": 1488,
      " they": 1489,
      "ext ": 1490,
      "posed ": 1491,
      "ferdin": 1492,
      "fif": 1493,
      "fied ": 1494,
      "five ": 1495,
      "low ": 1496,
      "egyptian": 1497,
      "great ": 1498,
      "carri": 1499,
      "built ": 1500,
      "much ": 1501,
      "gambia ": 1502,
      "union ": 1503,
      "include ": 1504,
      "including ": 1505,
      "ground ": 1506,
      "society ": 1507,
      "ckey ": 1508,
      " addition": 1509,
      "battle ": 1510,
      "known": 1511,
      "pilot ": 1512,
      "navy ": 1513,
      " aerodromes ": 1514,
      "called ": 1515,
      "glid": 1516,
      "album ": 1517,
      "major ": 1518,
      " against": 1519,
      "different ": 1520,
      "women 's ": 1521,
      "united stat": 1522,
      "particular": 1523,
      "military ": 1524,
      "$ ": 1525,
      "88 ": 1526,
      "[ ": 1527,
      "br": 1528,
      "best ": 1529,
      "cou": 1530,
      "cam": 1531,
      "cru": 1532,
      "dor": 1533,
      "dra": 1534,
      "eti": 1535,
      "ever": 1536,
      "fu": 1537,
      "jan": 1538,
      "pol": 1539,
      "song ": 1540,
      "t the ": 1541,
      "uk": 1542,
      "vic": 1543,
      " ap": 1544,
      "organ": 1545,
      "enter": 1546,
      "real": 1547,
      " anim": 1548,
      "chise ": 1549,
      "him ": 1550,
      "dest": 1551,
      "sit": 1552,
      "ways ": 1553,
      "iron": 1554,
      "es the ": 1555,
      "es that ": 1556,
      "goal": 1557,
      "sum": 1558,
      "sugg": 1559,
      "'s go": 1560,
      "others ": 1561,
      "sequ": 1562,
      "play ": 1563,
      "he was ": 1564,
      "ficul": 1565,
      "league ": 1566,
      "first": 1567,
      "tain": 1568,
      "years ": 1569,
      "outside ": 1570,
      "competi": 1571,
      "sms ": 1572,
      "later": 1573,
      " americ": 1574,
      "ause ": 1575,
      "large ": 1576,
      "would be ": 1577,
      "difficul": 1578,
      "general ": 1579,
      "fungu": 1580,
      "hockey ": 1581,
      "tower building ": 1582,
      "number of ": 1583,
      "franchise ": 1584,
      "patter": 1585,
      " activities ": 1586,
      "based ": 1587,
      "music ": 1588,
      "film ": 1589,
      "level": 1590,
      "previous ": 1591,
      "featu": 1592,
      "fruit": 1593,
      "james ": 1594,
      "ferdinand ": 1595,
      "\" there ": 1596,
      ", to ": 1597,
      ". there ": 1598,
      "13": 1599,
      "17": 1600,
      "2 , ": 1601,
      "cat ": 1602,
      "ef ": 1603,
      "fri": 1604,
      "fur": 1605,
      "ged ": 1606,
      "home ": 1607,
      "isi": 1608,
      "il ": 1609,
      "land": 1610,
      "men": 1611,
      "nu": 1612,
      "oun": 1613,
      "ol ": 1614,
      "ring": 1615,
      "ron ": 1616,
      "stic": 1617,
      "uary ": 1618,
      "inch ": 1619,
      "instr": 1620,
      "indu": 1621,
      "only": 1622,
      "ority ": 1623,
      ", which ": 1624,
      "ater ": 1625,
      "ated": 1626,
      "desi": 1627,
      "force ": 1628,
      "ric": 1629,
      "eless ": 1630,
      " , but ": 1631,
      "hab": 1632,
      "ts of ": 1633,
      "busin": 1634,
      " tot": 1635,
      "ism ": 1636,
      " and a ": 1637,
      "when the ": 1638,
      "civi": 1639,
      "civil": 1640,
      "provi": 1641,
      "gods ' ": 1642,
      "even ": 1643,
      " act": 1644,
      "ports ": 1645,
      "commun": 1646,
      "caa ": 1647,
      "either ": 1648,
      "signific": 1649,
      "found ": 1650,
      "ph ": 1651,
      "times ": 1652,
      "feet ": 1653,
      "because ": 1654,
      "later ": 1655,
      "international ": 1656,
      " amun ": 1657,
      "ed as a ": 1658,
      "red to ": 1659,
      "surround": 1660,
      " through ": 1661,
      "between the ": 1662,
      "can be ": 1663,
      " = =": 1664,
      "know": 1665,
      "release ": 1666,
      "child ": 1667,
      "full ": 1668,
      "success": 1669,
      "british": 1670,
      "prof": 1671,
      "despite ": 1672,
      "ombard": 1673,
      "multi": 1674,
      "suggest": 1675,
      "fungus ": 1676,
      "ferdinand ma": 1677,
      "instrum": 1678,
      "'t ": 1679,
      "3 , ": 1680,
      "aga": 1681,
      "band ": 1682,
      "dy ": 1683,
      "dence ": 1684,
      "ide ": 1685,
      "ken ": 1686,
      "leg": 1687,
      "ning": 1688,
      "ner ": 1689,
      "nance ": 1690,
      "next ": 1691,
      "ry": 1692,
      "ram": 1693,
      "s to": 1694,
      "tw": 1695,
      "t to be ": 1696,
      "e . ": 1697,
      " tri": 1698,
      " team": 1699,
      " this": 1700,
      "in an ": 1701,
      "enga": 1702,
      "refer": 1703,
      "restric": 1704,
      ", who ": 1705,
      "ary": 1706,
      "offer": 1707,
      "of this ": 1708,
      ". but ": 1709,
      "roles ": 1710,
      "ched ": 1711,
      "lion ": 1712,
      "in 200": 1713,
      "ri ": 1714,
      "ray": 1715,
      "elements ": 1716,
      "dis": 1717,
      "disc": 1718,
      "shed ": 1719,
      "maat ": 1720,
      "conduc": 1721,
      "confeder": 1722,
      "begin": 1723,
      "behin": 1724,
      "spe": 1725,
      "illu": 1726,
      "suf": 1727,
      "ission": 1728,
      "st , ": 1729,
      "ower": 1730,
      "most": 1731,
      "exam": 1732,
      "exts ": 1733,
      "cip": 1734,
      "set ": 1735,
      " airfiel": 1736,
      "cover": 1737,
      "intro": 1738,
      "ed to be ": 1739,
      "tical ": 1740,
      "part": 1741,
      "part of the ": 1742,
      "given": 1743,
      "common ": 1744,
      "commission": 1745,
      "lity ": 1746,
      " mil": 1747,
      "order ": 1748,
      "ordnance ": 1749,
      "father ": 1750,
      "present ": 1751,
      "played ": 1752,
      "creation ": 1753,
      "becom": 1754,
      "wee": 1755,
      ": \" ": 1756,
      "humans ": 1757,
      ". \" \n": 1758,
      " trans": 1759,
      "still ": 1760,
      "mean": 1761,
      "croy": 1762,
      "publish": 1763,
      "characters ": 1764,
      "under the ": 1765,
      "leshi": 1766,
      "members ": 1767,
      "british ": 1768,
      " about ": 1769,
      "draft ": 1770,
      "christi": 1771,
      "battleshi": 1772,
      "relation": 1773,
      "erzherzog ferdinand ma": 1774,
      "contract ": 1775,
      "weap": 1776,
      "january ": 1777,
      "industr": 1778,
      " of the ": 1779,
      "\" the ": 1780,
      "] ": 1781,
      "ben": 1782,
      "ce": 1783,
      "cir": 1784,
      "cent ": 1785,
      "dd": 1786,
      "evi": 1787,
      "fem": 1788,
      "fle": 1789,
      "ger": 1790,
      "gran": 1791,
      "galli": 1792,
      "iz": 1793,
      "ila": 1794,
      "long ": 1795,
      "medi": 1796,
      "now ": 1797,
      "sun ": 1798,
      "tri": 1799,
      "voc": 1800,
      "win ": 1801,
      "well ": 1802,
      "xim": 1803,
      " tor": 1804,
      "in a": 1805,
      "initi": 1806,
      "engin": 1807,
      "arm": 1808,
      "ars ": 1809,
      "also": 1810,
      "ingly ": 1811,
      "<unk> of ": 1812,
      "<unk> , and ": 1813,
      "<unk> , the ": 1814,
      "sta": 1815,
      "ste": 1816,
      "stra": 1817,
      "station ": 1818,
      "es . \n": 1819,
      "ates ": 1820,
      "ing , ": 1821,
      "forman": 1822,
      "six": 1823,
      "sive ": 1824,
      "sible ": 1825,
      "simil": 1826,
      "was": 1827,
      "a way ": 1828,
      "omin": 1829,
      "disa": 1830,
      "@-@ inch ": 1831,
      "maint": 1832,
      "in the uk ": 1833,
      "supp": 1834,
      "istic": 1835,
      "ve the ": 1836,
      " par": 1837,
      " pri": 1838,
      "earli": 1839,
      "ext": 1840,
      "exclu": 1841,
      "tion , ": 1842,
      "tion . ": 1843,
      "tion of the ": 1844,
      "noise ": 1845,
      "point": 1846,
      "set": 1847,
      "it is ": 1848,
      "ers , ": 1849,
      "ers and ": 1850,
      "plac": 1851,
      " attemp": 1852,
      "range ": 1853,
      "manag": 1854,
      "command": 1855,
      "guit": 1856,
      "184": 1857,
      "book ": 1858,
      "using ": 1859,
      "fire ": 1860,
      "light ": 1861,
      "game 's ": 1862,
      "eigh": 1863,
      "sector ": 1864,
      "tions of ": 1865,
      "2011 ": 1866,
      "found": 1867,
      "servic": 1868,
      "interac": 1869,
      "skray ": 1870,
      "sym": 1871,
      ". she was ": 1872,
      "numbers ": 1873,
      "official ": 1874,
      " @,@ 000": 1875,
      "north": 1876,
      "help": 1877,
      "album": 1878,
      "horus ": 1879,
      "res ( ": 1880,
      "succes": 1881,
      "received ": 1882,
      "control ": 1883,
      "controll": 1884,
      "written ": 1885,
      "zrinyi ": 1886,
      "growth ": 1887,
      "sometimes ": 1888,
      "italian ": 1889,
      ". although": 1890,
      "vaila": 1891,
      "little rock ar": 1892,
      "flower fairies of the ": 1893,
      "pilot lic": 1894,
      "business ": 1895,
      "two ": 1896,
      "t to be a way ": 1897,
      ", a": 1898,
      ", are ": 1899,
      "15 ": 1900,
      "24 ": 1901,
      "25 ": 1902,
      "4 , ": 1903,
      "50 ": 1904,
      "cal ": 1905,
      "cas": 1906,
      "cali": 1907,
      "dar": 1908,
      "do ": 1909,
      "dam": 1910,
      "equi": 1911,
      "fal": 1912,
      "gar": 1913,
      "i , ": 1914,
      "ign ": 1915,
      "ks ": 1916,
      "ken": 1917,
      "led ": 1918,
      "less ": 1919,
      "muni": 1920,
      "micro": 1921,
      "never ": 1922,
      "osi": 1923,
      "prais": 1924,
      "sun": 1925,
      "ted to ": 1926,
      "wn ": 1927,
      "xed ": 1928,
      "yor": 1929,
      "youn": 1930,
      "’ ": 1931,
      " tur": 1932,
      "once ": 1933,
      "unds ": 1934,
      "any ": 1935,
      "rem": 1936,
      "rew ": 1937,
      ", <unk> ": 1938,
      ", in ": 1939,
      "al air": 1940,
      "th and ": 1941,
      "them": 1942,
      "ing that ": 1943,
      "<unk> t": 1944,
      "ating ": 1945,
      "ately ": 1946,
      "lities ": 1947,
      "in ) ": 1948,
      "deal": 1949,
      "forc": 1950,
      "river ": 1951,
      "om ": 1952,
      "am ": 1953,
      "dic": 1954,
      "ess": 1955,
      "ession": 1956,
      "emer": 1957,
      "goal ": 1958,
      "ur ": 1959,
      "sha": 1960,
      "ical ": 1961,
      "ected ": 1962,
      "ead ": 1963,
      "began": 1964,
      "ist ": 1965,
      "mother ": 1966,
      "moder": 1967,
      "who": 1968,
      "tion = = \n": 1969,
      "post": 1970,
      "seum ": 1971,
      " air ": 1972,
      "savan": 1973,
      "eter ": 1974,
      "quali": 1975,
      "performan": 1976,
      "part ": 1977,
      "lead": 1978,
      "deities , ": 1979,
      "ought ": 1980,
      "basi": 1981,
      "lank": 1982,
      " training ": 1983,
      "become ": 1984,
      "more th": 1985,
      "in 199": 1986,
      "syn": 1987,
      "nameless ": 1988,
      " augu": 1989,
      " through the ": 1990,
      "general": 1991,
      "guns ": 1992,
      "certain ": 1993,
      "originally ": 1994,
      "released ": 1995,
      " aerodrome ": 1996,
      "but the ": 1997,
      "carey ": 1998,
      "ditional ": 1999,
      "became the ": 2000,
      "receiv": 2001,
      "scoring ": 2002,
      "goddess ": 2003,
      "flight ": 2004,
      ", although ": 2005,
      "said to ": 2006,
      "creator ": 2007,
      "complet": 2008,
      "group ": 2009,
      "combin": 2010,
      "system ": 2011,
      "hym": 2012,
      "roops ": 2013,
      "focus ": 2014,
      "carbonaria ": 2015,
      "june ": 2016,
      "inches ( ": 2017,
      "began ": 2018,
      " appro": 2019,
      "'s got to be a way ": 2020,
      " american ": 2021,
      "fruitbodi": 2022,
      "design ": 2023,
      " airfields ": 2024,
      "introduc": 2025,
      "christian ": 2026,
      "mainta": 2027,
      "osiri": 2028,
      "savanna": 2029,
      "\" and ": 2030,
      "0 , ": 2031,
      "12 ": 2032,
      "20 ": 2033,
      "23 ": 2034,
      "8 , ": 2035,
      "aer": 2036,
      "bar": 2037,
      "bal": 2038,
      "bel": 2039,
      "cour": 2040,
      "cm ( ": 2041,
      "des ": 2042,
      "dou": 2043,
      "dread": 2044,
      "ee ": 2045,
      "equ": 2046,
      "fing": 2047,
      "fla": 2048,
      "few": 2049,
      "g. ": 2050,
      "gla": 2051,
      "ii ": 2052,
      "km ": 2053,
      "mer": 2054,
      "ns ": 2055,
      "prac": 2056,
      "pre @-@ ": 2057,
      "rul": 2058,
      "sor": 2059,
      "smo": 2060,
      "sri ": 2061,
      "u ": 2062,
      "ut": 2063,
      "usu": 2064,
      "you": 2065,
      " third ": 2066,
      "enc": 2067,
      "rea ": 2068,
      "rely ": 2069,
      "regu": 2070,
      "repa": 2071,
      "tively ": 2072,
      "of an": 2073,
      "of all ": 2074,
      "thing ": 2075,
      "ing and ": 2076,
      "ed by": 2077,
      "<unk> . the ": 2078,
      "star ": 2079,
      "story ": 2080,
      "strea": 2081,
      "road ": 2082,
      "es , and ": 2083,
      "edu": 2084,
      "ed their ": 2085,
      "chur": 2086,
      " and <unk> ": 2087,
      "deal ": 2088,
      "deter": 2089,
      "defini": 2090,
      "for p": 2091,
      "forei": 2092,
      "size ": 2093,
      "disp": 2094,
      "distri": 2095,
      "eman ": 2096,
      "within the ": 2097,
      "@-@ po": 2098,
      "haw": 2099,
      "mak": 2100,
      "cks ": 2101,
      "concep": 2102,
      "ill": 2103,
      "were the ": 2104,
      "194": 2105,
      "196": 2106,
      "moun": 2107,
      "exist": 2108,
      "when": 2109,
      "impro": 2110,
      ") . ": 2111,
      "plain ma": 2112,
      "coin ": 2113,
      "recre": 2114,
      " acro": 2115,
      "ted by ": 2116,
      "lowed ": 2117,
      ", and a ": 2118,
      "about ": 2119,
      "book": 2120,
      " met": 2121,
      "our ": 2122,
      "fair": 2123,
      "former ": 2124,
      " two": 2125,
      "build": 2126,
      "pion": 2127,
      "has a ": 2128,
      " @.@ 4 ": 2129,
      " theme ": 2130,
      " they were ": 2131,
      "out of ": 2132,
      "cult ": 2133,
      "game": 2134,
      "selves ": 2135,
      "ance of ": 2136,
      "finally ": 2137,
      "kings ": 2138,
      "brid": 2139,
      "head ": 2140,
      ", along with ": 2141,
      "roman ": 2142,
      "instead ": 2143,
      "cullen": 2144,
      "geor": 2145,
      "depend": 2146,
      "following the ": 2147,
      "belief": 2148,
      "schol": 2149,
      "support": 2150,
      "support ": 2151,
      " temple ": 2152,
      ", as well": 2153,
      "standards ": 2154,
      "ously ": 2155,
      "field ": 2156,
      "observatory ": 2157,
      "end of the ": 2158,
      "flights ": 2159,
      "coach": 2160,
      "complex": 2161,
      "zrinyi": 2162,
      " tower ": 2163,
      "studi": 2164,
      " arkansas ": 2165,
      "felt": 2166,
      "easa ": 2167,
      "universe ": 2168,
      "considered ": 2169,
      " album ": 2170,
      "death ": 2171,
      "her sister ": 2172,
      "half ": 2173,
      "until": 2174,
      "rifles ": 2175,
      " according to ": 2176,
      "influence ": 2177,
      "ledge ": 2178,
      " pilo": 2179,
      "carried ": 2180,
      "\" there 's got to be a way ": 2181,
      "further ": 2182,
      "suffer": 2183,
      "erzherzog ferdinand max ": 2184,
      "fleet ": 2185,
      "symbo": 2186,
      "performance ": 2187,
      "dreadn": 2188,
      "fingal ": 2189,
      "sri lank": 2190,
      " barker ": 2191,
      ", though": 2192,
      ". after the ": 2193,
      "0s ": 2194,
      "1 @,@ ": 2195,
      "17 ": 2196,
      "5 , ": 2197,
      "ao": 2198,
      "ach": 2199,
      "app": 2200,
      "bra": 2201,
      "cus": 2202,
      "c . ": 2203,
      "dy": 2204,
      "ded": 2205,
      "fly ": 2206,
      "gir": 2207,
      "hen": 2208,
      "hear": 2209,
      "if ": 2210,
      "kin": 2211,
      "ked ": 2212,
      "ling ": 2213,
      "med": 2214,
      "ogra": 2215,
      "pl": 2216,
      "run": 2217,
      "rum": 2218,
      "sons ": 2219,
      "sci": 2220,
      "s to the ": 2221,
      "tt": 2222,
      "ted": 2223,
      "tory ": 2224,
      "ue ": 2225,
      "vo": 2226,
      "we ": 2227,
      "wing": 2228,
      "xis ": 2229,
      "yxis ": 2230,
      " tel": 2231,
      "s are ": 2232,
      " threat": 2233,
      "int ": 2234,
      "in this ": 2235,
      " around": 2236,
      " around ": 2237,
      "er and ": 2238,
      "tial ": 2239,
      "y of ": 2240,
      "of their ": 2241,
      ". some ": 2242,
      "ed of ": 2243,
      "<unk> 's ": 2244,
      "<unk> ( ": 2245,
      "sty": 2246,
      "staf": 2247,
      "ator": 2248,
      "chi": 2249,
      "cho": 2250,
      "cham": 2251,
      "chap": 2252,
      "in 201": 2253,
      "sim": 2254,
      "richar": 2255,
      "a <unk> ": 2256,
      "ire ": 2257,
      "wide ": 2258,
      "was not ": 2259,
      "essen": 2260,
      "loy": 2261,
      "emble ": 2262,
      "ural ": 2263,
      "econom": 2264,
      "east ": 2265,
      "ts of the ": 2266,
      "cona ": 2267,
      "conver": 2268,
      "construc": 2269,
      "old": 2270,
      "been": 2271,
      "such ": 2272,
      "opyxis ": 2273,
      "ters ": 2274,
      "19 ": 2275,
      "193": 2276,
      "vide": 2277,
      "( <unk> ) ": 2278,
      "move ": 2279,
      "excep": 2280,
      "extend": 2281,
      "tion was ": 2282,
      "tion . \n": 2283,
      "cient ": 2284,
      "se of ": 2285,
      "world": 2286,
      "proces": 2287,
      "poli": 2288,
      "points ": 2289,
      "separ": 2290,
      "ers . ": 2291,
      " atta": 2292,
      "he had ": 2293,
      "parti": 2294,
      "given ": 2295,
      "giving ": 2296,
      "scop": 2297,
      "command ": 2298,
      "committ": 2299,
      "18 ": 2300,
      "contra": 2301,
      "leading ": 2302,
      "used to ": 2303,
      "ational ": 2304,
      "ended ": 2305,
      "other gods ": 2306,
      "fav": 2307,
      "which was ": 2308,
      "greater ": 2309,
      "3 – ": 2310,
      "1 – ": 2311,
      "newly ": 2312,
      "has been ": 2313,
      "midd": 2314,
      "arkansas ": 2315,
      "prior": 2316,
      " trade ": 2317,
      "phy": 2318,
      "bility ": 2319,
      "games , ": 2320,
      "mint ": 2321,
      "operation ": 2322,
      "genc": 2323,
      "god 's ": 2324,
      "paint": 2325,
      "eff": 2326,
      "effor": 2327,
      "while the ": 2328,
      "7 \n": 2329,
      "ground": 2330,
      "japan": 2331,
      "monit": 2332,
      "objec": 2333,
      "named ": 2334,
      "stated that ": 2335,
      "over the ": 2336,
      "clos": 2337,
      "started ": 2338,
      "specific ": 2339,
      "black ": 2340,
      "which the ": 2341,
      "which are ": 2342,
      "generally ": 2343,
      "need": 2344,
      "up to ": 2345,
      "geopyxis ": 2346,
      "second": 2347,
      "func": 2348,
      "pope ": 2349,
      "popular ": 2350,
      "north ": 2351,
      "regular ": 2352,
      "releas": 2353,
      "naval ": 2354,
      "period ": 2355,
      "dollar": 2356,
      "mater": 2357,
      "slayer 's ": 2358,
      "limit": 2359,
      "however , ": 2360,
      "due to ": 2361,
      "including the ": 2362,
      "pengu": 2363,
      "aircraf": 2364,
      "squad": 2365,
      "shot ": 2366,
      "country ": 2367,
      "valkyria chronicles iii ": 2368,
      "various ": 2369,
      "delphi": 2370,
      "ritual": 2371,
      "football ": 2372,
      "silver ": 2373,
      " per cent ": 2374,
      " they are ": 2375,
      "united states ": 2376,
      "could": 2377,
      "cruis": 2378,
      "destroy": 2379,
      "ironcla": 2380,
      "habit": 2381,
      "knowledge ": 2382,
      "engag": 2383,
      "confederate ": 2384,
      " million ": 2385,
      "croydon ": 2386,
      "vailable ": 2387,
      "little rock arsenal ": 2388,
      "more than ": 2389,
      "regulation ": 2390,
      "plain maskray ": 2391,
      "\" there 's got to be a way \" ": 2392,
      "champion": 2393,
      "middle ": 2394,
      " b": 2395,
      " in the ": 2396,
      " in 19": 2397,
      " flower fairies of the ": 2398,
      "\" a ": 2399,
      ". as ": 2400,
      "12": 2401,
      "16": 2402,
      "10 ": 2403,
      "1 . ": 2404,
      "24": 2405,
      "22 ": 2406,
      "7 , ": 2407,
      "7 @.@ ": 2408,
      "8 @.@ ": 2409,
      "; the ": 2410,
      "bur": 2411,
      "burn": 2412,
      "bc ": 2413,
      "bombard": 2414,
      "cer ": 2415,
      "don": 2416,
      "down ": 2417,
      "ey": 2418,
      "een ": 2419,
      "fre": 2420,
      "fred": 2421,
      "fron": 2422,
      "free ": 2423,
      "hand": 2424,
      "kar": 2425,
      "k , ": 2426,
      "kg ": 2427,
      "lear": 2428,
      "lef": 2429,
      "mit": 2430,
      "oil": 2431,
      "sen ": 2432,
      "sent": 2433,
      "sac": 2434,
      "ub": 2435,
      "uri": 2436,
      "wro": 2437,
      "west ": 2438,
      "s with ": 2439,
      "s = = = \n": 2440,
      "inv": 2441,
      "in that ": 2442,
      " aspec": 2443,
      " away ": 2444,
      "orpor": 2445,
      "ends ": 2446,
      "rest ": 2447,
      "reign ": 2448,
      "tiv": 2449,
      ", \" ": 2450,
      "of that ": 2451,
      "th , ": 2452,
      "ed . ": 2453,
      "<unk> to ": 2454,
      "<unk> and the ": 2455,
      " ancient ": 2456,
      "<unk> ,": 2457,
      "<unk> k": 2458,
      "<unk> were ": 2459,
      "<unk> ; ": 2460,
      "stan": 2461,
      "stati": 2462,
      "stage ": 2463,
      "rope": 2464,
      "chin": 2465,
      "in his ": 2466,
      "of egyptian ": 2467,
      "ing of ": 2468,
      "deci": 2469,
      "debut ": 2470,
      "situ": 2471,
      "was to ": 2472,
      "wife ": 2473,
      "ditions ": 2474,
      "ity": 2475,
      "loss ": 2476,
      "losing ": 2477,
      "of the gods ": 2478,
      "with p": 2479,
      "shap": 2480,
      "\" . \n": 2481,
      "happ": 2482,
      "mason ": 2483,
      "maxim": 2484,
      "bul": 2485,
      " took": 2486,
      " took ": 2487,
      "concer": 2488,
      "opposi": 2489,
      "istic ": 2490,
      "ce of ": 2491,
      "come ": 2492,
      "195": 2493,
      "vidu": 2494,
      "very ": 2495,
      " art ": 2496,
      " arti": 2497,
      " armor": 2498,
      "n 't ": 2499,
      ", the gods ": 2500,
      ", the blue jackets ": 2501,
      "worth": 2502,
      "worship ": 2503,
      "acles ": 2504,
      "seven ": 2505,
      "sept": 2506,
      ") . \n": 2507,
      "cover ": 2508,
      "saf": 2509,
      "even": 2510,
      "strong ": 2511,
      " acting ": 2512,
      "one of ": 2513,
      "manu": 2514,
      "manif": 2515,
      " ass": 2516,
      " assist": 2517,
      "0 – ": 2518,
      "189": 2519,
      "serve ": 2520,
      "incorpor": 2521,
      " mm ) ": 2522,
      "faci": 2523,
      "greg": 2524,
      "route ": 2525,
      "carth": 2526,
      "cards ": 2527,
      "3 \n": 2528,
      "licop": 2529,
      "built": 2530,
      "credi": 2531,
      "nash": 2532,
      "signed ": 2533,
      "who had ": 2534,
      "out a ": 2535,
      "phy ": 2536,
      "service ": 2537,
      "games . ": 2538,
      "final ": 2539,
      "heav": 2540,
      "human": 2541,
      " throughout the ": 2542,
      "new kingdom": 2543,
      "between": 2544,
      "track": 2545,
      "trade ": 2546,
      "indicat": 2547,
      "individu": 2548,
      "ells ": 2549,
      "struck ": 2550,
      "such as the ": 2551,
      "occur": 2552,
      "representative ": 2553,
      "developed ": 2554,
      " appeared ": 2555,
      "highway ": 2556,
      "centr": 2557,
      "offici": 2558,
      "lightning ": 2559,
      "cancer ": 2560,
      "called the ": 2561,
      "perio": 2562,
      " aviation": 2563,
      "change ": 2564,
      "characteristic": 2565,
      "john": 2566,
      "march ": 2567,
      "region": 2568,
      "erick ": 2569,
      "longac": 2570,
      " activ": 2571,
      "europe": 2572,
      "club ": 2573,
      "purpos": 2574,
      "limited ": 2575,
      "particular ": 2576,
      "blood ": 2577,
      "blocka": 2578,
      "did not ": 2579,
      "combined ": 2580,
      "house ": 2581,
      "house": 2582,
      "imag": 2583,
      "helicop": 2584,
      "soldi": 2585,
      " atlanta was ": 2586,
      "sanford ": 2587,
      "connected ": 2588,
      "school": 2589,
      "hours ": 2590,
      "fifa ": 2591,
      " against the ": 2592,
      "ful ": 2593,
      "goaltend": 2594,
      ". there are ": 2595,
      "significant ": 2596,
      "conducted ": 2597,
      "illustr": 2598,
      "example ": 2599,
      "weapons ": 2600,
      "pilot licence ": 2601,
      "caliber ": 2602,
      "damag": 2603,
      "york ": 2604,
      "essional ": 2605,
      "modern ": 2606,
      "recreational ": 2607,
      " metres ( ": 2608,
      "scholars ": 2609,
      "aoh": 2610,
      "monitors ": 2611,
      "delphia ": 2612,
      "frederick ": 2613,
      "wrote ": 2614,
      "september ": 2615,
      "blockade ": 2616,
      ", that ": 2617,
      ", they ": 2618,
      ". and": 2619,
      ". at the ": 2620,
      ". after ": 2621,
      "100 ": 2622,
      "21 ": 2623,
      "2 @,@ ": 2624,
      "6 , ": 2625,
      "bb": 2626,
      "ban": 2627,
      "brough": 2628,
      "dun": 2629,
      "dents ": 2630,
      "e.": 2631,
      "epi": 2632,
      "fes": 2633,
      "fans ": 2634,
      "gl": 2635,
      "hl": 2636,
      "ham": 2637,
      "hold ": 2638,
      "ie ": 2639,
      "ired ": 2640,
      "je": 2641,
      "ki": 2642,
      "lou": 2643,
      "my ": 2644,
      "mou": 2645,
      "mum": 2646,
      "nearly ": 2647,
      "native ": 2648,
      "os ": 2649,
      "ped": 2650,
      "power": 2651,
      "rend": 2652,
      "sco": 2653,
      "s that the ": 2654,
      "sthe": 2655,
      "ting": 2656,
      "ugh": 2657,
      "vati": 2658,
      "wall": 2659,
      "west": 2660,
      "æsthe": 2661,
      " typ": 2662,
      " texts ": 2663,
      "inj": 2664,
      "inst ": 2665,
      "in addition": 2666,
      "erea": 2667,
      "ore ": 2668,
      "ang": 2669,
      "respec": 2670,
      "relat": 2671,
      "refl": 2672,
      "of t": 2673,
      "ality ": 2674,
      "that the ": 2675,
      "third ": 2676,
      "ing a": 2677,
      "ed for ": 2678,
      "ed her ": 2679,
      "ed from ": 2680,
      "<unk> as ": 2681,
      "<unk> in": 2682,
      "stop": 2683,
      "roman": 2684,
      "es . the ": 2685,
      "ate": 2686,
      "att": 2687,
      "ed at ": 2688,
      "ed airspace ": 2689,
      "chas": 2690,
      "lian ": 2691,
      "liter": 2692,
      "lives ": 2693,
      "in col": 2694,
      "in blood ": 2695,
      "ing in ": 2696,
      "det": 2697,
      "deli": 2698,
      "demon": 2699,
      "rick ": 2700,
      "a 's ": 2701,
      "lace ": 2702,
      "rays ": 2703,
      "wis": 2704,
      "was un": 2705,
      "division ": 2706,
      "itable ": 2707,
      "ury ": 2708,
      "within ": 2709,
      "@-@ star ": 2710,
      "\" \n": 2711,
      "\" . ": 2712,
      "hath": 2713,
      "mas": 2714,
      "macarth": 2715,
      "spr": 2716,
      "'s first ": 2717,
      "ism": 2718,
      " that was ": 2719,
      " that he ": 2720,
      "earth ": 2721,
      "ental ": 2722,
      "moved ": 2723,
      "expres": 2724,
      "wherea": 2725,
      "um , ": 2726,
      "tion in the ": 2727,
      "act ": 2728,
      "promo": 2729,
      "progre": 2730,
      "seen": 2731,
      "with his ": 2732,
      " airworth": 2733,
      "coal ": 2734,
      "th cent": 2735,
      " aten": 2736,
      " at a ": 2737,
      "<unk> , who ": 2738,
      "strali": 2739,
      "s , but ": 2740,
      "give ": 2741,
      "ported ": 2742,
      " = = =": 2743,
      "ongside ": 2744,
      "fixed ": 2745,
      "lyric": 2746,
      "caa": 2747,
      "gave ": 2748,
      "188": 2749,
      "board ": 2750,
      "ated in ": 2751,
      "pped ": 2752,
      "2 – ": 2753,
      "other deities ": 2754,
      "fail": 2755,
      "formal ": 2756,
      " that are ": 2757,
      "base ": 2758,
      "year . ": 2759,
      "coll": 2760,
      "licens": 2761,
      "have been ": 2762,
      "crew": 2763,
      " themed ": 2764,
      " themselves ": 2765,
      "pril ": 2766,
      " travel": 2767,
      " traditional ": 2768,
      "days ": 2769,
      "2012 ": 2770,
      "museum ": 2771,
      "pho": 2772,
      " amate": 2773,
      "warn": 2774,
      "wards ": 2775,
      "in 198": 2776,
      "7 – ": 2777,
      ", all ": 2778,
      "month ": 2779,
      ": \n": 2780,
      "names ": 2781,
      " australi": 2782,
      "world war ": 2783,
      "many deities ": 2784,
      "season . ": 2785,
      "close ": 2786,
      "able to ": 2787,
      "lefield ": 2788,
      "gun ": 2789,
      " tax": 2790,
      "high ": 2791,
      "before the ": 2792,
      "four @-@ ": 2793,
      "funer": 2794,
      "certi": 2795,
      "light aircraft": 2796,
      "popular": 2797,
      "descrip": 2798,
      "antly ": 2799,
      "cana": 2800,
      "glider ": 2801,
      "valkyria chronicles ii ": 2802,
      "held ": 2803,
      "necess": 2804,
      "edition ": 2805,
      "continue ": 2806,
      "continued to ": 2807,
      "region ": 2808,
      "register": 2809,
      " army ": 2810,
      "fully ": 2811,
      "natural ": 2812,
      "memori": 2813,
      "majority ": 2814,
      "; blackie , 193": 2815,
      "europ": 2816,
      "n @-@ 88 ": 2817,
      "goddesses ": 2818,
      "records ": 2819,
      "said to be ": 2820,
      "battlefield ": 2821,
      "resulted ": 2822,
      "group": 2823,
      "name of the ": 2824,
      "planning ": 2825,
      "background ": 2826,
      "distinc": 2827,
      "involv": 2828,
      "off @-@ ": 2829,
      "royal ": 2830,
      "order to ": 2831,
      "denomin": 2832,
      "break": 2833,
      "pick ": 2834,
      "movement ": 2835,
      "school ": 2836,
      "football": 2837,
      "blem": 2838,
      "near ": 2839,
      "defens": 2840,
      "estimat": 2841,
      "particularly ": 2842,
      "doroth": 2843,
      "every": 2844,
      "poly": 2845,
      "civil ": 2846,
      "communic": 2847,
      "feet ( ": 2848,
      "multiple ": 2849,
      "instruments ": 2850,
      "against": 2851,
      "nington ": 2852,
      "beginning ": 2853,
      "mostly ": 2854,
      "evidence ": 2855,
      "similar ": 2856,
      "services ": 2857,
      "controlled airspace ": 2858,
      "’ s ": 2859,
      " august ": 2860,
      "combinations ": 2861,
      "savannah ": 2862,
      "few ": 2863,
      "usually ": 2864,
      "church": 2865,
      "foreign ": 2866,
      "distribu": 2867,
      "@-@ pound ": 2868,
      " acros": 2869,
      "cussion ": 2870,
      "video ": 2871,
      "committee ": 2872,
      "bombardment ": 2873,
      "karl ": 2874,
      "reign in blood ": 2875,
      "bullo": 2876,
      "opposite ": 2877,
      "manufac": 2878,
      "manifest": 2879,
      "facilities ": 2880,
      "heavy ": 2881,
      "goaltender ": 2882,
      "dunnington ": 2883,
      "wester": 2884,
      "æsthetic ": 2885,
      " airworthin": 2886,
      " ) ": 2887,
      " \" there 's got to be a way \" ": 2888,
      ", t": 2889,
      ", after ": 2890,
      ". th": 2891,
      ". to ": 2892,
      ". an ": 2893,
      ". two ": 2894,
      ". another ": 2895,
      "14": 2896,
      "26 ": 2897,
      "29 ": 2898,
      "45 ": 2899,
      "50": 2900,
      "9 , ": 2901,
      ": the ": 2902,
      "available ": 2903,
      "bin ": 2904,
      "ba ": 2905,
      "bir": 2906,
      "bol": 2907,
      "d to ": 2908,
      "efore ": 2909,
      "far": 2910,
      "fund": 2911,
      "go ": 2912,
      "hon": 2913,
      "ide": 2914,
      "ihl ": 2915,
      "ix ": 2916,
      "ished ": 2917,
      "ject": 2918,
      "kic": 2919,
      "mer ": 2920,
      "mes": 2921,
      "mand": 2922,
      "mall": 2923,
      "male ": 2924,
      "mcka": 2925,
      "na ": 2926,
      "now": 2927,
      "nation ": 2928,
      "nas": 2929,
      "nine ": 2930,
      "nect": 2931,
      "nel ": 2932,
      "non @-@ ": 2933,
      "neman ": 2934,
      "prin": 2935,
      "sal": 2936,
      "sent ": 2937,
      "sed the ": 2938,
      "slow": 2939,
      "typ": 2940,
      "upp": 2941,
      "ually ": 2942,
      "ute ": 2943,
      "v ": 2944,
      "wy": 2945,
      "want": 2946,
      "y t": 2947,
      "£ ": 2948,
      " tons ": 2949,
      " thri": 2950,
      "insp": 2951,
      "independ": 2952,
      "anim": 2953,
      "env": 2954,
      "enough": 2955,
      "engra": 2956,
      "ref": 2957,
      "real ": 2958,
      "revi": 2959,
      "reco": 2960,
      "requ": 2961,
      "reduc": 2962,
      "reve": 2963,
      ", p": 2964,
      ", or ": 2965,
      ". it ": 2966,
      "ed . the ": 2967,
      "<unk> and": 2968,
      "<unk> al": 2969,
      "<unk> at ": 2970,
      "er in ": 2971,
      "<unk> \" ": 2972,
      "<unk> in the ": 2973,
      "<unk> <unk> and ": 2974,
      "<unk> , a ": 2975,
      "st. and": 2976,
      "row": 2977,
      "ata ": 2978,
      "ator ": 2979,
      "ed aircraft ": 2980,
      "ed as the ": 2981,
      "liz": 2982,
      "libr": 2983,
      "in )": 2984,
      "in <unk> , ": 2985,
      "ing from ": 2986,
      "laun": 2987,
      "al f": 2988,
      "rail": 2989,
      "rarely ": 2990,
      "diam": 2991,
      "divi": 2992,
      "diver": 2993,
      "esp": 2994,
      "es to ": 2995,
      "ital ": 2996,
      "it also ": 2997,
      "love ": 2998,
      "goals ": 2999,
      "without ": 3000,
      "show": 3001,
      "should ": 3002,
      "icide ": 3003,
      "\" ) ": 3004,
      "\" mand": 3005,
      "hat ": 3006,
      "machin": 3007,
      "connect": 3008,
      "and <unk> ": 3009,
      "spiri": 3010,
      "suicide ": 3011,
      "is not ": 3012,
      ". the ship ": 3013,
      "comes ": 3014,
      "composed ": 3015,
      " pa": 3016,
      " always ": 3017,
      "( e.": 3018,
      ", and was ": 3019,
      "verage ": 3020,
      "enty ": 3021,
      "entry ": 3022,
      "entually ": 3023,
      "mode": 3024,
      "model": 3025,
      "whe": 3026,
      "ation with ": 3027,
      "worst ": 3028,
      "for example ": 3029,
      "propos": 3030,
      "projec": 3031,
      "problem": 3032,
      "post ": 3033,
      "ate the ": 3034,
      " airports ": 3035,
      "presi": 3036,
      "coins ": 3037,
      "gods '": 3038,
      "say": 3039,
      "said ": 3040,
      "eventually ": 3041,
      "quar": 3042,
      "part of ": 3043,
      " accep": 3044,
      "one @-@ ": 3045,
      " = = <unk> ": 3046,
      " = = = \n": 3047,
      "ong the ": 3048,
      "figh": 3049,
      "lywo": 3050,
      "ably ": 3051,
      "about the ": 3052,
      "raffic ": 3053,
      "gaz": 3054,
      "fication ": 3055,
      "ated by the ": 3056,
      " mu": 3057,
      "with the blue jackets ": 3058,
      " their own ": 3059,
      "morning ": 3060,
      "2 \n": 3061,
      "from a ": 3062,
      "forms ": 3063,
      "formed ": 3064,
      "formation ": 3065,
      "green": 3066,
      "lights ": 3067,
      "present": 3068,
      "playing ": 3069,
      "carter ": 3070,
      "licen": 3071,
      "eight ": 3072,
      "4 \n": 3073,
      "oriz": 3074,
      "<unk> <unk> 's ": 3075,
      "who was ": 3076,
      " track ": 3077,
      "phar": 3078,
      "compet": 3079,
      "self": 3080,
      "minor ": 3081,
      "tober ": 3082,
      "latter ": 3083,
      "interview": 3084,
      " time , ": 3085,
      "reach": 3086,
      "most common ": 3087,
      "sion of the ": 3088,
      "ship , ": 3089,
      "ships were ": 3090,
      "brief": 3091,
      "claim": 3092,
      "ga sector ": 3093,
      "sky ": 3094,
      "ska ": 3095,
      "skill": 3096,
      " advan": 3097,
      "egyptian deities ": 3098,
      "egyptian religion ": 3099,
      "surrend": 3100,
      "south": 3101,
      "overall ": 3102,
      "put ": 3103,
      "howson ": 3104,
      "identi": 3105,
      "track ": 3106,
      "strugg": 3107,
      "nebra": 3108,
      "broad": 3109,
      "gether ": 3110,
      "october ": 3111,
      ". he was ": 3112,
      "barker 's ": 3113,
      "critic ": 3114,
      "may be ": 3115,
      "@-@ themed ": 3116,
      "means ": 3117,
      "mission ": 3118,
      "woman ": 3119,
      "ed to a ": 3120,
      "remained ": 3121,
      "remainder ": 3122,
      "chang": 3123,
      "phic ": 3124,
      "where the ": 3125,
      "after": 3126,
      "less": 3127,
      "standard ": 3128,
      "commercial air": 3129,
      " again ": 3130,
      "subjec": 3131,
      "subsequ": 3132,
      "recorded ": 3133,
      "atory suicide ": 3134,
      "observations ": 3135,
      "curr": 3136,
      "n @-@ 7": 3137,
      "governor ": 3138,
      "government ": 3139,
      "hanneman ": 3140,
      "winning ": 3141,
      ", although the ": 3142,
      "engine ": 3143,
      "personal ": 3144,
      "due to the ": 3145,
      "response ": 3146,
      "believed to ": 3147,
      "study ": 3148,
      "self @-@ ": 3149,
      "down the ": 3150,
      "ology ": 3151,
      "involved ": 3152,
      "entire ": 3153,
      "depicted ": 3154,
      "bill ": 3155,
      "squad ": 3156,
      "increasingly ": 3157,
      " appearance ": 3158,
      "commercial operations ": 3159,
      "break ": 3160,
      "december ": 3161,
      "historic": 3162,
      "ft ) ": 3163,
      "until ": 3164,
      "year , she ": 3165,
      "austro @-@ hungarian navy ": 3166,
      "key ": 3167,
      "laboration with ": 3168,
      "draw": 3169,
      "organiz": 3170,
      "hockey league ": 3171,
      "based on ": 3172,
      "professional ": 3173,
      "offering": 3174,
      "behind the ": 3175,
      "becomes ": 3176,
      "weehaw": 3177,
      " transfer": 3178,
      "battleship": 3179,
      "industry ": 3180,
      "female ": 3181,
      "supply ": 3182,
      "zrinyi was ": 3183,
      "casem": 3184,
      "equip": 3185,
      "young": 3186,
      "dealer": 3187,
      "you ": 3188,
      "educ": 3189,
      "fairy ": 3190,
      "gameplay ": 3191,
      "georgi": 3192,
      "until the ": 3193,
      "dreadnought ": 3194,
      " around the ": 3195,
      "style ": 3196,
      "essential ": 3197,
      "separate ": 3198,
      "particip": 3199,
      "scope of ": 3200,
      "material ": 3201,
      "squadron ": 3202,
      "engaged in ": 3203,
      "statistic": 3204,
      "gregori": 3205,
      "soldiers ": 3206,
      "frederick warn": 3207,
      "louis ": 3208,
      "vatican ": 3209,
      "attn": 3210,
      "hathor ": 3211,
      "collec": 3212,
      "bulloch ": 3213,
      " airworthines": 3214,
      "upper ": 3215,
      " thrill": 3216,
      "recogn": 3217,
      "\" mandatory suicide ": 3218,
      " cullen ": 3219,
      "& b": 3220,
      ", as the ": 3221,
      ".6": 3222,
      "23": 3223,
      "2n": 3224,
      "28 ": 3225,
      "3 . ": 3226,
      "300 ": 3227,
      "40 ": 3228,
      "4 @.@ ": 3229,
      "5 and ": 3230,
      "500 ": 3231,
      "awa": 3232,
      "avi": 3233,
      "awar": 3234,
      "away ": 3235,
      "b. ": 3236,
      "cop": 3237,
      "center": 3238,
      "dro": 3239,
      "done ": 3240,
      "ech": 3241,
      "eli": 3242,
      "fect": 3243,
      "gard": 3244,
      "here ": 3245,
      "hall ": 3246,
      "i . ": 3247,
      "ious ": 3248,
      "ized ": 3249,
      "jef": 3250,
      "kel": 3251,
      "kno": 3252,
      "lated ": 3253,
      "lombard": 3254,
      "men ": 3255,
      "mine ": 3256,
      "ments ": 3257,
      "mari": 3258,
      "mund ": 3259,
      "ner": 3260,
      "nes": 3261,
      "p , ": 3262,
      "ro ": 3263,
      "sbur": 3264,
      "tt ": 3265,
      "tch": 3266,
      "tur": 3267,
      "t to": 3268,
      "tran": 3269,
      "tru": 3270,
      "tori": 3271,
      "tford ": 3272,
      "ving": 3273,
      "van ": 3274,
      "vent": 3275,
      "ving the ": 3276,
      "weigh": 3277,
      "what ": 3278,
      "xii": 3279,
      " tit": 3280,
      " troops ": 3281,
      "s in the ": 3282,
      "s and": 3283,
      " thin": 3284,
      " ther": 3285,
      " thus ": 3286,
      " things ": 3287,
      "inju": 3288,
      " abo": 3289,
      " ada": 3290,
      " award ": 3291,
      " average ": 3292,
      "ont": 3293,
      "onto ": 3294,
      "onogra": 3295,
      "t @-@ ": 3296,
      "or the ": 3297,
      "orities ": 3298,
      "uner": 3299,
      "units ": 3300,
      "an and ": 3301,
      "enom": 3302,
      "enced ": 3303,
      "rep": 3304,
      "ret ": 3305,
      "repe": 3306,
      "title ": 3307,
      "tivel": 3308,
      ", was ": 3309,
      ", <unk> , ": 3310,
      ", he ": 3311,
      ", including ": 3312,
      "arg": 3313,
      "aro": 3314,
      "of aircraft ": 3315,
      "often": 3316,
      "of three ": 3317,
      "of all": 3318,
      "aled ": 3319,
      "allow": 3320,
      "three ": 3321,
      "throp": 3322,
      ". in 19": 3323,
      ". while ": 3324,
      ". dunnington ": 3325,
      "ingu": 3326,
      "ing to": 3327,
      "ing to the ": 3328,
      "ing to a ": 3329,
      "ed <unk> ": 3330,
      "ed on ": 3331,
      "ed or ": 3332,
      "ed for the ": 3333,
      "<unk> was ": 3334,
      "<unk> of the ": 3335,
      "stre": 3336,
      "stom": 3337,
      "es ; ": 3338,
      "atta": 3339,
      "on , ": 3340,
      "on her ": 3341,
      "edmund ": 3342,
      "chance ": 3343,
      "lied ": 3344,
      "list ": 3345,
      "in <unk> ": 3346,
      "in franchise ": 3347,
      "of which ": 3348,
      "hier": 3349,
      "his t": 3350,
      "dead": 3351,
      "deta": 3352,
      "decess": 3353,
      "depart": 3354,
      "decommission": 3355,
      "fort ": 3356,
      "forces ": 3357,
      "site ": 3358,
      "six ": 3359,
      "sity ": 3360,
      "last": 3361,
      "al of ": 3362,
      "race ": 3363,
      "rather": 3364,
      "els ": 3365,
      "eline ": 3366,
      "wil": 3367,
      "will ": 3368,
      "was also ": 3369,
      "dition ": 3370,
      "emi": 3371,
      "shell ": 3372,
      "iconogra": 3373,
      "ect ": 3374,
      "@-@ <unk> ": 3375,
      "\" . the ": 3376,
      "\" south of heaven ": 3377,
      "magaz": 3378,
      "ts in ": 3379,
      "ts and ": 3380,
      "ts were ": 3381,
      "ts ( ": 3382,
      "bute ": 3383,
      "m )": 3384,
      "congre": 3385,
      "spread": 3386,
      "in the united ": 3387,
      ". the two ": 3388,
      "ised ": 3389,
      "197": 3390,
      "1920": 3391,
      " and to ": 3392,
      "ultim": 3393,
      " also": 3394,
      " although": 3395,
      "( c . ": 3396,
      "earch ": 3397,
      "or of ": 3398,
      "white ": 3399,
      "exper": 3400,
      "experi": 3401,
      "ation of the ": 3402,
      "noun": 3403,
      "othe": 3404,
      "word ": 3405,
      "for her ": 3406,
      "promin": 3407,
      "procu": 3408,
      "proposed ": 3409,
      "pose ": 3410,
      ") \n": 3411,
      ") ; ": 3412,
      "it 's ": 3413,
      "it was the ": 3414,
      "ers of ": 3415,
      "places ": 3416,
      "cosmo": 3417,
      "ass": 3418,
      "as the ": 3419,
      "sab": 3420,
      "que ": 3421,
      "s , which ": 3422,
      "shif": 3423,
      "park ": 3424,
      "his first ": 3425,
      " acces": 3426,
      "lower ": 3427,
      " their p": 3428,
      "common": 3429,
      "cause ": 3430,
      "18 , ": 3431,
      "; <unk> ": 3432,
      "conta": 3433,
      "contact ": 3434,
      "boat ": 3435,
      "body ": 3436,
      "bott": 3437,
      "ated by ": 3438,
      " mis": 3439,
      "ation and ": 3440,
      "face ": 3441,
      "rule ": 3442,
      "rubin ": 3443,
      "form the ": 3444,
      "tion and ": 3445,
      "gree": 3446,
      "playoff": 3447,
      "playstation ": 3448,
      "lands ": 3449,
      "years , ": 3450,
      "carol": 3451,
      "cartri": 3452,
      "pist": 3453,
      "have a ": 3454,
      "creti": 3455,
      "might ": 3456,
      "primary ": 3457,
      "es , including ": 3458,
      "day , ": 3459,
      "phenom": 3460,
      "servation of ": 3461,
      "bian ": 3462,
      "compan": 3463,
      "sely ": 3464,
      "minut": 3465,
      "seasons ": 3466,
      "webb": 3467,
      "during": 3468,
      "later , ": 3469,
      " amun": 3470,
      "reached ": 3471,
      "clas": 3472,
      "classi": 3473,
      "ga , ": 3474,
      "<unk> and <unk> ": 3475,
      "societ": 3476,
      "fourth ": 3477,
      "mone": 3478,
      "month": 3479,
      "monten": 3480,
      "surve": 3481,
      "custom": 3482,
      "new kingdom ": 3483,
      "clock ": 3484,
      "closed ": 3485,
      "dergar": 3486,
      "july ": 3487,
      "instance ": 3488,
      "specific": 3489,
      "how ": 3490,
      "national football": 3491,
      "appro": 3492,
      "as well": 3493,
      "broken ": 3494,
      "like the ": 3495,
      "geport ": 3496,
      " taking ": 3497,
      "they ": 3498,
      "their ": 3499,
      "represented ": 3500,
      " appli": 3501,
      "center ": 3502,
      "gradu": 3503,
      "officers ": 3504,
      "popu": 3505,
      "counter": 3506,
      "gliding ": 3507,
      "hunwi": 3508,
      "reason ": 3509,
      "1998 ": 3510,
      "works ": 3511,
      "positive ": 3512,
      "help ": 3513,
      "changes ": 3514,
      "expand": 3515,
      "expect": 3516,
      "stern ": 3517,
      "after ": 3518,
      "standing ": 3519,
      " person": 3520,
      "patron ": 3521,
      "team 's ": 3522,
      "director": 3523,
      "issue ": 3524,
      "captain": 3525,
      "described the ": 3526,
      "hang ": 3527,
      "purchas": 3528,
      "winds ": 3529,
      "under @-@ ": 3530,
      "military": 3531,
      "series ": 3532,
      "series . ": 3533,
      "series of ": 3534,
      "federal t": 3535,
      "structure ": 3536,
      "plann": 3537,
      "something ": 3538,
      "distingu": 3539,
      " aircraft are ": 3540,
      "private flying ": 3541,
      "larger": 3542,
      "larger ": 3543,
      "public ": 3544,
      "bill": 3545,
      "image ": 3546,
      "required ": 3547,
      "does ": 3548,
      "heal": 3549,
      "chase ": 3550,
      "rituals ": 3551,
      "her sisters ": 3552,
      "hartford ": 3553,
      "half": 3554,
      "sanc": 3555,
      "songs ": 3556,
      "st. edmund ": 3557,
      " transport operations ": 3558,
      "floor ": 3559,
      "keep": 3560,
      "realm": 3561,
      "summer ": 3562,
      "first time ": 3563,
      "later that ": 3564,
      "difficult to ": 3565,
      "patterson ": 3566,
      "music video ": 3567,
      "features ": 3568,
      "friends ": 3569,
      " totten ": 3570,
      " actre": 3571,
      "restrictions ": 3572,
      "given to ": 3573,
      "published ": 3574,
      "relationship ": 3575,
      "relationships ": 3576,
      "ceed": 3577,
      " torped": 3578,
      "engines ": 3579,
      "guitar": 3580,
      "book of ": 3581,
      ". although ": 3582,
      "munition ": 3583,
      "remuner": 3584,
      "rew 's ": 3585,
      "become a ": 3586,
      "syncreti": 3587,
      "ballo": 3588,
      "double ": 3589,
      "practic": 3590,
      "ed by a ": 3591,
      "streak ": 3592,
      "bridgeport ": 3593,
      ", as well as ": 3594,
      "complex ": 3595,
      "zrinyi and ": 3596,
      "studio": 3597,
      "carried out ": 3598,
      "girl ": 3599,
      "kindergar": 3600,
      "rumor": 3601,
      " threaten": 3602,
      "staff": 3603,
      "chief ": 3604,
      "richards ": 3605,
      "economic ": 3606,
      "political ": 3607,
      "favor": 3608,
      "physi": 3609,
      "geopyxis carbonaria ": 3610,
      "penguins ": 3611,
      "maximum ": 3612,
      "incorporated ": 3613,
      "new kingdom , ": 3614,
      "central ": 3615,
      "longacre ": 3616,
      " activity ": 3617,
      "european ": 3618,
      "brought ": 3619,
      "mouth ": 3620,
      "reflect": 3621,
      "whereas ": 3622,
      " atenism ": 3623,
      "museum of ": 3624,
      " amateur ": 3625,
      "civil war ": 3626,
      "manifestations ": 3627,
      "mallory ": 3628,
      "mckay ": 3629,
      "anime ": 3630,
      "environ": 3631,
      "engraver ": 3632,
      "library ": 3633,
      "should be ": 3634,
      " = = <unk> = = \n": 3635,
      "lywood ": 3636,
      "pharaoh": 3637,
      "briefly ": 3638,
      "nebraska ": 3639,
      "commercial air transport ": 3640,
      "subsequently ": 3641,
      "equipment ": 3642,
      "georgia ": 3643,
      "frederick warne , ": 3644,
      "aviation ": 3645,
      "jeff ": 3646,
      "lombardo ": 3647,
      "deadline ": 3648,
      "cartrid": 3649,
      "phenomen": 3650,
      "monteneg": 3651,
      "st. edmund 's ": 3652,
      " on ": 3653,
      " \" ": 3654,
      ", as": 3655,
      ", this ": 3656,
      ", an ": 3657,
      "..": 3658,
      ". an": 3659,
      ". as a ": 3660,
      ". addition": 3661,
      ". atlanta was ": 3662,
      "13 ": 3663,
      "27": 3664,
      "30": 3665,
      "35": 3666,
      "38": 3667,
      "400 ": 3668,
      "80": 3669,
      "9 @.@ 4 ": 3670,
      "; and ": 3671,
      "apo": 3672,
      "area ": 3673,
      "bre": 3674,
      "cy": 3675,
      "c. ": 3676,
      "dg": 3677,
      "dre": 3678,
      "dent ": 3679,
      "dow ": 3680,
      "eor": 3681,
      "ean ": 3682,
      "eve ": 3683,
      "eople ": 3684,
      "fan": 3685,
      "fate ": 3686,
      "flight": 3687,
      "gr": 3688,
      "gle ": 3689,
      "gas": 3690,
      "hold": 3691,
      "ial": 3692,
      "ior ": 3693,
      "jo ": 3694,
      "jac": 3695,
      "kh": 3696,
      "kep": 3697,
      "km ) ": 3698,
      "lt": 3699,
      "lor": 3700,
      "mp": 3701,
      "mir": 3702,
      "mint": 3703,
      "meas": 3704,
      "neg": 3705,
      "net": 3706,
      "neither ": 3707,
      "nhl": 3708,
      "n australi": 3709,
      "ove ": 3710,
      "oke ": 3711,
      "oil ": 3712,
      "pha": 3713,
      "plat": 3714,
      "ppoint": 3715,
      "r ": 3716,
      "rhym": 3717,
      "sf": 3718,
      "sw": 3719,
      "sati": 3720,
      "sop": 3721,
      "sex": 3722,
      "ty": 3723,
      "tom": 3724,
      "t a ": 3725,
      "top": 3726,
      "team": 3727,
      "ted a ": 3728,
      "wat": 3729,
      "won ": 3730,
      "water ": 3731,
      "yot": 3732,
      "zen": 3733,
      "— the ": 3734,
      "e 's ": 3735,
      " tone ": 3736,
      " traffic ": 3737,
      "s universe ": 3738,
      "s ang": 3739,
      "ining": 3740,
      "in two ": 3741,
      " astr": 3742,
      " agre": 3743,
      " april ": 3744,
      "erran": 3745,
      "d @-@ ": 3746,
      " the first ": 3747,
      "on an": 3748,
      "on their ": 3749,
      "t for ": 3750,
      "t it ": 3751,
      "t on the ": 3752,
      "unit": 3753,
      "unit ": 3754,
      "unlike ": 3755,
      "another ": 3756,
      "an army ": 3757,
      "ense ": 3758,
      "enix ": 3759,
      "rein": 3760,
      "reta": 3761,
      "remark": 3762,
      "related ": 3763,
      "tis ": 3764,
      "till": 3765,
      ", while ": 3766,
      ", such as ": 3767,
      "arch": 3768,
      "of an ": 3769,
      "of airworthines": 3770,
      "al to ": 3771,
      "als , ": 3772,
      "there ": 3773,
      "this ": 3774,
      ". on ": 3775,
      ". her ": 3776,
      ". other ": 3777,
      ". most ": 3778,
      ". it was ": 3779,
      ". because ": 3780,
      "ing that the ": 3781,
      "ed his ": 3782,
      "ed on the ": 3783,
      "<unk> a": 3784,
      "<unk> that ": 3785,
      "<unk> or ": 3786,
      "<unk> , and the ": 3787,
      "ster ": 3788,
      "ston ": 3789,
      "stone ": 3790,
      "station": 3791,
      "stria ": 3792,
      "road": 3793,
      "roll": 3794,
      "row ": 3795,
      "rober": 3796,
      "rounds ": 3797,
      "room ": 3798,
      "es in ": 3799,
      "es for": 3800,
      "aten ": 3801,
      "atter": 3802,
      "ated the ": 3803,
      "ating the ": 3804,
      "attemp": 3805,
      "atlanta ": 3806,
      "ed t": 3807,
      "ed a": 3808,
      "edul": 3809,
      "ed an ": 3810,
      "ed at the ": 3811,
      "cht ": 3812,
      "chall": 3813,
      "in its ": 3814,
      "in early ": 3815,
      "in order to ": 3816,
      "of deities ": 3817,
      "ing \" ": 3818,
      "ing in the ": 3819,
      "ing . the ": 3820,
      "ing on the ": 3821,
      "hib": 3822,
      "hitch": 3823,
      "dev": 3824,
      "depar": 3825,
      "deca": 3826,
      "defin": 3827,
      "fort": 3828,
      "sis ": 3829,
      "sibility ": 3830,
      "rich": 3831,
      "righ": 3832,
      "river": 3833,
      " a large ": 3834,
      "iron ": 3835,
      "iring ": 3836,
      "lack ": 3837,
      "lake ": 3838,
      "ladelphia ": 3839,
      "ele": 3840,
      "el , ": 3841,
      "elev": 3842,
      "elder ": 3843,
      "widesp": 3844,
      "was re": 3845,
      "was an ": 3846,
      "did": 3847,
      "dial ": 3848,
      "dian ": 3849,
      "ital": 3850,
      "itlake ": 3851,
      "atic ": 3852,
      "logi": 3853,
      "lock ": 3854,
      "load": 3855,
      "look": 3856,
      "los ang": 3857,
      "of the state ": 3858,
      "of the battlefield ": 3859,
      "emon": 3860,
      "ement": 3861,
      "empor": 3862,
      "gobre": 3863,
      "ury , ": 3864,
      "shot": 3865,
      "shown ": 3866,
      "ica": 3867,
      "eci": 3868,
      "each": 3869,
      "@-@ up ": 3870,
      "@-@ round ": 3871,
      "@-@ register": 3872,
      "ck the ": 3873,
      "cking ": 3874,
      " too ": 3875,
      " together ": 3876,
      "conclu": 3877,
      "spent": 3878,
      "sphere ": 3879,
      "in the early ": 3880,
      "superi": 3881,
      "come": 3882,
      "term ": 3883,
      "1918 ": 3884,
      "visu": 3885,
      " por": 3886,
      " plan": 3887,
      " power": 3888,
      " alongside ": 3889,
      " as \"": 3890,
      " as \" ": 3891,
      "( \" ": 3892,
      "( us ": 3893,
      "moto ": 3894,
      "exten": 3895,
      "whal": 3896,
      "whose ": 3897,
      "ation , ": 3898,
      "tion with the ": 3899,
      "noted ": 3900,
      "note ": 3901,
      "citi": 3902,
      "cidents ": 3903,
      "worshi": 3904,
      "working ": 3905,
      "for instance ": 3906,
      "acti": 3907,
      "acqui": 3908,
      "imp": 3909,
      "prob": 3910,
      "see": 3911,
      "seem": 3912,
      ") . the ": 3913,
      ") is a ": 3914,
      "it \" ": 3915,
      "eget": 3916,
      "predecess": 3917,
      "placed ": 3918,
      "cost": 3919,
      "coyot": 3920,
      "gods , ": 3921,
      "gods and ": 3922,
      "gods are ": 3923,
      "assign": 3924,
      "intend": 3925,
      "intlock ": 3926,
      "saw": 3927,
      "sage ": 3928,
      "saki": 3929,
      "and a ": 3930,
      "and their ": 3931,
      "recently ": 3932,
      "th of ": 3933,
      "etr": 3934,
      "quic": 3935,
      "queen ": 3936,
      "queline ": 3937,
      "<unk> , were ": 3938,
      "ed to re": 3939,
      "strat": 3940,
      "perman": 3941,
      "person ": 3942,
      "his bro": 3943,
      " actions ": 3944,
      " accoun": 3945,
      "ewsk": 3946,
      "ferti": 3947,
      "ranto ": 3948,
      "scen": 3949,
      "many": 3950,
      "commonly ": 3951,
      "ly the ": 3952,
      "egypto": 3953,
      "by a ": 3954,
      "by their ": 3955,
      "ga airfields ": 3956,
      "soon": 3957,
      "sound": 3958,
      "contri": 3959,
      "boston ": 3960,
      "increa": 3961,
      "from his ": 3962,
      "least ": 3963,
      " me": 3964,
      " micro": 3965,
      " mph ": 3966,
      " more ": 3967,
      "on the morning ": 3968,
      " . <unk> ": 3969,
      "to be ": 3970,
      "tion to ": 3971,
      "gree ": 3972,
      "great": 3973,
      "grew ": 3974,
      "lighter ": 3975,
      "presence ": 3976,
      " that a ": 3977,
      "players ": 3978,
      "played in the ": 3979,
      "had not ": 3980,
      "had been": 3981,
      "charge ": 3982,
      "color": 3983,
      "game , ": 3984,
      "s . he ": 3985,
      "ests ": 3986,
      "employ": 3987,
      "has since ": 3988,
      "4 . \n": 3989,
      "4 – ": 3990,
      "created ": 3991,
      "crew ": 3992,
      "senjo ": 3993,
      "nah": 3994,
      "navi": 3995,
      "nash ": 3996,
      "<unk> <unk> . ": 3997,
      "who were ": 3998,
      " @.@ 5 ": 3999,
      "sector": 4000,
      "mix": 4001,
      " them to ": 4002,
      "tions = = \n": 4003,
      "2010 ": 4004,
      "must ": 4005,
      "feed": 4006,
      "compon": 4007,
      "company ": 4008,
      "selec": 4009,
      "unique ": 4010,
      "finan": 4011,
      "interpre": 4012,
      "intersec": 4013,
      " among ": 4014,
      "read ": 4015,
      "pair ": 4016,
      "alized ": 4017,
      " two @-@ ": 4018,
      "2006": 4019,
      "2008 ": 4020,
      "2006 ": 4021,
      "s to be ": 4022,
      "auth": 4023,
      "austri": 4024,
      "ga operations ": 4025,
      " there are ": 4026,
      " aircraft , ": 4027,
      " aircraft operation ": 4028,
      ", also ": 4029,
      "monothe": 4030,
      "national t": 4031,
      "otro": 4032,
      "otranto ": 4033,
      " adv": 4034,
      "valkyria 3 ": 4035,
      "statu": 4036,
      "stated that the ": 4037,
      "over to the ": 4038,
      "world 's ": 4039,
      "world cup ": 4040,
      "just": 4041,
      "batter": 4042,
      "india": 4043,
      "india ": 4044,
      "indian ": 4045,
      "ley ": 4046,
      "would not ": 4047,
      "ney ": 4048,
      "scrip": 4049,
      "as a ": 4050,
      "broke ": 4051,
      "domin": 4052,
      "gun por": 4053,
      "their": 4054,
      "locations ": 4055,
      "gold dollar": 4056,
      " all @-@ star ": 4057,
      "highest ": 4058,
      "seconds ": 4059,
      "may 19": 4060,
      "may have ": 4061,
      "belief ": 4062,
      "ceremon": 4063,
      "@-@ time ": 4064,
      "1862 ": 4065,
      "1861 ": 4066,
      "schedul": 4067,
      "myster": 4068,
      "missions ": 4069,
      "norther": 4070,
      "each character ": 4071,
      "navy , ": 4072,
      "no valkyria 3 ": 4073,
      ". in 200": 4074,
      "1990 ": 4075,
      "position ": 4076,
      "remaining ": 4077,
      "into a ": 4078,
      "cullen was ": 4079,
      "born ": 4080,
      "neck": 4081,
      "philadelphia ": 4082,
      " three @-@ ": 4083,
      "designated ": 4084,
      " pounds ": 4085,
      "horn": 4086,
      "nile ": 4087,
      "night ": 4088,
      "niewsk": 4089,
      "regions ": 4090,
      " arms ": 4091,
      "production ": 4092,
      "match ": 4093,
      "; blackie , 194": 4094,
      "long tons ": 4095,
      "temple ": 4096,
      "al tro": 4097,
      " percussion ": 4098,
      "into one ": 4099,
      "fernandez has ": 4100,
      "direct ": 4101,
      "director ": 4102,
      "curtis ": 4103,
      "club , ": 4104,
      "returned to ": 4105,
      "purchase ": 4106,
      "window ": 4107,
      "himself ": 4108,
      "/ h ": 4109,
      "block": 4110,
      "veter": 4111,
      "christ": 4112,
      "federal ": 4113,
      "coast ": 4114,
      "coach ": 4115,
      "personi": 4116,
      "development of ": 4117,
      "writings ": 4118,
      "famili": 4119,
      "level ": 4120,
      "responsibility ": 4121,
      "life @-@ ": 4122,
      "other than": 4123,
      "history = = \n": 4124,
      "myths ": 4125,
      "listen": 4126,
      "opening ": 4127,
      " arka": 4128,
      " arkansa": 4129,
      "finish": 4130,
      "wood": 4131,
      "research ": 4132,
      "consisted ": 4133,
      "consisted of ": 4134,
      "consisting of ": 4135,
      "university ": 4136,
      "erzherzog karl ": 4137,
      "calend": 4138,
      "hind": 4139,
      " terms ": 4140,
      "required to ": 4141,
      "review ": 4142,
      "<unk> <unk> , which ": 4143,
      "shoot": 4144,
      " album": 4145,
      "established ": 4146,
      "flintlock ": 4147,
      "panthe": 4148,
      "picture ": 4149,
      "solar ": 4150,
      "variety ": 4151,
      "chao": 4152,
      "way that ": 4153,
      "protec": 4154,
      "protect": 4155,
      "rifle ": 4156,
      "performed ": 4157,
      " authority ": 4158,
      " take place ": 4159,
      "regulatory ": 4160,
      "metal ": 4161,
      "meteor": 4162,
      " turns ": 4163,
      " turned ": 4164,
      "demons ": 4165,
      " piec": 4166,
      "include the ": 4167,
      "known as ": 4168,
      "gliding": 4169,
      "gliders ": 4170,
      "pola ": 4171,
      "uk , ": 4172,
      "victori": 4173,
      " animal ": 4174,
      "destin": 4175,
      "pattern": 4176,
      "featured ": 4177,
      "isis ": 4178,
      "only two ": 4179,
      "civil aviation ": 4180,
      "provide ": 4181,
      "provided ": 4182,
      "instrument": 4183,
      "band 's ": 4184,
      "legis": 4185,
      "speed of ": 4186,
      "weapon ": 4187,
      "benef": 4188,
      "circul": 4189,
      "german ": 4190,
      "sun god ": 4191,
      "similar": 4192,
      "disappoint": 4193,
      "@-@ inch ( ": 4194,
      " private ": 4195,
      "earlier ": 4196,
      "commander ": 4197,
      "commander of the ": 4198,
      "guitar ": 4199,
      "helped ": 4200,
      "written by ": 4201,
      "do not ": 4202,
      "young ": 4203,
      "began to ": 4204,
      "whole ": 4205,
      "general aviation ": 4206,
      "creator god ": 4207,
      " approach": 4208,
      "fruitbodies are ": 4209,
      "osiris , ": 4210,
      "g. carbonaria ": 4211,
      "km / h ": 4212,
      "smooth": 4213,
      "repaired ": 4214,
      "of ancona ": 4215,
      "existence ": 4216,
      "improv": 4217,
      "bridge ": 4218,
      "beliefs ": 4219,
      ", as well as the ": 4220,
      "felt that ": 4221,
      "suffered a ": 4222,
      "symbolic": 4223,
      "fingal was ": 4224,
      "sri lanka ": 4225,
      ", though ": 4226,
      "appeared ": 4227,
      "dedic": 4228,
      "plan ": 4229,
      "prior to the ": 4230,
      "gency ": 4231,
      "japanese ": 4232,
      "objects ": 4233,
      "function": 4234,
      "aircraft ": 4235,
      " per cent of ": 4236,
      "ironclad ": 4237,
      "knowledge , ": 4238,
      "championship ": 4239,
      "kg ) ": 4240,
      "left ": 4241,
      "mitted ": 4242,
      "sacred ": 4243,
      "rest of the ": 4244,
      "safety ": 4245,
      " assistant ": 4246,
      "credited ": 4247,
      "occurred ": 4248,
      "periods ": 4249,
      "housefull ": 4250,
      "hours flow": 4251,
      "scholars have ": 4252,
      "wisniewsk": 4253,
      "macarthur": 4254,
      "spring ": 4255,
      "fixed @-@ ": 4256,
      "failed to ": 4257,
      "phoenix ": 4258,
      "memorial tro": 4259,
      "majority of ": 4260,
      "europe ": 4261,
      "distinct ": 4262,
      "dorothy ": 4263,
      "polythe": 4264,
      "against the ": 4265,
      " across the ": 4266,
      "western ": 4267,
      "independent ": 4268,
      "enough ": 4269,
      "st. andrew 's ": 4270,
      "al fin ": 4271,
      "machiner": 4272,
      "( e.g": 4273,
      "whether": 4274,
      "post @-@ ": 4275,
      "licensed ": 4276,
      "surrender": 4277,
      "remainder of the ": 4278,
      "current ": 4279,
      "n @-@ 71 ": 4280,
      "hockey league ( ": 4281,
      "casemate ": 4282,
      "dealership ": 4283,
      "gregorian": 4284,
      "attnall": 4285,
      " thriller ": 4286,
      ".69 ": 4287,
      "2nd ": 4288,
      "elimin": 4289,
      "knots ( ": 4290,
      " therefore ": 4291,
      " above the ": 4292,
      "title track": 4293,
      "chance to ": 4294,
      "rather than ": 4295,
      "magazine ": 4296,
      "nounc": 4297,
      "procured ": 4298,
      "sabres ": 4299,
      " access to ": 4300,
      "bottom": 4301,
      "carolin": 4302,
      "piston @-@ ": 4303,
      "webb ": 4304,
      "as well as ": 4305,
      "expanded ": 4306,
      "distinguished ": 4307,
      "does not ": 4308,
      "sanctu": 4309,
      "physical ": 4310,
      "cartridges ": 4311,
      "jacqueline ": 4312,
      "kept ": 4313,
      "measure ": 4314,
      " astronom": 4315,
      "hitchco": 4316,
      "los angel": 4317,
      "gobrecht ": 4318,
      "sakimoto ": 4319,
      "his brother ": 4320,
      "increase ": 4321,
      "on the morning of ": 4322,
      "senjo no valkyria 3 ": 4323,
      "pair of ": 4324,
      " pounds ( ": 4325,
      "meteorolog": 4326,
      "km / h ; ": 4327,
      " k": 4328,
      " 's ": 4329,
      " for ": 4330,
      " most ": 4331,
      " when ": 4332,
      " south of heaven ": 4333,
      "! ": 4334,
      "\" and": 4335,
      "\" that ": 4336,
      "'s t": 4337,
      "+ ": 4338,
      ", then ": 4339,
      ", according to ": 4340,
      ", amateur ": 4341,
      "- ": 4342,
      ". that ": 4343,
      ". they are ": 4344,
      "11 ": 4345,
      "16 ": 4346,
      "25": 4347,
      "2 . ": 4348,
      "2 @.@ ": 4349,
      "23 , ": 4350,
      "30 ": 4351,
      "4 @,@ ": 4352,
      "500": 4353,
      "54 ": 4354,
      "6 @,@ ": 4355,
      "6 @.@ ": 4356,
      "6 @.@ 4 ": 4357,
      "8 and ": 4358,
      "800": 4359,
      "96": 4360,
      ": <unk> ": 4361,
      "; they ": 4362,
      "bly ": 4363,
      "bres": 4364,
      "bought ": 4365,
      "cen": 4366,
      "cit": 4367,
      "cum": 4368,
      "cated ": 4369,
      "cei": 4370,
      "co @-@ ": 4371,
      "clear": 4372,
      "csen ": 4373,
      "den ": 4374,
      "ded to the ": 4375,
      "drew ": 4376,
      "data ": 4377,
      "elit": 4378,
      "evision ": 4379,
      "fear": 4380,
      "fant": 4381,
      "fles": 4382,
      "flin": 4383,
      "farm": 4384,
      "gone ": 4385,
      "h. ": 4386,
      "hom": 4387,
      "hra": 4388,
      "h , ": 4389,
      "hol": 4390,
      "hop": 4391,
      "ied ": 4392,
      "ight ": 4393,
      "idian ": 4394,
      "jan ": 4395,
      "jour": 4396,
      "jid ": 4397,
      "ky ": 4398,
      "k and ": 4399,
      "khen": 4400,
      "ls ": 4401,
      "led the ": 4402,
      "let": 4403,
      "lined ": 4404,
      "leng": 4405,
      "met ": 4406,
      "member ": 4407,
      "nt": 4408,
      "nar": 4409,
      "ness ": 4410,
      "os": 4411,
      "ov": 4412,
      "ot ": 4413,
      "ots ": 4414,
      "ood ": 4415,
      "ogl": 4416,
      "pti": 4417,
      "pa ": 4418,
      "pan ": 4419,
      "pea": 4420,
      "pow": 4421,
      "ples ": 4422,
      "plea": 4423,
      "pitt": 4424,
      "pray": 4425,
      "sla": 4426,
      "sal ": 4427,
      "sure ": 4428,
      "s two ": 4429,
      "tl": 4430,
      "tly ": 4431,
      "tter": 4432,
      "tum": 4433,
      "tation ": 4434,
      "ting the ": 4435,
      "tly": 4436,
      "ted as ": 4437,
      "turn": 4438,
      "two": 4439,
      "us , ": 4440,
      "uable ": 4441,
      "utive ": 4442,
      "vint": 4443,
      "wan": 4444,
      "wou": 4445,
      "went ": 4446,
      "wear": 4447,
      "wint": 4448,
      "ware ": 4449,
      "won the ": 4450,
      "y a": 4451,
      "yel": 4452,
      "y and": 4453,
      "yet": 4454,
      "yard ": 4455,
      "your ": 4456,
      "µm ": 4457,
      "e . the ": 4458,
      " tu": 4459,
      " ton": 4460,
      " tre": 4461,
      " twi": 4462,
      " tide ": 4463,
      "s on ": 4464,
      "s = = \n": 4465,
      "in their ": 4466,
      "in these ": 4467,
      "in all ": 4468,
      "inside ": 4469,
      "instruc": 4470,
      "inhabit": 4471,
      " ag": 4472,
      " az": 4473,
      " awar": 4474,
      " aground ": 4475,
      " aray": 4476,
      " area ": 4477,
      " akhen": 4478,
      "era": 4479,
      "erry ": 4480,
      " the ship ": 4481,
      " the egyptians ": 4482,
      "on and ": 4483,
      "t of": 4484,
      "t . the ": 4485,
      "oracles ": 4486,
      "unity ": 4487,
      "an a": 4488,
      "ances ": 4489,
      "ens ": 4490,
      "enjo": 4491,
      "engli": 4492,
      "ences ": 4493,
      "ensive ": 4494,
      "reti": 4495,
      "resi": 4496,
      "rets ": 4497,
      "recomm": 4498,
      "res of ": 4499,
      "revol": 4500,
      "tia ": 4501,
      "tici": 4502,
      "tish ": 4503,
      "y for the ": 4504,
      ", or": 4505,
      ", which": 4506,
      ", however ": 4507,
      ", but the ": 4508,
      "arri": 4509,
      "armor": 4510,
      "arsen": 4511,
      "ary to ": 4512,
      "of aerodromes ": 4513,
      "aly": 4514,
      "ales ": 4515,
      "alat": 4516,
      "thy ": 4517,
      "thers ": 4518,
      ". \"": 4519,
      ". <unk>": 4520,
      ". his ": 4521,
      ". deities ": 4522,
      ". each ": 4523,
      ". cullen ": 4524,
      ". however ": 4525,
      "ing as": 4526,
      "ing them": 4527,
      "ed . \n": 4528,
      "ed with the ": 4529,
      "ed with a ": 4530,
      "ed cruis": 4531,
      "<unk> to the ": 4532,
      " any": 4533,
      " analy": 4534,
      "o xii": 4535,
      "<unk> for ": 4536,
      "<unk> ) , ": 4537,
      "sts ": 4538,
      "stal": 4539,
      "sting": 4540,
      "stated ": 4541,
      "stap": 4542,
      "room": 4543,
      "rook": 4544,
      "es a ": 4545,
      "es ; blackie , 19": 4546,
      "on november ": 4547,
      "edy ": 4548,
      "ched to the ": 4549,
      "chose ": 4550,
      "lip": 4551,
      "lived ": 4552,
      "lit . ": 4553,
      "lieu": 4554,
      "lized ": 4555,
      "likel": 4556,
      "litia ": 4557,
      "in 18": 4558,
      "in which ": 4559,
      "in some ": 4560,
      "in human ": 4561,
      "in myth": 4562,
      "in 184": 4563,
      "in size ": 4564,
      "in europe ": 4565,
      "of 4": 4566,
      "of her ": 4567,
      "of its ": 4568,
      "of her": 4569,
      "of many ": 4570,
      "of four ": 4571,
      "ing is ": 4572,
      " and re": 4573,
      " and @-@ ": 4574,
      "hit ": 4575,
      "histic": 4576,
      "dela": 4577,
      "deem": 4578,
      "deth ": 4579,
      "dequ": 4580,
      "desc": 4581,
      "devol": 4582,
      "deiti": 4583,
      "devo": 4584,
      "ford": 4585,
      "for these ": 4586,
      "siz": 4587,
      "sively ": 4588,
      "sissi": 4589,
      "wake ": 4590,
      "a . the ": 4591,
      "a controlled airspace ": 4592,
      " a little ": 4593,
      "amed ": 4594,
      "ama ": 4595,
      "ament ": 4596,
      "amity ": 4597,
      "americ": 4598,
      "amental ": 4599,
      "ampa ": 4600,
      "lab": 4601,
      "laces ": 4602,
      "laced ": 4603,
      "lau ": 4604,
      "rag": 4605,
      "ra and ": 4606,
      "raven ": 4607,
      "radet": 4608,
      "eles": 4609,
      "elf ": 4610,
      "wise ": 4611,
      "was ren": 4612,
      "was establish": 4613,
      "was sun": 4614,
      "diag": 4615,
      "dition of ": 4616,
      "itself ": 4617,
      "iterran": 4618,
      "atic": 4619,
      "lost ": 4620,
      "loss": 4621,
      "lotter": 4622,
      "of the <unk> ": 4623,
      "of the season ": 4624,
      "of the year ": 4625,
      "ember": 4626,
      "embl": 4627,
      "urb": 4628,
      "urt ": 4629,
      "urn ": 4630,
      "ure , ": 4631,
      "with their ": 4632,
      "with an ": 4633,
      "with two ": 4634,
      "show ": 4635,
      "an , and ": 4636,
      "east": 4637,
      "easi": 4638,
      "eaking ": 4639,
      "eastern ": 4640,
      "eagle ": 4641,
      "@-@ up": 4642,
      "@-@ like ": 4643,
      "\" , and ": 4644,
      "\" <unk> <unk> ": 4645,
      "hau": 4646,
      "havi": 4647,
      "map": 4648,
      "mask": 4649,
      "making ": 4650,
      "ts a ": 4651,
      "buck ": 4652,
      "at little rock ": 4653,
      " to a": 4654,
      " top ": 4655,
      " to their ": 4656,
      " towards ": 4657,
      "conf": 4658,
      "const": 4659,
      "confir": 4660,
      "conven": 4661,
      "consul": 4662,
      "conditions ": 4663,
      "besi": 4664,
      "being the ": 4665,
      "beam ": 4666,
      "behavi": 4667,
      "and for ": 4668,
      "spru": 4669,
      "spalat": 4670,
      "speaking ": 4671,
      "in the world ": 4672,
      "ily": 4673,
      "iled ": 4674,
      "super": 4675,
      ". the new": 4676,
      ". the gambia ": 4677,
      ". the caa ": 4678,
      ". the road ": 4679,
      ". the route ": 4680,
      "open ": 4681,
      "opted ": 4682,
      "oplan": 4683,
      "ds ; ": 4684,
      "were said to ": 4685,
      "comedy ": 4686,
      "vid ": 4687,
      "via ": 4688,
      " and then ": 4689,
      "ull ": 4690,
      "( n": 4691,
      "vertic": 4692,
      "versions ": 4693,
      " theb": 4694,
      "entran": 4695,
      "or was ": 4696,
      "mobi": 4697,
      "mother": 4698,
      "moves ": 4699,
      "exi": 4700,
      "cities ": 4701,
      " art": 4702,
      " argu": 4703,
      " arni": 4704,
      ", the egyptians ": 4705,
      "for <unk> ": 4706,
      "accep": 4707,
      "activ": 4708,
      "imperi": 4709,
      "immedi": 4710,
      "poin": 4711,
      "pover": 4712,
      "poss": 4713,
      "poten": 4714,
      "point ": 4715,
      "sea ": 4716,
      "seven": 4717,
      ") , and ": 4718,
      "it . \n": 4719,
      "it was": 4720,
      " airship": 4721,
      " airstri": 4722,
      " air traffic ": 4723,
      "prec": 4724,
      "preci": 4725,
      "prepar": 4726,
      "predy": 4727,
      "preservation of ": 4728,
      "ers in the ": 4729,
      "coin": 4730,
      "gods . \n": 4731,
      "asy ": 4732,
      "associ": 4733,
      "assum": 4734,
      "sajid ": 4735,
      "evol": 4736,
      "recall": 4737,
      "recep": 4738,
      "th of the ": 4739,
      "th , and ": 4740,
      " atten": 4741,
      " attend": 4742,
      "ed the <unk> ": 4743,
      "ed the game ": 4744,
      "ete ": 4745,
      "ques": 4746,
      "<unk> , \" ": 4747,
      "he lea": 4748,
      "strong": 4749,
      "perspec": 4750,
      "percep": 4751,
      "permitted ": 4752,
      "duat ": 4753,
      "gi ": 4754,
      "gives ": 4755,
      "his father ": 4756,
      "his wife ": 4757,
      " action ": 4758,
      " active ": 4759,
      " accidents ": 4760,
      "porate ": 4761,
      "one day ": 4762,
      "fish": 4763,
      "fired ": 4764,
      "fired": 4765,
      "scre": 4766,
      "comment": 4767,
      "ly to ": 4768,
      "0 @-@ pound ": 4769,
      "egypt , ": 4770,
      "causing ": 4771,
      ", and as ": 4772,
      ", and their ": 4773,
      ", and this ": 4774,
      "abi": 4775,
      "above ": 4776,
      "guin": 4777,
      "guar": 4778,
      "guard ": 4779,
      "ga activities ": 4780,
      "so they ": 4781,
      "187": 4782,
      "1822 ": 4783,
      "content ": 4784,
      "for the playstation ": 4785,
      "ated with": 4786,
      "ated . the ": 4787,
      "ated with ": 4788,
      "uss ": 4789,
      " mm ": 4790,
      "ordin": 4791,
      "orders ": 4792,
      " . he ": 4793,
      "ations": 4794,
      "other mask": 4795,
      "ity of ": 4796,
      "adri": 4797,
      "deities . \n": 4798,
      "fast ": 4799,
      "formed the ": 4800,
      "which came ": 4801,
      "tion at the ": 4802,
      "gressi": 4803,
      " affect": 4804,
      "ations , ": 4805,
      "played in ": 4806,
      "playoff ": 4807,
      "bay ": 4808,
      "bahra": 4809,
      "bapti": 4810,
      "langu": 4811,
      "tail ": 4812,
      "charcoal ": 4813,
      "cargo ": 4814,
      "specu": 4815,
      "3 . \n": 4816,
      "colleg": 4817,
      "collaboration with ": 4818,
      "game and ": 4819,
      "game . \n": 4820,
      " twenty ": 4821,
      "build ": 4822,
      "pier": 4823,
      "pius ": 4824,
      "emplo": 4825,
      "empire ": 4826,
      "create ": 4827,
      "<unk> <unk> of ": 4828,
      "<unk> <unk> , and ": 4829,
      "signed a ": 4830,
      "secret": 4831,
      "secret ": 4832,
      "mixed ": 4833,
      " them . ": 4834,
      "ario ": 4835,
      " at home ": 4836,
      " trading ": 4837,
      " traded ": 4838,
      " tracks ": 4839,
      "david ": 4840,
      "vals ": 4841,
      "valent ": 4842,
      "valuable ": 4843,
      "2014 , ": 4844,
      "time , ": 4845,
      "big ": 4846,
      "biogra": 4847,
      "compa": 4848,
      "5 in ) ": 4849,
      "selected ": 4850,
      "minim": 4851,
      "some of the ": 4852,
      "more prof": 4853,
      "togra": 4854,
      "operat": 4855,
      "operate ": 4856,
      "genus ": 4857,
      "god was ": 4858,
      "final": 4859,
      " times , ": 4860,
      "in 196": 4861,
      "most important ": 4862,
      "pap": 4863,
      "page": 4864,
      "g by ": 4865,
      "2007 ": 4866,
      "2009 ": 4867,
      "aug": 4868,
      "ga flights ": 4869,
      "included ": 4870,
      " there were ": 4871,
      "ed as an ": 4872,
      " aircraft noise ": 4873,
      "epis": 4874,
      "head": 4875,
      "heavi": 4876,
      "joint": 4877,
      "joined ": 4878,
      "red to the ": 4879,
      "portable ": 4880,
      " admir": 4881,
      "syd": 4882,
      "surface ": 4883,
      "valkyria of the battlefield ": 4884,
      "6 \n": 4885,
      "6 – ": 4886,
      "9 ft ) ": 4887,
      "could not ": 4888,
      " austria ": 4889,
      "divine realm": 4890,
      "vener": 4891,
      "way . ": 4892,
      "many of the ": 4893,
      "blues ": 4894,
      " throughout ": 4895,
      "represents ": 4896,
      "season . \n": 4897,
      "cloth": 4898,
      "clock": 4899,
      "closely ": 4900,
      "judg": 4901,
      "ssing ": 4902,
      "start of the ": 4903,
      "king 's ": 4904,
      " aerial ": 4905,
      "main theme ": 4906,
      "indisi": 4907,
      "indicated ": 4908,
      "had the ": 4909,
      "had to ": 4910,
      "leo xii": 4911,
      "never": 4912,
      "work of ": 4913,
      "ages of ": 4914,
      "aper ": 4915,
      "brown ": 4916,
      "brothers ": 4917,
      "upon ": 4918,
      "gunboat ": 4919,
      "iifa": 4920,
      "occa": 4921,
      "occu": 4922,
      " tak": 4923,
      " transi": 4924,
      " transpor": 4925,
      "located in ": 4926,
      "gold coin ": 4927,
      "represent the ": 4928,
      "represented the ": 4929,
      " appe": 4930,
      "highly ": 4931,
      "deploy": 4932,
      "religious": 4933,
      "critici": 4934,
      "centuri": 4935,
      "tenant ": 4936,
      "when he ": 4937,
      "stitu": 4938,
      "office ": 4939,
      "@-@ and @-@ ": 4940,
      "1862 , ": 4941,
      " after a ": 4942,
      "light aircraft ": 4943,
      "host": 4944,
      "hosti": 4945,
      "meet": 4946,
      "meant": 4947,
      "myth ": 4948,
      "mission": 4949,
      "miss universe ": 4950,
      "mississi": 4951,
      "regard": 4952,
      "each other ": 4953,
      "crow": 4954,
      "child": 4955,
      "reasons ": 4956,
      ". in contra": 4957,
      "work and ": 4958,
      "ined gla": 4959,
      "remained the ": 4960,
      "form of ": 4961,
      "not to ": 4962,
      "noted that ": 4963,
      "possible ": 4964,
      "cullen 's ": 4965,
      "channel ": 4966,
      "suppres": 4967,
      "expan": 4968,
      "expedition ": 4969,
      "phic": 4970,
      "ty @-@ ": 4971,
      " posi": 4972,
      "johan": 4973,
      "slayer": 4974,
      " all the ": 4975,
      " allen ": 4976,
      " armament ": 4977,
      "producing ": 4978,
      "became a ": 4979,
      "number one ": 4980,
      "renc": 4981,
      "renew": 4982,
      "important": 4983,
      "\" , \" ": 4984,
      "miles ( ": 4985,
      "temples ": 4986,
      " against ": 4987,
      "al texts ": 4988,
      "logist ": 4989,
      " peri": 4990,
      "recording ": 4991,
      ". this was ": 4992,
      ". this species ": 4993,
      "franc": 4994,
      "off the ": 4995,
      "offer ": 4996,
      "deity 's ": 4997,
      "score ": 4998,
      "cape ": 4999,
      "capable ": 5000,
      "capital ": 5001,
      "cessna ": 5002,
      "link": 5003,
      "end of ": 5004,
      "n @-@ 8": 5005,
      "goddes": 5006,
      "single @-@ ": 5007,
      "government": 5008,
      "han , ": 5009,
      "hands ": 5010,
      "purpose ": 5011,
      "zed with ": 5012,
      "ensemble ": 5013,
      "him the ": 5014,
      "himself": 5015,
      "sions , ": 5016,
      "sions relat": 5017,
      "draft of ": 5018,
      "england ": 5019,
      "ready ": 5020,
      "november": 5021,
      "music": 5022,
      "correspon": 5023,
      "corporate ": 5024,
      "film": 5025,
      " thought ": 5026,
      "result , ": 5027,
      "resulting ": 5028,
      "due to": 5029,
      "class a controlled airspace ": 5030,
      "flower fairy ": 5031,
      "responsible ": 5032,
      "life and ": 5033,
      "other than ": 5034,
      "small , ": 5035,
      "system , ": 5036,
      "print": 5037,
      "penetr": 5038,
      "listed ": 5039,
      "listing ": 5040,
      "private pilot licence ": 5041,
      "critics ": 5042,
      "south of heaven": 5043,
      "ture of ": 5044,
      "involving ": 5045,
      "resemble ": 5046,
      "raised ": 5047,
      "previously ": 5048,
      "largely ": 5049,
      "calamity ": 5050,
      "images ": 5051,
      "mental ": 5052,
      " term ": 5053,
      "required": 5054,
      "reviews ": 5055,
      "storring": 5056,
      "flexi": 5057,
      "pick": 5058,
      "decline ": 5059,
      "declined ": 5060,
      "shore ": 5061,
      "shortly": 5062,
      "\" <unk> \" ": 5063,
      "historic ": 5064,
      "gold dollar was ": 5065,
      "november 19": 5066,
      "came to": 5067,
      "pass": 5068,
      "st. louis ": 5069,
      "make the ": 5070,
      "1920 ": 5071,
      "1929 ": 5072,
      "year , $ ": 5073,
      "could be a ": 5074,
      " authoriz": 5075,
      " authorities ": 5076,
      "children 's ": 5077,
      "10 @,@ ": 5078,
      "flotill": 5079,
      "demo ": 5080,
      "laboratory ": 5081,
      "estimates ": 5082,
      " per cent": 5083,
      "egyptian texts ": 5084,
      "society for the ": 5085,
      " additional ": 5086,
      "known as the ": 5087,
      " against a ": 5088,
      "women 's football ": 5089,
      "brindisi": 5090,
      "camden ": 5091,
      "every ": 5092,
      "victory ": 5093,
      "organis": 5094,
      "sites ": 5095,
      "outside the ": 5096,
      "competition ": 5097,
      "sms bres": 5098,
      "difficulty ": 5099,
      "pattern ": 5100,
      "based on the ": 5101,
      "levels ": 5102,
      "cat operations ": 5103,
      "isis and ": 5104,
      "nubia ": 5105,
      "force of ": 5106,
      " total ": 5107,
      " act as ": 5108,
      "communities ": 5109,
      "surrounding the ": 5110,
      "release of ": 5111,
      "successful ": 5112,
      "against ": 5113,
      " tribute ": 5114,
      " teams ": 5115,
      "disru": 5116,
      "discus": 5117,
      "behind ": 5118,
      "speed ": 5119,
      "illustra": 5120,
      "examples ": 5121,
      "becoming ": 5122,
      "weeks ": 5123,
      "croydon": 5124,
      "members of the ": 5125,
      "british gliding": 5126,
      "battleship ": 5127,
      "circu": 5128,
      "gallian ": 5129,
      "gallian army ": 5130,
      "tribut": 5131,
      "vocals ": 5132,
      "ximately ": 5133,
      " toronto ": 5134,
      "initially ": 5135,
      "engine": 5136,
      "stay": 5137,
      "stained gla": 5138,
      "earliest ": 5139,
      "placed in ": 5140,
      " attempted to ": 5141,
      "management ": 5142,
      "2011 – 1": 5143,
      "success ": 5144,
      "control of the ": 5145,
      "growth in ": 5146,
      "business je": 5147,
      "25 \n": 5148,
      "dark ": 5149,
      "darcsen ": 5150,
      "falcon": 5151,
      "microlights ": 5152,
      " turkey ": 5153,
      " turrets ": 5154,
      ", in which": 5155,
      "forces of ": 5156,
      "emerged ": 5157,
      "eter ( ": 5158,
      "qualified ": 5159,
      "basic ": 5160,
      " august , ": 5161,
      "carey 's ": 5162,
      "flight gu": 5163,
      " approximately ": 5164,
      "maintained ": 5165,
      "osiris ": 5166,
      "aerodrom": 5167,
      "barra": 5168,
      "dougla": 5169,
      "g. carbonari": 5170,
      "meridian ": 5171,
      "practi": 5172,
      "pre @-@ dreadnought ": 5173,
      "sorb": 5174,
      "determin": 5175,
      "determine ": 5176,
      "definition , ": 5177,
      "mounted ": 5178,
      "books ": 5179,
      "building": 5180,
      "buildings ": 5181,
      "coaching ": 5182,
      "dreadnough": 5183,
      "achute ": 5184,
      "henry ": 5185,
      "mediterran": 5186,
      "scienti": 5187,
      " television ": 5188,
      "staff ": 5189,
      "atory": 5190,
      "richard ": 5191,
      "1930s ": 5192,
      " attack ": 5193,
      "1 – 2 ": 5194,
      "groundsel": 5195,
      "closure ": 5196,
      "functions ": 5197,
      "rituals were ": 5198,
      "habitat": 5199,
      "championships ": 5200,
      "situation ": 5201,
      "situations ": 5202,
      "shaped ": 5203,
      "happen": 5204,
      "serve as ": 5205,
      "trade deadline ": 5206,
      "officially ": 5207,
      "regional air": 5208,
      "helicopter ": 5209,
      "helicopters ": 5210,
      "epithe": 5211,
      "mumba": 5212,
      "mummi": 5213,
      "scot": 5214,
      "stopp": 5215,
      "literat": 5216,
      "demonstr": 5217,
      "was unable to ": 5218,
      "division of the ": 5219,
      "promote ": 5220,
      "licensing ": 5221,
      " taxonom": 5222,
      "funerary ": 5223,
      "light aircraft association ": 5224,
      "necessary ": 5225,
      "involved in ": 5226,
      "denomination ": 5227,
      "defenseman ": 5228,
      "communication ": 5229,
      "instruments were ": 5230,
      "church , ": 5231,
      "birth": 5232,
      "bollywood ": 5233,
      "fundamental ": 5234,
      "kick ": 5235,
      ", pitlake ": 5236,
      "launched ": 5237,
      "diameter ": 5238,
      "divided ": 5239,
      "diverse ": 5240,
      "especi": 5241,
      "model ": 5242,
      "quarter": 5243,
      " museum ": 5244,
      "means of ": 5245,
      "response to the ": 5246,
      "organization ": 5247,
      "weehawken": 5248,
      "education ": 5249,
      "\" mandatory suicide \" ": 5250,
      "& ball ": 5251,
      " titled ": 5252,
      "injured ": 5253,
      " adapt": 5254,
      "around ": 5255,
      "street ": 5256,
      "hierogl": 5257,
      "congress ": 5258,
      "in the united kingdom ": 5259,
      "cosmos ": 5260,
      "society , ": 5261,
      "populace ": 5262,
      "hunwick ": 5263,
      " personal ": 5264,
      "hang glid": 5265,
      "federal troops ": 5266,
      "later that year , she ": 5267,
      " actress ": 5268,
      " torpedo": 5269,
      "kindergarten ": 5270,
      "chief engraver ": 5271,
      "favorite ": 5272,
      "environmental ": 5273,
      "st. edmund 's , pitlake ": 5274,
      "... ": 5275,
      "gasar ": 5276,
      "lord ": 5277,
      "sophistic": 5278,
      "top ": 5279,
      "robert ": 5280,
      "widespread ": 5281,
      "icao ": 5282,
      "extensive ": 5283,
      "whalers ": 5284,
      "citizen": 5285,
      "activities ": 5286,
      "probably ": 5287,
      "egetth": 5288,
      "costum": 5289,
      "strateg": 5290,
      "permanent ": 5291,
      "egyptologist ": 5292,
      "nahant ": 5293,
      "ceremoni": 5294,
      "mysterious ": 5295,
      "hornun": 5296,
      "long tons ( ": 5297,
      "life @-@ giving ": 5298,
      " arkadelphia ": 5299,
      "wooden ": 5300,
      "calendar ": 5301,
      "pantheon ": 5302,
      " piece ": 5303,
      "instrumentation ": 5304,
      "improvements ": 5305,
      "dorothy barker ": 5306,
      "( e.g. <unk> ": 5307,
      "gregorian tower ": 5308,
      "hitchcock ": 5309,
      "centim": 5310,
      "fantasy ": 5311,
      "flint ": 5312,
      "farmland ": 5313,
      "letter": 5314,
      "vintage ": 5315,
      "would": 5316,
      "winter ": 5317,
      " twice ": 5318,
      " araya ": 5319,
      " akhenaten ": 5320,
      "english ": 5321,
      "revolu": 5322,
      "staples ": 5323,
      "rookie ": 5324,
      "lit . valkyria of the battlefield ": 5325,
      "lieutenant ": 5326,
      "deth me ": 5327,
      "dequate ": 5328,
      "radetz": 5329,
      "was sung by ": 5330,
      "diagno": 5331,
      "buck & ball ": 5332,
      "spruce ": 5333,
      "spalato ": 5334,
      " airstrips ": 5335,
      "predynas": 5336,
      "association ": 5337,
      "he leadeth me ": 5338,
      "secretary ": 5339,
      "mississipp": 5340,
      "storrington ": 5341,
      "sms breslau ": 5342,
      "stained glass ": 5343,
      "douglas ": 5344,
      "mediterranean ": 5345,
      "hieroglyp": 5346,
      "sophisticated ": 5347,
      "lit . valkyria of the battlefield 3 ": 5348,
      " =": 5349,
      " <unk>": 5350,
      " li": 5351,
      " was ": 5352,
      " it ": 5353,
      " during the ": 5354,
      " fernandez ": 5355,
      " gods were ": 5356,
      " in addition": 5357,
      " mas": 5358,
      "\" ar": 5359,
      "% ": 5360,
      "'n ": 5361,
      "' m": 5362,
      "( play": 5363,
      ", th": 5364,
      ", an": 5365,
      ", their ": 5366,
      ", at ": 5367,
      ", at the ": 5368,
      ", atlanta ": 5369,
      ", amun ": 5370,
      ", atlanta was ": 5371,
      ", taking ": 5372,
      ", atenism ": 5373,
      ".s": 5374,
      ".com": 5375,
      ". their ": 5376,
      ". all ": 5377,
      ". after": 5378,
      ".vision ": 5379,
      ". accord": 5380,
      ". according to ": 5381,
      "0 @.@ ": 5382,
      "11": 5383,
      "1st ": 5384,
      "100": 5385,
      "14 ": 5386,
      "13 – ": 5387,
      "28": 5388,
      "22nd ": 5389,
      "36": 5390,
      "3100 ": 5391,
      "47": 5392,
      "42 ": 5393,
      "422nd ": 5394,
      "5 @.@ ": 5395,
      "6 and ": 5396,
      "64 ": 5397,
      "7 and ": 5398,
      "8 turns ": 5399,
      "9 and ": 5400,
      "92 ": 5401,
      "900 ": 5402,
      "; a ": 5403,
      "; and": 5404,
      "aspec": 5405,
      "area": 5406,
      "ah ": 5407,
      "agenc": 5408,
      "a television ": 5409,
      "adequate ": 5410,
      "a.vision ": 5411,
      "bow": 5412,
      "band": 5413,
      "bad": 5414,
      "cra": 5415,
      "cm ": 5416,
      "car ": 5417,
      "care ": 5418,
      "call ": 5419,
      "clay": 5420,
      "ced as ": 5421,
      "cmil": 5422,
      "cused ": 5423,
      "clevel": 5424,
      "cled ": 5425,
      "cells ": 5426,
      "cele": 5427,
      "dl": 5428,
      "dt": 5429,
      "dv": 5430,
      "dd ": 5431,
      "dan": 5432,
      "dri": 5433,
      "dent": 5434,
      "ded the ": 5435,
      "dark": 5436,
      "ded a ": 5437,
      "doc": 5438,
      "ded to": 5439,
      "ddon ": 5440,
      "dwell ": 5441,
      "dhaw": 5442,
      "eth": 5443,
      "eben": 5444,
      "fon": 5445,
      "fit": 5446,
      "flu": 5447,
      "fit ": 5448,
      "far ": 5449,
      "fine ": 5450,
      "f . ": 5451,
      "flat": 5452,
      "fren": 5453,
      "fying ": 5454,
      "fring": 5455,
      "fram": 5456,
      "ffal": 5457,
      "f.com": 5458,
      "gon": 5459,
      "gic ": 5460,
      "hs ": 5461,
      "hand ": 5462,
      "h <unk> ": 5463,
      "horiz": 5464,
      "ior": 5465,
      "ia ": 5466,
      "ish": 5467,
      "ily ": 5468,
      "im ": 5469,
      "ient ": 5470,
      "ign": 5471,
      "ish ": 5472,
      "idea": 5473,
      "ilian ": 5474,
      "jen": 5475,
      "jou": 5476,
      "jes": 5477,
      "jar ": 5478,
      "ked": 5479,
      "kly ": 5480,
      "kil": 5481,
      "kesp": 5482,
      "kurt ": 5483,
      "khan , ": 5484,
      "ler": 5485,
      "lon": 5486,
      "l and ": 5487,
      "la ": 5488,
      "l , ": 5489,
      "mal": 5490,
      "mur": 5491,
      "mus": 5492,
      "me , ": 5493,
      "memp": 5494,
      "mitt": 5495,
      "ny ": 5496,
      "non ": 5497,
      "ned": 5498,
      "n and": 5499,
      "nor ": 5500,
      "ning the ": 5501,
      "ns and ": 5502,
      "ner of the ": 5503,
      "ndt": 5504,
      "oa": 5505,
      "oz": 5506,
      "olic": 5507,
      "otive ": 5508,
      "ps": 5509,
      "pine ": 5510,
      "pta": 5511,
      "plic": 5512,
      "pell": 5513,
      "peter ": 5514,
      "rand ": 5515,
      "rus": 5516,
      "re , ": 5517,
      "rying ": 5518,
      "rhy": 5519,
      "sl": 5520,
      "sz": 5521,
      "sam": 5522,
      "slo": 5523,
      "smi": 5524,
      "sold ": 5525,
      "slow ": 5526,
      "slowed ": 5527,
      "s that are ": 5528,
      "s that a ": 5529,
      "te": 5530,
      "tin": 5531,
      "ton": 5532,
      "tre": 5533,
      "tar": 5534,
      "tal ": 5535,
      "tec": 5536,
      "t that ": 5537,
      "tas": 5538,
      "ted to the ": 5539,
      "treat": 5540,
      "teen ": 5541,
      "uter": 5542,
      "u @-@ ": 5543,
      "u.s": 5544,
      "vin": 5545,
      "vis": 5546,
      "vinc": 5547,
      "wwi": 5548,
      "went": 5549,
      "x , ": 5550,
      "xie ": 5551,
      "yet ": 5552,
      "ycled ": 5553,
      "yish ": 5554,
      "z ": 5555,
      "ziz": 5556,
      "° ": 5557,
      "₹ ": 5558,
      "のウ": 5559,
      "ァル": 5560,
      "キュ": 5561,
      "リア": 5562,
      "場のウ": 5563,
      "戦場のウ": 5564,
      "e a ": 5565,
      "e and ": 5566,
      "e river ": 5567,
      " ti": 5568,
      " tar": 5569,
      " ten ": 5570,
      " tour": 5571,
      " tru": 5572,
      " tuni": 5573,
      " tren": 5574,
      " text": 5575,
      " teach": 5576,
      " tampa ": 5577,
      "s <unk> ": 5578,
      "s for the ": 5579,
      "s cards ": 5580,
      " thor": 5581,
      " thing": 5582,
      " thic": 5583,
      " thous": 5584,
      "ini": 5585,
      "in an": 5586,
      "ined": 5587,
      "inity ": 5588,
      "inely ": 5589,
      "in any ": 5590,
      "inner ": 5591,
      "in ancient ": 5592,
      " able ": 5593,
      " awards ": 5594,
      "err": 5595,
      "era ": 5596,
      "er than ": 5597,
      "er and to ": 5598,
      " the game ": 5599,
      " the blue jackets ": 5600,
      " the arsenal ": 5601,
      " the itali": 5602,
      " the wal": 5603,
      " the plain maskray ": 5604,
      "ony": 5605,
      "on an ": 5606,
      "ones . ": 5607,
      "t was ": 5608,
      "t for the ": 5609,
      "oran": 5610,
      "or to ": 5611,
      "or , ": 5612,
      "ors , ": 5613,
      "orous ": 5614,
      "unlo": 5615,
      "unlimited ": 5616,
      "anti": 5617,
      "an an": 5618,
      "anch": 5619,
      "annu": 5620,
      "an assistant ": 5621,
      "announc": 5622,
      "en and ": 5623,
      "en , ": 5624,
      "enem": 5625,
      "ention ": 5626,
      "enguin": 5627,
      "enlisted ": 5628,
      "rel ": 5629,
      "repor": 5630,
      "really ": 5631,
      "resur": 5632,
      "redif": 5633,
      "relate ": 5634,
      "remain ": 5635,
      "reports ": 5636,
      "reserve ": 5637,
      "reported ": 5638,
      "tives ": 5639,
      "y for ": 5640,
      "y = = \n": 5641,
      ", were ": 5642,
      ", she ": 5643,
      ", have ": 5644,
      ", most ": 5645,
      ", but": 5646,
      ", where ": 5647,
      ", columbus ": 5648,
      ", even ": 5649,
      ", bulloch ": 5650,
      ", reflect": 5651,
      "art ": 5652,
      "ary and ": 5653,
      "arded ": 5654,
      "of their": 5655,
      "of aviation ": 5656,
      "of them ": 5657,
      "of anim": 5658,
      "of this": 5659,
      "of arkansas ": 5660,
      "aling ": 5661,
      "alter": 5662,
      "always ": 5663,
      "allowed ": 5664,
      "al transpor": 5665,
      "that": 5666,
      "thm ": 5667,
      "through": 5668,
      "th arkansas ": 5669,
      ". it": 5670,
      ". by ": 5671,
      ". its ": 5672,
      ". barker ": 5673,
      ". when ": 5674,
      ". fernandez ": 5675,
      ". horus ": 5676,
      ". such ": 5677,
      ". howson ": 5678,
      ". unlike ": 5679,
      "unk ": 5680,
      "ing as ": 5681,
      "ing these ": 5682,
      "ings to ": 5683,
      "ington ": 5684,
      "ing them ": 5685,
      "ed , and": 5686,
      "ed out ": 5687,
      "ed from the ": 5688,
      "ed him": 5689,
      "<unk> a ": 5690,
      "<unk> at": 5691,
      "<unk> their ": 5692,
      " annu": 5693,
      " an aircraft operation ": 5694,
      "er . ": 5695,
      "er . \n": 5696,
      "o 15": 5697,
      "<unk> \n": 5698,
      "<unk> with": 5699,
      "<unk> with ": 5700,
      "<unk> by ": 5701,
      "<unk> with the ": 5702,
      "<unk> from the ": 5703,
      "<unk> = = = \n": 5704,
      "<unk> on a ": 5705,
      "<unk> — ": 5706,
      "steam": 5707,
      "steam ": 5708,
      "stings ": 5709,
      "stood ": 5710,
      "stages of ": 5711,
      "roy ": 5712,
      "rose ": 5713,
      "roit ": 5714,
      "rock ": 5715,
      "rophic ": 5716,
      "rott ": 5717,
      "es of": 5718,
      "es in the ": 5719,
      "es for the ": 5720,
      "es at the ": 5721,
      "es . these ": 5722,
      "at a ": 5723,
      "ats and ": 5724,
      "ated as ": 5725,
      "on february ": 5726,
      "on march ": 5727,
      "ed an": 5728,
      "ed as": 5729,
      "edmon": 5730,
      "ed aircraft": 5731,
      "ed aerodromes ": 5732,
      "chor": 5733,
      "chem": 5734,
      "chic": 5735,
      "chea": 5736,
      "chop": 5737,
      "chest": 5738,
      "chtl": 5739,
      "liv": 5740,
      "lion": 5741,
      "lign": 5742,
      "life": 5743,
      "in her ": 5744,
      "in egyptian ": 5745,
      "in which": 5746,
      "in commer": 5747,
      "in use ": 5748,
      "in small ": 5749,
      "in february ": 5750,
      "in general ": 5751,
      "in scoring ": 5752,
      "in june ": 5753,
      "in japan": 5754,
      "in which the ": 5755,
      "in croydon ": 5756,
      "in service ": 5757,
      "in 188": 5758,
      "in sajid ": 5759,
      "in mumba": 5760,
      "of form": 5761,
      "of each ": 5762,
      "of egypt ": 5763,
      "of creation ": 5764,
      "of 24": 5765,
      "of slo": 5766,
      "ing sit": 5767,
      " and not ": 5768,
      " and sms breslau ": 5769,
      "hic": 5770,
      "hire ": 5771,
      "deb": 5772,
      "demo": 5773,
      "def ": 5774,
      "delay": 5775,
      "for their": 5776,
      "for this ": 5777,
      "for two ": 5778,
      "forni": 5779,
      "forward ": 5780,
      "sic ": 5781,
      "rit": 5782,
      "ried ": 5783,
      "ries ": 5784,
      "riel": 5785,
      "rien ": 5786,
      "ric ": 5787,
      "rican ": 5788,
      "wash": 5789,
      "waddon ": 5790,
      " to <unk> ": 5791,
      " to ob": 5792,
      " to do ": 5793,
      " to fly ": 5794,
      "oming ": 5795,
      " a commercial air transport ": 5796,
      "ammunition ": 5797,
      "amorous ": 5798,
      "iracles ": 5799,
      "lae ": 5800,
      "laa ": 5801,
      "label": 5802,
      "al , ": 5803,
      "al of the ": 5804,
      "rap ": 5805,
      "raph ": 5806,
      "raje": 5807,
      "rapha": 5808,
      "ely": 5809,
      "el . ": 5810,
      "elect": 5811,
      "el tu": 5812,
      "wid": 5813,
      "wish": 5814,
      "wish ": 5815,
      "will": 5816,
      "was built ": 5817,
      "was usually ": 5818,
      "was awar": 5819,
      "was carried out ": 5820,
      "was born ": 5821,
      "was injured ": 5822,
      "dies ": 5823,
      "diad": 5824,
      "died in ": 5825,
      "distric": 5826,
      "es to": 5827,
      "ession of the ": 5828,
      "escape ": 5829,
      "it as ": 5830,
      "ity to ": 5831,
      "logen": 5832,
      "load ": 5833,
      "losses ": 5834,
      " , \" ": 5835,
      " , which ": 5836,
      " , which": 5837,
      "of the divine ": 5838,
      "of the alli": 5839,
      "of the two ": 5840,
      "of the nameless ": 5841,
      "of the economic ": 5842,
      "of the temple ": 5843,
      "ema": 5844,
      "embers ": 5845,
      "le and ": 5846,
      "goti": 5847,
      "gosp": 5848,
      "goeben": 5849,
      "without a ": 5850,
      "withdraw": 5851,
      "withdrew ": 5852,
      "shop": 5853,
      "shell": 5854,
      "shut": 5855,
      "shells ": 5856,
      "an civil war ": 5857,
      "ically ": 5858,
      "ical and ": 5859,
      "eable ": 5860,
      "@-@ hung": 5861,
      "@-@ class ": 5862,
      "@-@ specific ": 5863,
      "@-@ caliber ": 5864,
      "@-@ playing ": 5865,
      "@-@ brown ": 5866,
      "\" in ": 5867,
      "\" of ": 5868,
      "\" for": 5869,
      "\" ma": 5870,
      "\" by ": 5871,
      "\" sil": 5872,
      "\" sum": 5873,
      "having ": 5874,
      "haiti": 5875,
      "having the ": 5876,
      "may": 5877,
      "map ": 5878,
      "making": 5879,
      "mason": 5880,
      "macmil": 5881,
      "mas cards ": 5882,
      "ts at the ": 5883,
      "buffal": 5884,
      "gh p": 5885,
      "ck and ": 5886,
      "cket": 5887,
      "cks . ": 5888,
      "cknow": 5889,
      " todd ": 5890,
      "l / ": 5891,
      "confer": 5892,
      "consec": 5893,
      "concur": 5894,
      "consequ": 5895,
      "consci": 5896,
      "convinc": 5897,
      "olema": 5898,
      "bear": 5899,
      "been the ": 5900,
      "bechtl": 5901,
      "and her sisters ": 5902,
      "spi": 5903,
      "span": 5904,
      "spra": 5905,
      "spent ": 5906,
      "spring": 5907,
      "spiracles ": 5908,
      "in the ab": 5909,
      "in the same ": 5910,
      "in the use ": 5911,
      "in the 198": 5912,
      "in the country ": 5913,
      "in the middle ": 5914,
      "in the sky ": 5915,
      "supre": 5916,
      "suitable ": 5917,
      "is in": 5918,
      "is no ": 5919,
      "is also ": 5920,
      "is critic": 5921,
      "is about ": 5922,
      ". the <unk> ": 5923,
      ". the most ": 5924,
      ". the anime ": 5925,
      "opport": 5926,
      "is to ": 5927,
      "island": 5928,
      "were re": 5929,
      "were not ": 5930,
      "ve mason ": 5931,
      "comman": 5932,
      "compos": 5933,
      "term": 5934,
      "ter and ": 5935,
      "ters , ": 5936,
      "visit": 5937,
      "visible ": 5938,
      " pred": 5939,
      " phar": 5940,
      " people ": 5941,
      " patter": 5942,
      "ulkn": 5943,
      " alter": 5944,
      " alex": 5945,
      " allow": 5946,
      " along with ": 5947,
      " allowed ": 5948,
      " as he ": 5949,
      " as brindisi": 5950,
      "( i": 5951,
      "( from ": 5952,
      "( cat ": 5953,
      "( 193": 5954,
      " that \" ": 5955,
      " that he was ": 5956,
      ", and , ": 5957,
      ", and <unk> , ": 5958,
      ", and her ": 5959,
      ", and its ": 5960,
      "ent in ": 5961,
      "ent of the ": 5962,
      "ent ist": 5963,
      "ent scre": 5964,
      "version ": 5965,
      " theori": 5966,
      "earn": 5967,
      "eare 's ": 5968,
      "or more ": 5969,
      "whig": 5970,
      "whitish ": 5971,
      "exter": 5972,
      "exchange ": 5973,
      "exhib": 5974,
      "whom ": 5975,
      "uments ": 5976,
      "ation or ": 5977,
      "noting ": 5978,
      "cial": 5979,
      "cial ": 5980,
      "cific ": 5981,
      "se , ": 5982,
      ", the tower building ": 5983,
      "words ": 5984,
      "worn ": 5985,
      "for <unk>": 5986,
      "for sc": 5987,
      "for many ": 5988,
      "for recreational ": 5989,
      "action ": 5990,
      "acces": 5991,
      "iments ": 5992,
      "impl": 5993,
      "prospec": 5994,
      "promis": 5995,
      "promp": 5996,
      "pole ": 5997,
      "poor ": 5998,
      "set , ": 5999,
      "sets of ": 6000,
      ") was ": 6001,
      ") for the ": 6002,
      "it . ": 6003,
      "with <unk> ": 6004,
      "ate ,": 6005,
      "ate green": 6006,
      "egraph ": 6007,
      "pred": 6008,
      "prepa": 6009,
      "prevent": 6010,
      "ers and": 6011,
      "gods with ": 6012,
      "gods could ": 6013,
      "assist": 6014,
      "save ": 6015,
      "saul": 6016,
      "saw ": 6017,
      "safe ": 6018,
      "saprot": 6019,
      "event ": 6020,
      "ev mas": 6021,
      "rector ": 6022,
      "recycled ": 6023,
      " at this ": 6024,
      " atlan": 6025,
      " atum , ": 6026,
      "ed the story ": 6027,
      "ypse ": 6028,
      "<unk> , which ": 6029,
      "<unk> , which was ": 6030,
      "ed to with": 6031,
      "ed to have ": 6032,
      "string ": 6033,
      "streng": 6034,
      "s , were ": 6035,
      "s , 1930s ": 6036,
      "shire ": 6037,
      "shift ": 6038,
      "shie river ": 6039,
      "parts ": 6040,
      "parents ": 6041,
      "parrott ": 6042,
      "duf": 6043,
      "duties ": 6044,
      "gili": 6045,
      "his next ": 6046,
      "his contract ": 6047,
      "one or": 6048,
      "one \" ": 6049,
      "one in the ": 6050,
      " = = \n": 6051,
      " = = early ": 6052,
      " = = critic": 6053,
      " = = descrip": 6054,
      "ted by the ": 6055,
      "fig": 6056,
      "fix": 6057,
      "fili": 6058,
      "fiers ": 6059,
      "figu": 6060,
      "fied as ": 6061,
      "rang": 6062,
      "ran aground ": 6063,
      "scend": 6064,
      "scale ": 6065,
      "mann": 6066,
      "mann ": 6067,
      " as they were ": 6068,
      "ck on an": 6069,
      "ly a ": 6070,
      " to the first ": 6071,
      " to the apo": 6072,
      "0 m": 6073,
      "case ": 6074,
      "caused ": 6075,
      ", and that ": 6076,
      ", and that the ": 6077,
      ", and all": 6078,
      ", and although": 6079,
      "absorb": 6080,
      "gue , ": 6081,
      "are the ": 6082,
      "gau": 6083,
      "ga activity ": 6084,
      "so that ": 6085,
      "sound ": 6086,
      "soil ": 6087,
      "183": 6088,
      "; frederick warne , ": 6089,
      "; society for the ": 6090,
      "serb": 6091,
      "box ": 6092,
      "boards ": 6093,
      "for the first time ": 6094,
      "for the final": 6095,
      "ated in the ": 6096,
      "ated her": 6097,
      "from its ": 6098,
      "leaf": 6099,
      "lead ": 6100,
      "leaving ": 6101,
      "uses ": 6102,
      "used in ": 6103,
      "used in the ": 6104,
      "using a ": 6105,
      "used as a ": 6106,
      "– <unk> ": 6107,
      " mi": 6108,
      " mar": 6109,
      " m1822 ": 6110,
      " members ": 6111,
      "on the <unk> ": 6112,
      " . while ": 6113,
      "with the \" ": 6114,
      " their roles ": 6115,
      " their lives ": 6116,
      "ppl ": 6117,
      "2 . \n": 6118,
      "2 . the ": 6119,
      "2 ( ": 6120,
      "ending ": 6121,
      "its gameplay ": 6122,
      "its current ": 6123,
      "ity , ": 6124,
      "admin": 6125,
      "adap": 6126,
      "deities were ": 6127,
      "deities are ": 6128,
      "faulkn": 6129,
      "rushie river ": 6130,
      "form , ": 6131,
      "son , ": 6132,
      "tioned ": 6133,
      "tional ": 6134,
      "tion that ": 6135,
      "20th cent": 6136,
      "green ": 6137,
      " afric": 6138,
      "ations were ": 6139,
      "player": 6140,
      "lan , ": 6141,
      "but has ": 6142,
      "year and ": 6143,
      "chart ": 6144,
      "charter ": 6145,
      "charles ": 6146,
      "so much ": 6147,
      " an <unk> ": 6148,
      " an under @-@ ": 6149,
      "specim": 6150,
      "spectru": 6151,
      "3 ) ": 6152,
      "color ": 6153,
      "game . ": 6154,
      "game win ": 6155,
      "game losing ": 6156,
      "s . some ": 6157,
      " twin ": 6158,
      "1 – 1": 6159,
      "newsp": 6160,
      "newcom": 6161,
      "empha": 6162,
      "ed in cat": 6163,
      "ed in 195": 6164,
      "has also ": 6165,
      "either": 6166,
      "red wing": 6167,
      "seng": 6168,
      "senate ": 6169,
      "sense of ": 6170,
      "nadiad": 6171,
      "<unk> <unk> <unk> ": 6172,
      "who is ": 6173,
      " @.@ 7 ": 6174,
      "mid": 6175,
      "militia ": 6176,
      " themes ": 6177,
      " them , ": 6178,
      " they \" ": 6179,
      " are not ": 6180,
      "prise ": 6181,
      "primar": 6182,
      " at <unk> ": 6183,
      " at little rock ": 6184,
      "es , cro": 6185,
      "cults ": 6186,
      " traditions ": 6187,
      " tradition ": 6188,
      "day": 6189,
      "dave ": 6190,
      "day the ": 6191,
      "dahl": 6192,
      "daugh": 6193,
      "daily ": 6194,
      "outgrowth ": 6195,
      "2012": 6196,
      "2010 , ": 6197,
      "foot ": 6198,
      "much": 6199,
      "muse": 6200,
      "mutin": 6201,
      "phy , ": 6202,
      "phy . ": 6203,
      "time of ": 6204,
      "served as ": 6205,
      "bilit": 6206,
      "bilities ": 6207,
      "biotro": 6208,
      "feel": 6209,
      "ure revolu": 6210,
      "5 \n": 6211,
      "sell ": 6212,
      "season": 6213,
      "some other ": 6214,
      "first overall ": 6215,
      "from the late ": 6216,
      "from the album ": 6217,
      "during a ": 6218,
      "uniform ": 6219,
      "unified ": 6220,
      "all @-@ time ": 6221,
      "operated ": 6222,
      "operates ": 6223,
      "ces to ": 6224,
      "god , ": 6225,
      "god in a ": 6226,
      "ong with the ": 6227,
      "find ": 6228,
      "kings were ": 6229,
      "ment of ": 6230,
      "interest": 6231,
      "interven": 6232,
      "intermedi": 6233,
      "layer ": 6234,
      "layers of ": 6235,
      " among": 6236,
      " ammunition ": 6237,
      "reach ": 6238,
      "ward": 6239,
      "in 193": 6240,
      "in 197": 6241,
      "in 1923 ": 6242,
      "most popular ": 6243,
      "pack": 6244,
      "pace ": 6245,
      "aliz": 6246,
      " two layers of ": 6247,
      "est of ": 6248,
      "aught ": 6249,
      "autom": 6250,
      "britain ": 6251,
      "classes ": 6252,
      " there is no ": 6253,
      "y , but ": 6254,
      "8 \n": 6255,
      "ble for ": 6256,
      "grossing ": 6257,
      "skin ": 6258,
      "social ": 6259,
      "jack": 6260,
      "jose": 6261,
      "red the ": 6262,
      "red to": 6263,
      "national and ": 6264,
      "otry": 6265,
      "obstruc": 6266,
      "obatic": 6267,
      " adrien ": 6268,
      ", a role ": 6269,
      "syl": 6270,
      "names and ": 6271,
      "surfac": 6272,
      "tude ": 6273,
      "tually ": 6274,
      "tured ": 6275,
      "better ": 6276,
      "6 m ) ": 6277,
      "could both ": 6278,
      "could continue ": 6279,
      "her acting ": 6280,
      " austro @-@ hungarian ": 6281,
      ". she has ": 6282,
      "divine order ": 6283,
      "statue ": 6284,
      "cup , ": 6285,
      "over a ": 6286,
      "overall": 6287,
      "put the ": 6288,
      "venue ": 6289,
      "venes , cro": 6290,
      "world , ": 6291,
      "world . \n": 6292,
      "many form": 6293,
      " as the back ": 6294,
      " through a ": 6295,
      "represent ": 6296,
      " to be held ": 6297,
      " and the surround": 6298,
      "new york ": 6299,
      "season , ": 6300,
      "season = = \n": 6301,
      "julian ": 6302,
      "install": 6303,
      "start ": 6304,
      " = = = <unk> = = = \n": 6305,
      "special": 6306,
      "special ": 6307,
      "specialized ": 6308,
      " aerobatic": 6309,
      "mainly ": 6310,
      "traditional ": 6311,
      "training": 6312,
      "had a": 6313,
      "lean": 6314,
      "gods": 6315,
      "struck the ": 6316,
      "ney": 6317,
      "need to ": 6318,
      "negoti": 6319,
      "neotry": 6320,
      "such a ": 6321,
      "work for ": 6322,
      "work on the ": 6323,
      "ago ": 6324,
      "aggressi": 6325,
      "brook": 6326,
      "brooke ": 6327,
      "up the ": 6328,
      "upon": 6329,
      "up to the ": 6330,
      "upon the ": 6331,
      "of a \" ": 6332,
      "of a deity ": 6333,
      "sional ": 6334,
      "it was believ": 6335,
      "it was also": 6336,
      "columbia ": 6337,
      "racing ": 6338,
      "location ": 6339,
      "located ": 6340,
      "located": 6341,
      "representing the ": 6342,
      "blue jacket": 6343,
      "oked ": 6344,
      "ry reg": 6345,
      "ed in the tower building ": 6346,
      "ed in the uk , ": 6347,
      "higher ": 6348,
      "deplo": 6349,
      "fernandez play": 6350,
      "fernandez appeared ": 6351,
      "fungi ": 6352,
      "may 'n ": 6353,
      "when he was ": 6354,
      "grayish ": 6355,
      "peziz": 6356,
      "still": 6357,
      "officers and ": 6358,
      " after their ": 6359,
      "lightning": 6360,
      "blue jackets ' ": 6361,
      "hosp": 6362,
      "known ": 6363,
      "popmat": 6364,
      "schedu": 6365,
      "pilot": 6366,
      "meet ": 6367,
      "mechan": 6368,
      "missed the ": 6369,
      "norm": 6370,
      "norway ": 6371,
      "return ": 6372,
      "describe ": 6373,
      "building was ": 6374,
      "building of the ": 6375,
      "crosses ": 6376,
      "el . the ": 6377,
      "age of ": 6378,
      "canu": 6379,
      "called": 6380,
      "calling ": 6381,
      "reasury ": 6382,
      ". in his ": 6383,
      ". in its ": 6384,
      "ed to take ": 6385,
      "but also ": 6386,
      "positively ": 6387,
      "career , ": 6388,
      "held": 6389,
      "state line ": 6390,
      "state highway ": 6391,
      "state of slo": 6392,
      "form of the ": 6393,
      "notata ": 6394,
      "same time ": 6395,
      "same time , ": 6396,
      "write ": 6397,
      "writing ": 6398,
      "changed ": 6399,
      "suppos": 6400,
      "port royal ": 6401,
      "characteristic ": 6402,
      "volum": 6403,
      " three days ": 6404,
      "understand": 6405,
      "continued ": 6406,
      "continues ": 6407,
      " in his ": 6408,
      " in 200": 6409,
      "flying": 6410,
      "horthy ": 6411,
      "mark ": 6412,
      "nigh": 6413,
      "nhl season ": 6414,
      "nhl entry ": 6415,
      "s that were ": 6416,
      "s that he ": 6417,
      "ton cal": 6418,
      "ton oil": 6419,
      " also be ": 6420,
      " armor ": 6421,
      "produced ": 6422,
      "produced by ": 6423,
      "human world ": 6424,
      "famil": 6425,
      "vancou": 6426,
      "governor": 6427,
      "old kingdom ": 6428,
      "old rhym": 6429,
      "succeed": 6430,
      "severely ": 6431,
      "match": 6432,
      "memory ": 6433,
      "member": 6434,
      "renamed ": 6435,
      "major": 6436,
      "importance of ": 6437,
      "year . \n": 6438,
      "columbus was ": 6439,
      "longer ": 6440,
      " than others ": 6441,
      "submar": 6442,
      "subject": 6443,
      "recordings ": 6444,
      "fernandez 's ": 6445,
      "frank": 6446,
      "patch ": 6447,
      "team was ": 6448,
      "directly ": 6449,
      "issue of ": 6450,
      "scored ": 6451,
      "captain ": 6452,
      "observatory": 6453,
      "flying school": 6454,
      "bass , ": 6455,
      "drons ": 6456,
      "drum": 6457,
      "link ": 6458,
      "linder ": 6459,
      "egyptians believ": 6460,
      "different": 6461,
      "goddess": 6462,
      "single deity ": 6463,
      "return to ": 6464,
      "returning to ": 6465,
      "returned from ": 6466,
      "described ": 6467,
      "described as ": 6468,
      "15 , ": 6469,
      "winner of the ": 6470,
      " abra": 6471,
      "ensing ": 6472,
      "limb": 6473,
      "place of ": 6474,
      " associations ": 6475,
      "draft . ": 6476,
      "vehic": 6477,
      "ying , ": 6478,
      "infant": 6479,
      "christ ": 6480,
      "christop": 6481,
      "musical ": 6482,
      "between 199": 6483,
      " @,@ 000 buck & ball ": 6484,
      "corn": 6485,
      "ra ; ": 6486,
      "well as the ": 6487,
      "result of ": 6488,
      "role @-@ playing ": 6489,
      "ts , <unk> , ": 6490,
      "coast": 6491,
      "personnel ": 6492,
      "used on ": 6493,
      "class of aircraft ": 6494,
      ". they were ": 6495,
      "groups ": 6496,
      "otherwise ": 6497,
      "smaller ": 6498,
      "smallest ": 6499,
      "small arms ": 6500,
      "included the ": 6501,
      "included in the ": 6502,
      "history . \n": 6503,
      "believed that ": 6504,
      "mytholog": 6505,
      "ining maat ": 6506,
      "lists ": 6507,
      "– 10 ": 6508,
      "finish ": 6509,
      "finished ": 6510,
      "download": 6511,
      "fellow ": 6512,
      "up for sc": 6513,
      "wound": 6514,
      " provi": 6515,
      " produc": 6516,
      " protec": 6517,
      "feature ": 6518,
      "universal ": 6519,
      "largest ": 6520,
      "depict ": 6521,
      "depicting ": 6522,
      "public transport operations ": 6523,
      "important gods ": 6524,
      "consider the ": 6525,
      "billion ": 6526,
      "calypse ": 6527,
      "denied ": 6528,
      "late in the ": 6529,
      "requirem": 6530,
      "review of the ": 6531,
      "story": 6532,
      "store ": 6533,
      "italian": 6534,
      "1988 ": 6535,
      " playstation ": 6536,
      "increased ": 6537,
      "increasing ": 6538,
      "time the ": 6539,
      " appear ": 6540,
      " appearances ": 6541,
      "country": 6542,
      "valkyria chronicles iii": 6543,
      "john cullen ": 6544,
      ". alongside ": 6545,
      "doing ": 6546,
      "don 't ": 6547,
      "chaos ": 6548,
      "chaete ": 6549,
      "death": 6550,
      "ritual ": 6551,
      "short ": 6552,
      "short @-@ ": 6553,
      "\" <unk> of ": 6554,
      "moved to ": 6555,
      "during world war ": 6556,
      "had a beam ": 6557,
      "local deities ": 6558,
      "local manifestations ": 6559,
      "categ": 6560,
      "came to ": 6561,
      "harrel ": 6562,
      "if a ": 6563,
      "market ": 6564,
      "passed ": 6565,
      "passeng": 6566,
      "songs with ": 6567,
      "ally to ": 6568,
      "connection ": 6569,
      "austro @-@ hungarian navy , ": 6570,
      " authori": 6571,
      "religious @-@ themed ": 6572,
      "regulated by the ": 6573,
      "career = = \n": 6574,
      "nature . \n": 6575,
      "influenced ": 6576,
      "influences ": 6577,
      "children ’ s ": 6578,
      "1 @.@ 8 ": 6579,
      "ledg": 6580,
      "near the ": 6581,
      " than the ": 6582,
      "define ": 6583,
      "silver": 6584,
      "begrand ": 6585,
      "1911 ": 6586,
      "1915 ": 6587,
      " per hour": 6588,
      "built by the ": 6589,
      "gambia 's ": 6590,
      "union navy ": 6591,
      "women 's national football": 6592,
      "military history ": 6593,
      "camp": 6594,
      "campa": 6595,
      "drawn ": 6596,
      "sity and ": 6597,
      "competition . \n": 6598,
      "sms erzherzog ferdinand max ": 6599,
      "sms goeben": 6600,
      "general manag": 6601,
      "music ; blackie , 19": 6602,
      "level , ": 6603,
      "featured": 6604,
      "james <unk> ": 6605,
      "james river ": 6606,
      "james b. ": 6607,
      "james wisniewsk": 6608,
      "friend": 6609,
      "further": 6610,
      "men and ": 6611,
      "men , ": 6612,
      "only a ": 6613,
      ", which was ": 6614,
      "force the ": 6615,
      "habsbur": 6616,
      "civiliz": 6617,
      "significantly ": 6618,
      "surrounded by ": 6619,
      "successful": 6620,
      "successfully ": 6621,
      "british pilo": 6622,
      "british micro": 6623,
      "despite the ": 6624,
      "multiplic": 6625,
      "suggest that ": 6626,
      "ryan ": 6627,
      " this time ": 6628,
      "engage ": 6629,
      "referred to ": 6630,
      "restrictive ": 6631,
      "disorder ": 6632,
      "conducted": 6633,
      "covered the ": 6634,
      "ed to be the ": 6635,
      " miles ( ": 6636,
      "ordnance activities ": 6637,
      "under the command ": 6638,
      "draft pick ": 6639,
      "draft pick": 6640,
      "battleships ": 6641,
      "erzherzog ferdinand max": 6642,
      "industry . ": 6643,
      "ceil": 6644,
      "circum": 6645,
      "evil ": 6646,
      "females ": 6647,
      "grant ": 6648,
      "gallia ": 6649,
      "media.vision ": 6650,
      "vocal ": 6651,
      "win over the ": 6652,
      " torre ": 6653,
      "in area": 6654,
      "in april ": 6655,
      "initially": 6656,
      "step ": 6657,
      "steve mason ": 6658,
      "straight ": 6659,
      "disagree ": 6660,
      "@-@ inch dahl": 6661,
      "suppl": 6662,
      " park ": 6663,
      "extent ": 6664,
      "extra ": 6665,
      "excluded ": 6666,
      "tions of war ": 6667,
      "2011 . the ": 6668,
      "interact ": 6669,
      "interaction ": 6670,
      "official religion ": 6671,
      "official biogra": 6672,
      "written in col": 6673,
      ". although the ": 6674,
      "little rock arsen": 6675,
      "pilot licensing ": 6676,
      "business aviation ": 6677,
      "24 cm ( ": 6678,
      "californi": 6679,
      "damage ": 6680,
      "garri": 6681,
      "garner": 6682,
      "munitions of war ": 6683,
      "microscop": 6684,
      "sundial ": 6685,
      "york": 6686,
      " turn ": 6687,
      "river , ": 6688,
      "emerg": 6689,
      "shared ": 6690,
      "shakesp": 6691,
      "ical observations ": 6692,
      "mother 's ": 6693,
      "postcards ": 6694,
      "qualifiers ": 6695,
      "lead and ": 6696,
      "leading the ": 6697,
      "basic": 6698,
      "general aviation": 6699,
      "goddess <unk> ": 6700,
      "completed ": 6701,
      "hymns ": 6702,
      "fruitbodies ": 6703,
      "design for the ": 6704,
      " airfields were ": 6705,
      "christian knowledge , ": 6706,
      "maintain": 6707,
      "maintaining maat ": 6708,
      "\" and \" ": 6709,
      "aerial ": 6710,
      "balk": 6711,
      "below ": 6712,
      "course of ": 6713,
      "equally ": 6714,
      "flag": 6715,
      "merge ": 6716,
      "sorti": 6717,
      "streak": 6718,
      "church ": 6719,
      "deal with the ": 6720,
      "deterior": 6721,
      "foreign": 6722,
      "dispat": 6723,
      "display": 6724,
      "displaced ": 6725,
      "distribut": 6726,
      "within the world ": 6727,
      "@-@ pounder ": 6728,
      "making the ": 6729,
      "concept of ": 6730,
      "when a ": 6731,
      "improved ": 6732,
      " across ": 6733,
      "gamepla": 6734,
      "head coach": 6735,
      "instead , ": 6736,
      "supporting ": 6737,
      "standards of ": 6738,
      "standards of airworthines": 6739,
      "end of the war ": 6740,
      "felt that the ": 6741,
      "half of ": 6742,
      "influence on ": 6743,
      " pilots ": 6744,
      "symboli": 6745,
      " barker 's ": 6746,
      "1 @,@ 300 ": 6747,
      "appear": 6748,
      "girls ": 6749,
      "heard ": 6750,
      "rumors ": 6751,
      "science ": 6752,
      " telegraph ": 6753,
      "chosen ": 6754,
      "chapel , ": 6755,
      "simp": 6756,
      "economy ": 6757,
      "worldwide ": 6758,
      "process ": 6759,
      "processions ": 6760,
      "police ": 6761,
      " attached to the ": 6762,
      "contradic": 6763,
      "ended his ": 6764,
      "arkansas museum of ": 6765,
      "mint director": 6766,
      "effec": 6767,
      "effort to ": 6768,
      "objective ": 6769,
      "stated that he had ": 6770,
      "second tower ": 6771,
      "pope pius ": 6772,
      "pope leo xii": 6773,
      "north carolin": 6774,
      "released in ": 6775,
      "naval base ": 6776,
      "slayer 's official biogra": 6777,
      "due to its ": 6778,
      "penguin": 6779,
      "aircraft": 6780,
      "united states navy ": 6781,
      "destroyed ": 6782,
      "ironclads ": 6783,
      "8 @.@ 0 ": 6784,
      "burned ": 6785,
      "bc ) ": 6786,
      "eyes ": 6787,
      "freely ": 6788,
      "fronti": 6789,
      "free agenc": 6790,
      "kg ) and ": 6791,
      "sent to ": 6792,
      "sent a ": 6793,
      "ubis ": 6794,
      "ublic": 6795,
      " aspects ": 6796,
      " aspects of ": 6797,
      " away from ": 6798,
      "tival ": 6799,
      "stanley ": 6800,
      "stage = = \n": 6801,
      "decisions relat": 6802,
      "shaped , ": 6803,
      "happy ": 6804,
      " took a ": 6805,
      " artist ": 6806,
      ", the blue jackets were ": 6807,
      "strong growth ": 6808,
      "track to the apo": 6809,
      "indicates ": 6810,
      "individuals ": 6811,
      "officials ": 6812,
      "called the ba ": 6813,
      "periodic": 6814,
      "john abra": 6815,
      "longacre , ": 6816,
      "european": 6817,
      "purposes ": 6818,
      "connected with ": 6819,
      "connected with the ": 6820,
      "fifa @-@ ": 6821,
      " metres ( 5": 6822,
      "scholars disagree ": 6823,
      "wrote that ": 6824,
      "banner ": 6825,
      "epith": 6826,
      "festi": 6827,
      "festival ": 6828,
      "glamorous ": 6829,
      "native gods ": 6830,
      "injury , ": 6831,
      "in addition to ": 6832,
      "respectivel": 6833,
      "that the blue jackets ": 6834,
      "third period ": 6835,
      "detroit ": 6836,
      "deliver": 6837,
      "deliber": 6838,
      "rick nash": 6839,
      "rick rubin ": 6840,
      "wisdom": 6841,
      "mask ": 6842,
      "macarthur ": 6843,
      "spring , ": 6844,
      "express": 6845,
      "progress": 6846,
      "2 – 1 ": 6847,
      "licensed aerodromes ": 6848,
      "photogra": 6849,
      " taxi ": 6850,
      "certific": 6851,
      "certification ": 6852,
      "light aircraft associ": 6853,
      "canadi": 6854,
      "necessary to ": 6855,
      "memorial ": 6856,
      "planning decisions relat": 6857,
      "background indicates ": 6858,
      "pick in the ": 6859,
      "school of": 6860,
      "estimated to be ": 6861,
      "polychaete ": 6862,
      "evidence of ": 6863,
      "foreign @-@ register": 6864,
      "distribution and ": 6865,
      "@-@ pound ( ": 6866,
      "bombardment of the ": 6867,
      "manufactur": 6868,
      "manufacture of ": 6869,
      "æsthetic club": 6870,
      "æsthetic club ": 6871,
      " \" there 's got to be a way \" ( ": 6872,
      ". thus": 6873,
      "50 @,@ 000 ": 6874,
      "farm ": 6875,
      "honjou": 6876,
      "princip": 6877,
      "slowly ": 6878,
      "types of ": 6879,
      "v called ": 6880,
      "wyo 15": 6881,
      "wyoming ": 6882,
      "refus": 6883,
      "reviv": 6884,
      "revious ": 6885,
      "reduced his ": 6886,
      "reveal": 6887,
      "lized the ": 6888,
      "in ) acros": 6889,
      "launch": 6890,
      "railroad ": 6891,
      "diamon": 6892,
      "spirits of the ": 6893,
      ". the ship was ": 6894,
      " pacific ": 6895,
      "modeling ": 6896,
      "project ": 6897,
      "problems ": 6898,
      "president ": 6899,
      "gods ' actions ": 6900,
      " accept": 6901,
      "one @-@ dollar ": 6902,
      " track listing ": 6903,
      "interview , ": 6904,
      "struggl": 6905,
      "struggle ": 6906,
      "changeable ": 6907,
      "lesser ": 6908,
      "government , ": 6909,
      "drawings ": 6910,
      "offerings and ": 6911,
      "weehawken ": 6912,
      " transferred to ": 6913,
      "battleships were ": 6914,
      "supply of ": 6915,
      "youngest ": 6916,
      "style of ": 6917,
      "participated in ": 6918,
      "scope of easa ": 6919,
      "engaged in ga activities ": 6920,
      "soldiers would be ": 6921,
      "28 june ": 6922,
      "awa ": 6923,
      "garden ": 6924,
      "hall 's ": 6925,
      "mariah ": 6926,
      "sburgh p": 6927,
      "true ": 6928,
      "van dor": 6929,
      "weighed ": 6930,
      " troops in service ": 6931,
      " award for ": 6932,
      "repeti": 6933,
      "arget": 6934,
      "attack on an": 6935,
      "in franchise histor": 6936,
      "detail": 6937,
      "willi": 6938,
      "iconographi": 6939,
      "m ) and a ": 6940,
      "ultimate ": 6941,
      "experience ": 6942,
      "experienced ": 6943,
      "for her performance ": 6944,
      "prominent ": 6945,
      "contact with ": 6946,
      "form the julian ": 6947,
      "might be ": 6948,
      "companying ": 6949,
      "broken up for sc": 6950,
      " applied to ": 6951,
      "structure of the ": 6952,
      "larger airports ": 6953,
      "billboard ": 6954,
      "patterson had ": 6955,
      "syncretized with ": 6956,
      "balloon ": 6957,
      "balloons ": 6958,
      "double eagle ": 6959,
      "practices ": 6960,
      "studio album ": 6961,
      "rumors were ": 6962,
      "commercial air transport ( cat ": 6963,
      "jeff carter ": 6964,
      "montenegro ": 6965,
      ". as a result , ": 6966,
      ". additionally ": 6967,
      "385 ": 6968,
      "9 @.@ 4 in ) ": 6969,
      "cylinder ": 6970,
      "ior wall": 6971,
      "khenty ": 6972,
      "negative ": 6973,
      "n australia ": 6974,
      "platform ": 6975,
      "sfy the ": 6976,
      "satisfy the ": 6977,
      "stationed in cat": 6978,
      "challeng": 6979,
      "departed ": 6980,
      "fortun": 6981,
      "richmon": 6982,
      "emporary ": 6983,
      "shotgun": 6984,
      "sphere of ": 6985,
      "visual ": 6986,
      " planning ": 6987,
      " as \" an aircraft operation ": 6988,
      "( us $ ": 6989,
      "worshipp": 6990,
      "acquisi": 6991,
      "impac": 6992,
      "assigned to the ": 6993,
      "quickly ": 6994,
      "queen mary ": 6995,
      "ed to reform the julian ": 6996,
      "soundtrack to the apo": 6997,
      "contribu": 6998,
      " mph ) . \n": 6999,
      "greatly ": 7000,
      "charge of the ": 7001,
      "navig": 7002,
      "sectors of ": 7003,
      "interpreted by ": 7004,
      "author": 7005,
      "austrians ": 7006,
      "national team ": 7007,
      "would not be ": 7008,
      "dominant ": 7009,
      "scheduled": 7010,
      "necklaces ": 7011,
      "blockad": 7012,
      "veteran ": 7013,
      "christmas cards ": 7014,
      "families ": 7015,
      "other than a commercial air transport ": 7016,
      " arkansas , ": 7017,
      "consisted of four ": 7018,
      "university of ": 7019,
      "erzherzog karl clas": 7020,
      "hindman ": 7021,
      "shootout ": 7022,
      "solar deity ": 7023,
      "protective ": 7024,
      "benefit ": 7025,
      "existence of ": 7026,
      "symbolic ": 7027,
      "hours flown ": 7028,
      "fixed @-@ wing": 7029,
      "phoenix coyot": 7030,
      "memorial trophy ": 7031,
      "polytheistic ": 7032,
      "al fin fol": 7033,
      "casemate was ": 7034,
      ".69 cal ": 7035,
      "eliminated ": 7036,
      "title track , ": 7037,
      "piston @-@ engine ": 7038,
      "sanctuary ": 7039,
      "jacqueline fernandez ": 7040,
      "los angeles ": 7041,
      "gobrecht 's ": 7042,
      "senjo no valkyria 3 : ": 7043,
      " south of heaven was ": 7044,
      "ceived ": 7045,
      "flesh ": 7046,
      "powers ": 7047,
      "pittsburgh p": 7048,
      "y and an": 7049,
      " azure revolu": 7050,
      " area of ": 7051,
      "enjoy": 7052,
      "recommend": 7053,
      "arrived ": 7054,
      ". however , the ": 7055,
      "ed cruisers ": 7056,
      "<unk> ) , was sung by ": 7057,
      "stingray ": 7058,
      "chose not to ": 7059,
      "devolved ": 7060,
      " a little book of ": 7061,
      "american civil war ": 7062,
      "loss to the ": 7063,
      "confirm": 7064,
      "besides ": 7065,
      "behavior ": 7066,
      "entrance ": 7067,
      "mother and ": 7068,
      " arniel ": 7069,
      "imperial ": 7070,
      "immediately ": 7071,
      "possession of the ": 7072,
      "potenti": 7073,
      "it wasn 't ": 7074,
      "preced": 7075,
      "precious ": 7076,
      "preservation of christian knowledge , ": 7077,
      "reception = = \n": 7078,
      "other maskrays ": 7079,
      "adriatic ": 7080,
      "bahrain ": 7081,
      "baptism": 7082,
      "language ": 7083,
      "speculation ": 7084,
      "more profitable ": 7085,
      "pageant ": 7086,
      " admiral ": 7087,
      "sydney ": 7088,
      " aerial work ": 7089,
      "main theme was ": 7090,
      "neverth": 7091,
      "iifa award for ": 7092,
      "occupi": 7093,
      "rency ": 7094,
      "francis ": 7095,
      "cessna 17": 7096,
      "linked with ": 7097,
      "n @-@ 88 turns ": 7098,
      "november and ": 7099,
      "resulting in the ": 7100,
      "critics prais": 7101,
      "resemble the ": 7102,
      "calamity raven ": 7103,
      "shortly after": 7104,
      "came to an ": 7105,
      "st. louis blues ": 7106,
      "flotilla ": 7107,
      "croydon art ": 7108,
      "british gliding association ": 7109,
      "2011 – 12 ": 7110,
      "flight guide ": 7111,
      "aerodrome ": 7112,
      "practice of ": 7113,
      "1 – 2 record ": 7114,
      "epithets ": 7115,
      "mummies ": 7116,
      "demonstrated ": 7117,
      "divided into ": 7118,
      "especially ": 7119,
      "weehawken and ": 7120,
      "st. edmund 's , pitlake , ": 7121,
      "lord of the ": 7122,
      "strategic ": 7123,
      "hornung ": 7124,
      "centimeter ( ": 7125,
      "staples center ": 7126,
      "radetzky ": 7127,
      "secretary of the ": 7128,
      "mississippi ": 7129,
      "stained glass window ": 7130,
      "douglas macarthur ": 7131,
      " lively ": 7132,
      "a television repor": 7133,
      "bow and ": 7134,
      "clayton cal": 7135,
      "cleveland ": 7136,
      "dlc ": 7137,
      "french": 7138,
      "frame": 7139,
      "la @-@ ": 7140,
      "memphis ": 7141,
      "rhythm ": 7142,
      "szent ist": 7143,
      "smith ": 7144,
      "taro ": 7145,
      "xie cup ": 7146,
      "ァルキュ": 7147,
      "戦場のウァルキュ": 7148,
      " tunisi": 7149,
      " thorns ": 7150,
      " able to ": 7151,
      " the arsenal was ": 7152,
      "orange ": 7153,
      "unlock": 7154,
      "an assistant coach ": 7155,
      "resurrec": 7156,
      "rediff.com": 7157,
      "steamer ": 7158,
      "ats and serb": 7159,
      "edmonton oil": 7160,
      "chicago ": 7161,
      "in commerce ": 7162,
      "def jam": 7163,
      " to do so ": 7164,
      "rajeev mas": 7165,
      "raphael tu": 7166,
      "@-@ hungary ": 7167,
      "\" silent scre": 7168,
      "\" summary ": 7169,
      "macmillan , ": 7170,
      " todd richards ": 7171,
      "conference ": 7172,
      "consecutive ": 7173,
      "concurrency ": 7174,
      "supreme ": 7175,
      "commands ": 7176,
      " pharaoh": 7177,
      "saprotrophic ": 7178,
      "s , 1930s \n": 7179,
      "; society for the preservation of christian knowledge , ": 7180,
      "its current name ": 7181,
      "spectrum ": 7182,
      "game win streak ": 7183,
      "nadiadwal": 7184,
      "obstructions ": 7185,
      " adrien begrand ": 7186,
      "venes , croats and serb": 7187,
      " as the back @-@ up ": 7188,
      " and the surrounding ": 7189,
      "neotryg": 7190,
      "popmatters ": 7191,
      "state of slovenes , croats and serb": 7192,
      "characteristic of ": 7193,
      "vancouver ": 7194,
      "egyptians believed the ": 7195,
      "billion ( us $ ": 7196,
      "requirements ": 7197,
      "short @-@ lived ": 7198,
      "songs with music ; blackie , 19": 7199,
      "sms goeben and sms breslau ": 7200,
      "under the command of ": 7201,
      "circumstan": 7202,
      "written in collaboration with ": 7203,
      "california ": 7204,
      "shakespeare 's ": 7205,
      "detroit red wing": 7206,
      "polychaete wor": 7207,
      "attack on ancona ": 7208,
      "broken up for scrap ": 7209,
      "stationed in cattaro ": 7210,
      "soundtrack to the apocalypse ": 7211,
      "pittsburgh penguin": 7212,
      "a television reporter ": 7213,
      "戦場のウァルキュリア": 7214,
      "rajeev masand ": 7215,
      "\" silent scream ": 7216,
      " <unk> , ": 7217,
      " he ": 7218,
      " with the ": 7219,
      " sen": 7220,
      " <unk> <unk> ": 7221,
      " while ": 7222,
      " <unk> and ": 7223,
      " in a ": 7224,
      " egyptian ": 7225,
      " before ": 7226,
      " @-@": 7227,
      " columbus ": 7228,
      " however ": 7229,
      " since ": 7230,
      " st. ": 7231,
      " of this ": 7232,
      " cullen": 7233,
      " erzherzog ferdinand max ": 7234,
      " n @-@ 88 ": 7235,
      " zrinyi was ": 7236,
      " geopyxis carbonaria ": 7237,
      " lt": 7238,
      " note ": 7239,
      " sakimoto ": 7240,
      " on the morning of ": 7241,
      " literat": 7242,
      " oz": 7243,
      " during world war ": 7244,
      " hall 's ": 7245,
      " christmas cards ": 7246,
      " shakespeare 's ": 7247,
      "\" ad": 7248,
      "& ": 7249,
      "'s": 7250,
      "( p": 7251,
      "( power": 7252,
      "( percussion ": 7253,
      ") as \" an aircraft operation ": 7254,
      ", to": 7255,
      ", that the ": 7256,
      ", as a ": 7257,
      ", appear": 7258,
      ", they": 7259,
      ", through ": 7260,
      ", they were ": 7261,
      ", they are ": 7262,
      ", to be held ": 7263,
      ". as": 7264,
      ". as the ": 7265,
      ". they": 7266,
      ". allen ": 7267,
      ". among": 7268,
      "05 ": 7269,
      "0 points ": 7270,
      "1 and ": 7271,
      "1 m": 7272,
      "1 @,@ 000 ": 7273,
      "11 , ": 7274,
      "1 points ": 7275,
      "110": 7276,
      "12 , ": 7277,
      "1 @,@ 000": 7278,
      "11 – ": 7279,
      "22": 7280,
      "26": 7281,
      "28 , ": 7282,
      "27 \n": 7283,
      "33": 7284,
      "32 ": 7285,
      "33 ": 7286,
      "31 , ": 7287,
      "3 metres ( ": 7288,
      "3 = = = \n": 7289,
      "38 @.@ 0 ": 7290,
      "44": 7291,
      "4 to ": 7292,
      "400": 7293,
      "49 ft ) ": 7294,
      "56": 7295,
      "5 to ": 7296,
      "5 points ": 7297,
      "60 ": 7298,
      "65 points ": 7299,
      "75": 7300,
      "76": 7301,
      "77": 7302,
      "700": 7303,
      "74 ": 7304,
      "7 @,@ ": 7305,
      "77 ": 7306,
      "84": 7307,
      "800 ": 7308,
      "8 mm ) ": 7309,
      "80 @-@ pound ": 7310,
      "9 to ": 7311,
      "91 ": 7312,
      "9 @,@ ": 7313,
      "9 per cent ": 7314,
      ": a ": 7315,
      ": torre ": 7316,
      ": azure revolu": 7317,
      "; p": 7318,
      "; thus ": 7319,
      "a t": 7320,
      "ads ": 7321,
      "ais": 7322,
      "ach ": 7323,
      "agre": 7324,
      "aph": 7325,
      "a at the ": 7326,
      "availa": 7327,
      "apost": 7328,
      "aphy": 7329,
      "bc": 7330,
      "bea": 7331,
      "ball ": 7332,
      "bow ": 7333,
      "bra ": 7334,
      "border ": 7335,
      "bsite ": 7336,
      "cd ": 7337,
      "co ": 7338,
      "cing ": 7339,
      "ca ": 7340,
      "cle ": 7341,
      "cil": 7342,
      "cn ": 7343,
      "ction": 7344,
      "ces , ": 7345,
      "cure ": 7346,
      "cow ": 7347,
      "cler": 7348,
      "clean": 7349,
      "climb": 7350,
      "d and ": 7351,
      "da ": 7352,
      "dly ": 7353,
      "date ": 7354,
      "das": 7355,
      "dated ": 7356,
      "dance ": 7357,
      "dwar": 7358,
      "dy , ": 7359,
      "des of ": 7360,
      "dry ": 7361,
      "dying ": 7362,
      "dwell": 7363,
      "drop": 7364,
      "d arkansas ": 7365,
      "e. ": 7366,
      "ek ": 7367,
      "ep ": 7368,
      "etic": 7369,
      "efic": 7370,
      "etic ": 7371,
      "f. ": 7372,
      "fat": 7373,
      "fers ": 7374,
      "fare ": 7375,
      "fits ": 7376,
      "fell ": 7377,
      "fres": 7378,
      "fected ": 7379,
      "frag": 7380,
      "gk": 7381,
      "gs ": 7382,
      "gin ": 7383,
      "g and ": 7384,
      "gic": 7385,
      "gul": 7386,
      "grec": 7387,
      "get": 7388,
      "gar ": 7389,
      "get ": 7390,
      "gel ": 7391,
      "gram": 7392,
      "hu": 7393,
      "hat": 7394,
      "hul": 7395,
      "hyp": 7396,
      "hund": 7397,
      "h . ": 7398,
      "hod": 7399,
      "hard": 7400,
      "hous": 7401,
      "ham ": 7402,
      "ids ": 7403,
      "ifer": 7404,
      "i am": 7405,
      "ize ": 7406,
      "ideal": 7407,
      "ium , ": 7408,
      "i always ": 7409,
      "ijan ": 7410,
      "j. ": 7411,
      "jas": 7412,
      "jet ": 7413,
      "kor": 7414,
      "ker ": 7415,
      "kit": 7416,
      "ked to ": 7417,
      "ks , ": 7418,
      "ki ": 7419,
      "ket ": 7420,
      "ks of ": 7421,
      "ked at ": 7422,
      "kerry ": 7423,
      "kate green": 7424,
      "kais": 7425,
      "ls , ": 7426,
      "let ": 7427,
      "ling of the ": 7428,
      "lemi": 7429,
      "m. ": 7430,
      "ming ": 7431,
      "mom": 7432,
      "mel": 7433,
      "mea": 7434,
      "mons ": 7435,
      "mph": 7436,
      "ms of ": 7437,
      "mon , ": 7438,
      "nin": 7439,
      "non": 7440,
      "n and ": 7441,
      "nou": 7442,
      "nel": 7443,
      "nur": 7444,
      "ned to ": 7445,
      "none ": 7446,
      "net ": 7447,
      "ning to ": 7448,
      "nular ": 7449,
      "nomin": 7450,
      "next": 7451,
      "neigh": 7452,
      "n. an": 7453,
      "nsyl": 7454,
      "o a": 7455,
      "odi": 7456,
      "oter": 7457,
      "o anim": 7458,
      "ods ; ": 7459,
      "osity and ": 7460,
      "py": 7461,
      "plo": 7462,
      "pl ": 7463,
      "puni": 7464,
      "pect": 7465,
      "pled ": 7466,
      "pull ": 7467,
      "pshire ": 7468,
      "p. allen ": 7469,
      "rof": 7470,
      "runk": 7471,
      "rat": 7472,
      "rin ": 7473,
      "rhi": 7474,
      "rent": 7475,
      "rate ": 7476,
      "rine ": 7477,
      "rare ": 7478,
      "ring to ": 7479,
      "run ": 7480,
      "ral fin fol": 7481,
      "sof": 7482,
      "s. ": 7483,
      "ses ": 7484,
      "sed": 7485,
      "sli": 7486,
      "sem": 7487,
      "sgo": 7488,
      "sm ": 7489,
      "sas": 7490,
      "sing the ": 7491,
      "son the ": 7492,
      "s they ": 7493,
      "ses , ": 7494,
      "stic ": 7495,
      "sfac": 7496,
      "s to a ": 7497,
      "s take ": 7498,
      "slight ": 7499,
      "session": 7500,
      "sunk ": 7501,
      "tan": 7502,
      "tet": 7503,
      "town": 7504,
      "table ": 7505,
      "tors ": 7506,
      "troop": 7507,
      "ts to": 7508,
      "texts ": 7509,
      "told": 7510,
      "tegetth": 7511,
      "uti": 7512,
      "ugo": 7513,
      "u . ": 7514,
      "us and ": 7515,
      "uph": 7516,
      "uel ": 7517,
      "ught ": 7518,
      "uinely ": 7519,
      "ucn ": 7520,
      "ves": 7521,
      "vere ": 7522,
      "vul": 7523,
      "vet": 7524,
      "v m": 7525,
      "vol ": 7526,
      "w. ": 7527,
      "wed": 7528,
      "wing ": 7529,
      "w , ": 7530,
      "ws , ": 7531,
      "wall ": 7532,
      "w more ": 7533,
      "ying": 7534,
      "yati": 7535,
      "y to": 7536,
      "y as ": 7537,
      "ymo": 7538,
      "y am": 7539,
      "y to be ": 7540,
      "y and the ": 7541,
      "yards ": 7542,
      "y armament ": 7543,
      "yboards ": 7544,
      "yugo": 7545,
      "zz": 7546,
      "~ ": 7547,
      "² ) ": 7548,
      "— <unk> ": 7549,
      "‘ ": 7550,
      "e with ": 7551,
      " tal": 7552,
      " t. ": 7553,
      " tro": 7554,
      " tom": 7555,
      " tend": 7556,
      " table ": 7557,
      " tell": 7558,
      " tub": 7559,
      " tattnall": 7560,
      " tegetth": 7561,
      " treasury ": 7562,
      "s ;": 7563,
      "s in ": 7564,
      "s ( ": 7565,
      "s for ": 7566,
      "s ; ": 7567,
      "s for a ": 7568,
      "s called ": 7569,
      "s ] ": 7570,
      " then": 7571,
      " thre": 7572,
      " thing ": 7573,
      " thom": 7574,
      " thra": 7575,
      " thoth": 7576,
      "ines ": 7577,
      "in and ": 7578,
      "in to ": 7579,
      "in ar": 7580,
      "ined the ": 7581,
      "inine ": 7582,
      "inspec": 7583,
      "inus ": 7584,
      "in aircraft ": 7585,
      "in ter": 7586,
      "in temples ": 7587,
      "inhab": 7588,
      "in two": 7589,
      "in their p": 7590,
      "in animal ": 7591,
      "inaug": 7592,
      "institu": 7593,
      "in toronto ": 7594,
      "in turrets ": 7595,
      "inadequate ": 7596,
      "in afric": 7597,
      " ath": 7598,
      " a. ": 7599,
      " al ": 7600,
      " a tra": 7601,
      " away": 7602,
      " a third ": 7603,
      " amoun": 7604,
      " available ": 7605,
      " a two @-@ ": 7606,
      " a three @-@ ": 7607,
      " acknow": 7608,
      " abilities ": 7609,
      "eri": 7610,
      "erou": 7611,
      "eras": 7612,
      "erson ": 7613,
      "erba": 7614,
      "ery , ": 7615,
      "ered by ": 7616,
      "erline ": 7617,
      "erra ": 7618,
      "d of ": 7619,
      " the ga ": 7620,
      " the ob": 7621,
      " the war ": 7622,
      " the building ": 7623,
      " the tower ": 7624,
      " the gods were ": 7625,
      " the second ": 7626,
      " the fligh": 7627,
      " the cor": 7628,
      " the gambia ": 7629,
      " the number of ": 7630,
      " the fungus ": 7631,
      " the losing ": 7632,
      " the development of ": 7633,
      " the care ": 7634,
      " the objective ": 7635,
      " the soldiers would be ": 7636,
      "ones ": 7637,
      "on to ": 7638,
      "ones , ": 7639,
      "online ": 7640,
      "ones were ": 7641,
      "on aircraft noise ": 7642,
      "t in": 7643,
      "t in ": 7644,
      "t in the ": 7645,
      "t by ": 7646,
      "t for a ": 7647,
      "ort ": 7648,
      "orly ": 7649,
      "oris": 7650,
      "or to the ": 7651,
      "or an ": 7652,
      "ors and ": 7653,
      "ors . ": 7654,
      "ors were ": 7655,
      "orphic ": 7656,
      "oral fin ": 7657,
      "une ": 7658,
      "unofficial ": 7659,
      "unless ": 7660,
      "unpopular": 7661,
      "unlikel": 7662,
      "unlicensed aerodromes ": 7663,
      "an the ": 7664,
      "an , ": 7665,
      "ands ": 7666,
      "an air": 7667,
      "an ad": 7668,
      "an arm": 7669,
      "ansas": 7670,
      "envi": 7671,
      "enge ": 7672,
      "eness ": 7673,
      "ense of ": 7674,
      "enclos": 7675,
      "enemi": 7676,
      "reat ": 7677,
      "rear ": 7678,
      "res , ": 7679,
      "repar": 7680,
      "resc": 7681,
      "rega": 7682,
      "remi": 7683,
      "remin": 7684,
      "rement ": 7685,
      "report": 7686,
      "reven": 7687,
      "reform ": 7688,
      "replace ": 7689,
      "restor": 7690,
      "remov": 7691,
      "retain": 7692,
      "rest , ": 7693,
      "remembers ": 7694,
      "replac": 7695,
      "reject": 7696,
      "rews , ": 7697,
      "tig": 7698,
      "tis": 7699,
      "tile ": 7700,
      "tiqu": 7701,
      "ticip": 7702,
      "y was ": 7703,
      "y 's ": 7704,
      "y formation ": 7705,
      "y fish": 7706,
      ", for": 7707,
      ", su": 7708,
      ", is ": 7709,
      ", it ": 7710,
      ", with the ": 7711,
      ", mor": 7712,
      ", deities ": 7713,
      ", 6 ": 7714,
      ", had": 7715,
      ", can ": 7716,
      ", follow": 7717,
      ", with a ": 7718,
      ", south ": 7719,
      ", both ": 7720,
      ", 194": 7721,
      ", however , ": 7722,
      ", captain": 7723,
      ", causing ": 7724,
      ", emplo": 7725,
      ", office ": 7726,
      ", representing the ": 7727,
      ", ryan ": 7728,
      "art": 7729,
      "ar , ": 7730,
      "argu": 7731,
      "arth , ": 7732,
      "ar torpedo": 7733,
      "of another ": 7734,
      "of atlanta ": 7735,
      "of temples ": 7736,
      "of arms ": 7737,
      "of approach": 7738,
      "of august , ": 7739,
      "al to the ": 7740,
      "als . ": 7741,
      "al tim": 7742,
      "alace ": 7743,
      "al aerodrome ": 7744,
      "al activ": 7745,
      "along the ": 7746,
      "al average ": 7747,
      "already ": 7748,
      "then ": 7749,
      "th p": 7750,
      "thum": 7751,
      "these ": 7752,
      "th time ": 7753,
      "thod ": 7754,
      "thous": 7755,
      "thur ": 7756,
      ". in the ": 7757,
      ". with the ": 7758,
      ". not ": 7759,
      ". col": 7760,
      ". i ": 7761,
      ". by the ": 7762,
      ". little ": 7763,
      ". <unk> and ": 7764,
      ". her": 7765,
      ". many ": 7766,
      ". during the ": 7767,
      ". ra ": 7768,
      ". since ": 7769,
      ". during ": 7770,
      ". people ": 7771,
      ". \" the ": 7772,
      ". following the ": 7773,
      ". mason ": 7774,
      ". york ": 7775,
      ". it also ": 7776,
      ". bulloch ": 7777,
      ". mckay ": 7778,
      ". lombardo ": 7779,
      ". co @-@ ": 7780,
      ". yet": 7781,
      ". later that year , she ": 7782,
      ". hitchcock ": 7783,
      ". horthy ": 7784,
      "ings , ": 7785,
      "ing aircraft ": 7786,
      "ing at the ": 7787,
      "ings of ": 7788,
      "ing time ": 7789,
      "ing all": 7790,
      "ing theme ": 7791,
      "ing against the ": 7792,
      "ing against a ": 7793,
      "ing actress ": 7794,
      "ed for": 7795,
      "ed @-@ ": 7796,
      "ed it ": 7797,
      "ed from": 7798,
      "ed before ": 7799,
      "ed into ": 7800,
      "ed on a ": 7801,
      "ed further ": 7802,
      "ed <unk> as ": 7803,
      "ed services ": 7804,
      "<unk> air": 7805,
      "<unk> ac": 7806,
      "<unk> at the ": 7807,
      "<unk> as a ": 7808,
      "<unk> to a ": 7809,
      "<unk> activities ": 7810,
      "<unk> and a ": 7811,
      "<unk> about ": 7812,
      " ank": 7813,
      " anton ": 7814,
      " anthrop": 7815,
      " answ": 7816,
      " announc": 7817,
      " anubis ": 7818,
      "er of": 7819,
      "er <unk> ": 7820,
      "er for ": 7821,
      "er karl ": 7822,
      "er rick rubin ": 7823,
      "o sabres ": 7824,
      "<unk> )": 7825,
      "<unk> of": 7826,
      "<unk> di": 7827,
      "<unk> ha": 7828,
      "<unk> is ": 7829,
      "<unk> no": 7830,
      "<unk> im": 7831,
      "<unk> has ": 7832,
      "<unk> have ": 7833,
      "<unk> cre": 7834,
      "<unk> by the ": 7835,
      "<unk> during the ": 7836,
      "<unk> @-@": 7837,
      "<unk> chronicles ": 7838,
      "<unk> with a ": 7839,
      "<unk> not": 7840,
      "<unk> him": 7841,
      "<unk> ) and ": 7842,
      "<unk> guit": 7843,
      "<unk> geor": 7844,
      "<unk> period ": 7845,
      "<unk> before the ": 7846,
      "<unk> opposite ": 7847,
      "<unk> room ": 7848,
      "<unk> sla": 7849,
      "<unk> long tons ( ": 7850,
      "<unk> flight guide ": 7851,
      "st the ": 7852,
      "stations ": 7853,
      "ste , ": 7854,
      "stori": 7855,
      "step": 7856,
      "strac": 7857,
      "stair": 7858,
      "stacles ": 7859,
      "stand for ": 7860,
      "roo": 7861,
      "roster ": 7862,
      "roots ": 7863,
      "roads ": 7864,
      "es \n": 7865,
      "es , and": 7866,
      "es car": 7867,
      "es new": 7868,
      "es place ": 7869,
      "ated to ": 7870,
      "atori": 7871,
      "ated and ": 7872,
      "ators ": 7873,
      "attribut": 7874,
      "ately": 7875,
      "on <unk> ": 7876,
      "on , the ": 7877,
      "on 2 ": 7878,
      "on 3 ": 7879,
      "on divine ": 7880,
      "on may ": 7881,
      "on each ": 7882,
      "on previous ": 7883,
      "on june ": 7884,
      "on 23 ": 7885,
      "on 10 ": 7886,
      "on july ": 7887,
      "on burned ": 7888,
      "on 28 june ": 7889,
      "on clayton cal": 7890,
      "ed ar": 7891,
      "ed that": 7892,
      "ed these ": 7893,
      "ed two ": 7894,
      "ed through": 7895,
      "ed and the ": 7896,
      "ed than ": 7897,
      "edward ": 7898,
      "ed through ": 7899,
      "edom ": 7900,
      "ed temple ": 7901,
      "ed around ": 7902,
      "ed arti": 7903,
      "ed again ": 7904,
      "cher ": 7905,
      "chit": 7906,
      "chair": 7907,
      "chance of ": 7908,
      "lif": 7909,
      "lions ": 7910,
      "lision ": 7911,
      "lish ": 7912,
      "living ": 7913,
      "lion @-@ ": 7914,
      "list , ": 7915,
      "living": 7916,
      "in s": 7917,
      "in , and ": 7918,
      "in rec": 7919,
      "in ly": 7920,
      "in most ": 7921,
      "in divine ": 7922,
      "in gold ": 7923,
      "in four ": 7924,
      "in 186": 7925,
      "in columbu": 7926,
      "in place ": 7927,
      "in late ": 7928,
      "in november ": 7929,
      "in egypt ": 7930,
      "in nature ": 7931,
      "in uk": 7932,
      "in later": 7933,
      "in international ": 7934,
      "in <unk> , the ": 7935,
      "in hon": 7936,
      "in december ": 7937,
      "in white ": 7938,
      "in sri lanka ": 7939,
      "in response to the ": 7940,
      "in extensive ": 7941,
      "in daily ": 7942,
      "of <unk> , ": 7943,
      "of his ": 7944,
      "of divine ": 7945,
      "of nature ": 7946,
      "of different ": 7947,
      "of which are ": 7948,
      "of world war ": 7949,
      "of facilities ": 7950,
      "of love ": 7951,
      "of otranto ": 7952,
      "of causing ": 7953,
      "of whom ": 7954,
      "of united states navy ": 7955,
      "of montenegro ": 7956,
      "of popmatters ": 7957,
      "ing his ": 7958,
      "ing from the ": 7959,
      "ing black": 7960,
      "ing class ": 7961,
      " and one ": 7962,
      " and i ": 7963,
      " and <unk> <unk> ": 7964,
      " and old ": 7965,
      " and best ": 7966,
      " and white ": 7967,
      " and her sisters ": 7968,
      " and necklaces ": 7969,
      " and polychaete wor": 7970,
      "hibi": 7971,
      "hito": 7972,
      "hill": 7973,
      "hi oz": 7974,
      "dest ": 7975,
      "depo": 7976,
      "delic": 7977,
      "defe": 7978,
      "deep": 7979,
      "decor": 7980,
      "des to the ": 7981,
      "degree ": 7982,
      "destitu": 7983,
      "forti": 7984,
      "for an": 7985,
      "for that ": 7986,
      "forth ": 7987,
      "forest ": 7988,
      "for ad": 7989,
      "forced ": 7990,
      "for their own ": 7991,
      "for astronom": 7992,
      "for any": 7993,
      "for protec": 7994,
      "for troops in service ": 7995,
      "for a third ": 7996,
      "outer ": 7997,
      "sia": 7998,
      "sian ": 7999,
      "sieg": 8000,
      "sis of ": 8001,
      "sign ": 8002,
      "sized ": 8003,
      "sibly ": 8004,
      "sierra ": 8005,
      "rich ": 8006,
      "rise ": 8007,
      "right ": 8008,
      "riple ": 8009,
      "ritory ": 8010,
      "rimp": 8011,
      "rivals ": 8012,
      "wai": 8013,
      "ware": 8014,
      "wait ": 8015,
      "way , ": 8016,
      "was t": 8017,
      "wa sen": 8018,
      "a of ": 8019,
      "a wi": 8020,
      "a . \n": 8021,
      "a sen": 8022,
      "a god ": 8023,
      " to his ": 8024,
      " to her ": 8025,
      " to play": 8026,
      " to have ": 8027,
      " to some ": 8028,
      " to star": 8029,
      " to prot": 8030,
      " to make ": 8031,
      " to my ": 8032,
      " to show": 8033,
      " to become a ": 8034,
      " to provide ": 8035,
      " to determine ": 8036,
      " to dwell ": 8037,
      " to inhab": 8038,
      "omorphic ": 8039,
      " a contrac": 8040,
      " a major ": 8041,
      " a saprotrophic ": 8042,
      " a slight ": 8043,
      "among": 8044,
      "among ": 8045,
      "amid": 8046,
      "amoun": 8047,
      "iration ": 8048,
      "irs , ": 8049,
      "irregular ": 8050,
      "lations ": 8051,
      "laid ": 8052,
      "lacks ": 8053,
      "al military ": 8054,
      "al reception = = \n": 8055,
      "rab": 8056,
      "raj": 8057,
      "radi": 8058,
      "rapi": 8059,
      "raise ": 8060,
      "ra also ": 8061,
      "rav m": 8062,
      "else ": 8063,
      "els , ": 8064,
      "element ": 8065,
      "wide": 8066,
      "was <unk> ": 8067,
      "was on the ": 8068,
      "was often ": 8069,
      "was consider": 8070,
      "was commission": 8071,
      "was still ": 8072,
      "was forc": 8073,
      "was said to ": 8074,
      "was finally ": 8075,
      "was due to ": 8076,
      "was estimat": 8077,
      "was purchas": 8078,
      "was staff": 8079,
      "was severely ": 8080,
      "was equally ": 8081,
      "was chosen ": 8082,
      "dial": 8083,
      "dica": 8084,
      "dism": 8085,
      "disea": 8086,
      "diss": 8087,
      "dian an": 8088,
      "dible for ": 8089,
      "dion clayton cal": 8090,
      "es this ": 8091,
      "ese , ": 8092,
      "ess and ": 8093,
      "es there ": 8094,
      "es that the ": 8095,
      "esoter": 8096,
      "eshi oz": 8097,
      "iting ": 8098,
      "item": 8099,
      "itsu": 8100,
      "itor ": 8101,
      "it to be ": 8102,
      "its t": 8103,
      "it took ": 8104,
      "ativ": 8105,
      "atible ": 8106,
      "atively ": 8107,
      "loo": 8108,
      "lost": 8109,
      "lose ": 8110,
      "loving ": 8111,
      " , was ": 8112,
      " , is ": 8113,
      " , co": 8114,
      " , with the ": 8115,
      " , who ": 8116,
      " , cullen ": 8117,
      " , such as ": 8118,
      " , but the ": 8119,
      " , when": 8120,
      " , which was ": 8121,
      "of the same ": 8122,
      "of the line ": 8123,
      "of the religion ": 8124,
      "of the great ": 8125,
      "of the tower building ": 8126,
      "of the fungus ": 8127,
      "of the sun": 8128,
      "of the house ": 8129,
      "of the monitors ": 8130,
      "of the year . ": 8131,
      "of the nation ": 8132,
      "of the larger": 8133,
      "of the pantheon ": 8134,
      "of the mississippi ": 8135,
      "emo": 8136,
      "emper": 8137,
      "embodi": 8138,
      "emental ": 8139,
      "le ( ": 8140,
      "le in the middle ": 8141,
      "going ": 8142,
      "good": 8143,
      "good ": 8144,
      "urpos": 8145,
      "urality ": 8146,
      "with an": 8147,
      "without": 8148,
      "with them ": 8149,
      "with those ": 8150,
      "shad": 8151,
      "shment ": 8152,
      "shown": 8153,
      "shrin": 8154,
      "shaf": 8155,
      "shrine ": 8156,
      "shrimp": 8157,
      "an 's ": 8158,
      "an war ": 8159,
      "an calendar ": 8160,
      "ly 's ": 8161,
      "ly due to the ": 8162,
      "ics ": 8163,
      "ic and ": 8164,
      "ic m": 8165,
      "ic pa": 8166,
      "ects ": 8167,
      "ecology ": 8168,
      "eased ": 8169,
      "eat , ": 8170,
      "@-@ ra": 8171,
      "@-@ <unk> and ": 8172,
      "@-@ own": 8173,
      "@-@ being ": 8174,
      "@-@ year ": 8175,
      "@-@ day ": 8176,
      "@-@ related ": 8177,
      "@-@ person ": 8178,
      "@-@ pier": 8179,
      "@-@ office ": 8180,
      "@-@ foot ": 8181,
      "@-@ grossing ": 8182,
      "@-@ centimeter ( ": 8183,
      "\" was ": 8184,
      "\" for ": 8185,
      "\" but ": 8186,
      "\" some ": 8187,
      "\" god ": 8188,
      "\" most ": 8189,
      "\" , a ": 8190,
      "\" , to ": 8191
    }
  }
}