{
  "version": "1.0",
  "truncation": null,
  "padding": null,
  "added_tokens": [
    {
      "id": 0,
      "content": "[UNK]",
      "single_word": false,
      "lstrip": false,
      "rstrip": false,
      "normalized": false,
      "special": true
    },
    {
      "id": 1,
      "content": "[PAD]",
      "single_word": false,
      "lstrip": false,
      "rstrip": false,
      "normalized": false,
      "special": true
    },
    {
      "id": 2,
      "content": "[CLS]",
      "single_word": false,
      "lstrip": false,
      "rstrip": false,
      "normalized": false,
      "special": true
    },
    {
      "id": 3,
      "content": "[SEP]",
      "single_word": false,
      "lstrip": false,
      "rstrip": false,
      "normalized": false,
      "special": true
    },
    {
      "id": 4,
      "content": "[MASK]",
      "single_word": false,
      "lstrip": false,
      "rstrip": false,
      "normalized": false,
      "special": true
    }
  ],
  "normalizer": {
    "type": "Sequence",
    "normalizers": [
      {
        "type": "NFD"
      },
      {
        "type": "Lowercase"
      },
      {
        "type": "StripAccents"
      }
    ]
  },
  "pre_tokenizer": null,
  "post_processor": null,
  "decoder": null,
  "model": {
    "type": "WordPiece",
    "unk_token": "[UNK]",
    "continuing_subword_prefix": "",
    "max_input_chars_per_word": 1000000000,
    "vocab": {
      "[UNK]": 0,
      "[PAD]": 1,
      "[CLS]": 2,
      "[SEP]": 3,
      "[MASK]": 4,
      "\n": 5,
      " ": 6,
      "!": 7,
      "\"": 8,
      "#": 9,
      "$": 10,
      "%": 11,
      "&": 12,
      "'": 13,
      "(": 14,
      ")": 15,
      "+": 16,
      ",": 17,
      "-": 18,
      ".": 19,
      "/": 20,
      "0": 21,
      "1": 22,
      "2": 23,
      "3": 24,
      "4": 25,
      "5": 26,
      "6": 27,
      "7": 28,
      "8": 29,
      "9": 30,
      ":": 31,
      ";": 32,
      "<": 33,
      "=": 34,
      ">": 35,
      "@": 36,
      "[": 37,
      "]": 38,
      "a": 39,
      "b": 40,
      "c": 41,
      "d": 42,
      "e": 43,
      "f": 44,
      "g": 45,
      "h": 46,
      "i": 47,
      "j": 48,
      "k": 49,
      "l": 50,
      "m": 51,
      "n": 52,
      "o": 53,
      "p": 54,
      "q": 55,
      "r": 56,
      "s": 57,
      "t": 58,
      "u": 59,
      "v": 60,
      "w": 61,
      "x": 62,
      "y": 63,
      "z": 64,
      "~": 65,
      "£": 66,
      "°": 67,
      "²": 68,
      "µ": 69,
      "æ": 70,
      "–": 71,
      "—": 72,
      "‘": 73,
      "’": 74,
      "“": 75,
      "”": 76,
      "†": 77,
      "‡": 78,
      "₤": 79,
      "₹": 80,
      "の": 81,
      "ァ": 82,
      "ア": 83,
      "ウ": 84,
      "キ": 85,
      "ュ": 86,
      "リ": 87,
      "ル": 88,
      "場": 89,
      "戦": 90,
      "e ": 91,
      "s ": 92,
      "th": 93,
      "d ": 94,
      "in": 95,
      "er": 96,
      " th": 97,
      " a": 98,
      "on": 99,
      " the ": 100,
      "t ": 101,
      "ed ": 102,
      "or": 103,
      "an": 104,
      "en": 105,
      "ti": 106,
      "y ": 107,
      "ar": 108,
      ", ": 109,
      "of": 110,
      "al": 111,
      "re": 112,
      "ing": 113,
      ". ": 114,
      "to": 115,
      "er ": 116,
      "es ": 117,
      "ro": 118,
      "st": 119,
      " an": 120,
      "at": 121,
      "on ": 122,
      "un": 123,
      " c": 124,
      " and ": 125,
      " s": 126,
      "li": 127,
      "as ": 128,
      "hi": 129,
      "ing ": 130,
      "de": 131,
      "a ": 132,
      "ri": 133,
      "in ": 134,
      "for": 135,
      "ou": 136,
      "ac": 137,
      "of ": 138,
      "= ": 139,
      "to ": 140,
      "the ": 141,
      "ir": 142,
      "si": 143,
      "am": 144,
      "om": 145,
      "ch": 146,
      "el": 147,
      " , ": 148,
      "ati": 149,
      " w": 150,
      "di": 151,
      "as": 152,
      "ts ": 153,
      " p": 154,
      "and ": 155,
      "lo": 156,
      "ur": 157,
      "@ ": 158,
      "ith": 159,
      "of the ": 160,
      "em": 161,
      "le ": 162,
      "go": 163,
      "@-": 164,
      "ic": 165,
      " m": 166,
      "es": 167,
      "ly ": 168,
      "ra": 169,
      "ec": 170,
      "al ": 171,
      "ere ": 172,
      "at ": 173,
      "it": 174,
      "was ": 175,
      " b": 176,
      "gh": 177,
      ", and ": 178,
      "is ": 179,
      "ol": 180,
      "= = ": 181,
      "ul": 182,
      "il": 183,
      " . ": 184,
      "ha": 185,
      "with": 186,
      "ds ": 187,
      "an ": 188,
      "bu": 189,
      "is": 190,
      "@-@ ": 191,
      "in the ": 192,
      "'s ": 193,
      "la": 194,
      ". the ": 195,
      "no": 196,
      "ter": 197,
      "op": 198,
      " f": 199,
      "ve ": 200,
      "rom": 201,
      "he ": 202,
      "be": 203,
      "le": 204,
      "um": 205,
      "ted ": 206,
      "en ": 207,
      "ma": 208,
      "19": 209,
      "ons ": 210,
      "ent ": 211,
      "sp": 212,
      "ation ": 213,
      "vi": 214,
      "were ": 215,
      "st ": 216,
      "unk": 217,
      ", a": 218,
      "ear": 219,
      "ho": 220,
      "k ": 221,
      "<unk": 222,
      "<unk>": 223,
      "ver": 224,
      "con": 225,
      "ld ": 226,
      ". \n": 227,
      "\" ": 228,
      "ce ": 229,
      "l ": 230,
      "oth": 231,
      "su": 232,
      " a ": 233,
      "ex": 234,
      "po": 235,
      " as ": 236,
      "ers ": 237,
      "com": 238,
      "( ": 239,
      "it ": 240,
      ", the ": 241,
      "lu": 242,
      "tion ": 243,
      "res": 244,
      "ate ": 245,
      "ame ": 246,
      "00": 247,
      "us": 248,
      "tr": 249,
      " the": 250,
      "whi": 251,
      " was ": 252,
      "eg": 253,
      "from": 254,
      "mo": 255,
      "rec": 256,
      "ated ": 257,
      "so": 258,
      "or ": 259,
      "ag": 260,
      " ar": 261,
      "de ": 262,
      "gods ": 263,
      " al": 264,
      "ne": 265,
      "to the ": 266,
      "ab": 267,
      "ci": 268,
      "ties ": 269,
      "pp": 270,
      "tw": 271,
      "se": 272,
      "m ": 273,
      "qu": 274,
      "ing the ": 275,
      "lay": 276,
      " @": 277,
      "ent": 278,
      "du": 279,
      "n ": 280,
      "yp": 281,
      "ded ": 282,
      "tic": 283,
      "gi": 284,
      "wor": 285,
      "s , ": 286,
      " that ": 287,
      "all": 288,
      "his ": 289,
      "ack": 290,
      "tt": 291,
      " air": 292,
      "im": 293,
      "ong": 294,
      "str": 295,
      "one ": 296,
      "tim": 297,
      "hip": 298,
      "w ": 299,
      "ine ": 300,
      "by ": 301,
      "par": 302,
      "pro": 303,
      "be ": 304,
      "her ": 305,
      "ta": 306,
      "ter ": 307,
      "had ": 308,
      "sh": 309,
      "co": 310,
      "der": 311,
      "se ": 312,
      " = = ": 313,
      ") ": 314,
      "ev": 315,
      "per": 316,
      "if": 317,
      "o ": 318,
      "which": 319,
      "up": 320,
      "egyp": 321,
      "man": 322,
      "are ": 323,
      "@-@": 324,
      "ding ": 325,
      "les ": 326,
      "that ": 327,
      " ac": 328,
      "raf": 329,
      "ities ": 330,
      "e , ": 331,
      "ed the ": 332,
      " ch": 333,
      "low": 334,
      "ea": 335,
      "for ": 336,
      "por": 337,
      "she ": 338,
      "other ": 339,
      "18": 340,
      "ck": 341,
      " con": 342,
      "der ": 343,
      "inc": 344,
      "ally ": 345,
      "th ": 346,
      "ould ": 347,
      "ation": 348,
      "its ": 349,
      "ship": 350,
      "s and ": 351,
      "ary ": 352,
      "bo": 353,
      "sc": 354,
      "for the ": 355,
      "te": 356,
      "wh": 357,
      "ed to ": 358,
      "ations ": 359,
      "form": 360,
      "fer": 361,
      "ay ": 362,
      "20": 363,
      "gn": 364,
      "ity ": 365,
      "ke ": 366,
      "lan": 367,
      "on the ": 368,
      "vel": 369,
      "ar ": 370,
      "<unk> ": 371,
      "by": 372,
      "our": 373,
      " their": 374,
      "fir": 375,
      "t the ": 376,
      "– ": 377,
      "deities ": 378,
      "ap": 379,
      "und ": 380,
      "tra": 381,
      "pres": 382,
      "ten": 383,
      "at the ": 384,
      "ach": 385,
      "ad": 386,
      "et": 387,
      "ght ": 388,
      "ome ": 389,
      "with ": 390,
      "ents ": 391,
      "egypti": 392,
      " this ": 393,
      "ore ": 394,
      "not ": 395,
      "ep": 396,
      "tur": 397,
      " @-@ ": 398,
      "ver ": 399,
      " . \n": 400,
      " in ": 401,
      " – ": 402,
      "gu": 403,
      "ly": 404,
      "the": 405,
      "off": 406,
      "raft ": 407,
      "ga": 408,
      " with": 409,
      "air": 410,
      "year": 411,
      "ese ": 412,
      "est": 413,
      " com": 414,
      "but ": 415,
      "ran": 416,
      "s . ": 417,
      "ge ": 418,
      "game ": 419,
      "ory ": 420,
      "ari": 421,
      "with the ": 422,
      "has ": 423,
      "ark": 424,
      "ber ": 425,
      "ru": 426,
      "ved ": 427,
      "lic": 428,
      "= = \n": 429,
      "fi": 430,
      "pe": 431,
      "who": 432,
      "ori": 433,
      "ess ": 434,
      "av": 435,
      "gro": 436,
      "ser": 437,
      "emp": 438,
      "comm": 439,
      " \n": 440,
      "have ": 441,
      "tro": 442,
      "= \n": 443,
      ",@ ": 444,
      ".@ ": 445,
      "ous ": 446,
      " @,@ ": 447,
      " @.@ ": 448,
      "ai": 449,
      "fe": 450,
      "me": 451,
      "sen": 452,
      "val": 453,
      "es , ": 454,
      "god ": 455,
      " in": 456,
      " po": 457,
      "car": 458,
      "do": 459,
      "ay": 460,
      "gam": 461,
      " af": 462,
      " se": 463,
      "out ": 464,
      "ough": 465,
      "duc": 466,
      "pri": 467,
      "te ": 468,
      "ans ": 469,
      "ance ": 470,
      "201": 471,
      "gre": 472,
      "ment ": 473,
      "wer ": 474,
      " these ": 475,
      "tions ": 476,
      "team": 477,
      "first ": 478,
      "bi": 479,
      "ef": 480,
      "las": 481,
      "wn": 482,
      "buil": 483,
      " re": 484,
      "sed ": 485,
      "sion ": 486,
      "dur": 487,
      "i ": 488,
      "king": 489,
      "lac": 490,
      "rou": 491,
      " airc": 492,
      "us ": 493,
      "att": 494,
      "oper": 495,
      " they ": 496,
      "gin": 497,
      "gen": 498,
      "pi": 499,
      "play": 500,
      " a s": 501,
      "by the ": 502,
      "mi": 503,
      "ant ": 504,
      "ing s": 505,
      "est ": 506,
      "ph": 507,
      "pre": 508,
      "tu": 509,
      "war": 510,
      "ence ": 511,
      "sign": 512,
      "from ": 513,
      "able ": 514,
      "ei": 515,
      "lar": 516,
      "lat": 517,
      "ed in ": 518,
      "tion": 519,
      "litt": 520,
      "ason ": 521,
      "sel": 522,
      "ven": 523,
      "uni": 524,
      "time ": 525,
      "fo": 526,
      "ty ": 527,
      "ch ": 528,
      "spec": 529,
      "200": 530,
      "hea": 531,
      "jo": 532,
      "min": 533,
      "ob": 534,
      "ub": 535,
      " them": 536,
      "es . ": 537,
      "ligh": 538,
      "to be ": 539,
      "ad ": 540,
      "inter": 541,
      " an ": 542,
      "inclu": 543,
      "little ": 544,
      " k": 545,
      "ets ": 546,
      "fin": 547,
      "ky": 548,
      "char": 549,
      " are ": 550,
      "more ": 551,
      "nation": 552,
      "in a": 553,
      "sist": 554,
      "div": 555,
      "cre": 556,
      "et ": 557,
      "od": 558,
      "y and ": 559,
      "af": 560,
      "au": 561,
      "bec": 562,
      "hum": 563,
      "ron": 564,
      "t a": 565,
      "ell": 566,
      ", al": 567,
      "two ": 568,
      "s were ": 569,
      "ed by ": 570,
      "ull": 571,
      "from the ": 572,
      "most ": 573,
      "bri": 574,
      "re ": 575,
      "tran": 576,
      "nam": 577,
      "sm": 578,
      "way ": 579,
      "eri": 580,
      "y , ": 581,
      "ali": 582,
      "also": 583,
      "to s": 584,
      "main": 585,
      "recor": 586,
      "valky": 587,
      "rough": 588,
      "valkyri": 589,
      "sec": 590,
      "only ": 591,
      "while ": 592,
      " aircraft ": 593,
      "2 ": 594,
      "cc": 595,
      "chi": 596,
      "ses ": 597,
      "ort ": 598,
      "ree ": 599,
      "ure ": 600,
      "how": 601,
      " their ": 602,
      "divine ": 603,
      "ii": 604,
      " there ": 605,
      "eng": 606,
      "all ": 607,
      "ric": 608,
      "in 19": 609,
      "col": 610,
      "mon": 611,
      "ning ": 612,
      "it was ": 613,
      "blu": 614,
      "dom": 615,
      "ok": 616,
      "tor": 617,
      " at ": 618,
      "star": 619,
      "ung": 620,
      "ely ": 621,
      "; ": 622,
      "four": 623,
      "jack": 624,
      "lack": 625,
      "over": 626,
      "of s": 627,
      "als ": 628,
      "er , ": 629,
      "fore ": 630,
      "dif": 631,
      "loc": 632,
      "= = = \n": 633,
      "twe": 634,
      "ble ": 635,
      "ga ": 636,
      "her": 637,
      "num": 638,
      "od ": 639,
      "ting ": 640,
      "though": 641,
      " ad": 642,
      "lish": 643,
      "out": 644,
      "ess": 645,
      "leas": 646,
      "serv": 647,
      " h": 648,
      "1 ": 649,
      "ain": 650,
      "some ": 651,
      "e . ": 652,
      " am": 653,
      "ings ": 654,
      "tower ": 655,
      "<unk> , ": 656,
      "stru": 657,
      "little ro": 658,
      " of ": 659,
      " = ": 660,
      "15": 661,
      "can": 662,
      "could ": 663,
      "ey ": 664,
      "ll": 665,
      "mu": 666,
      "plac": 667,
      "stan": 668,
      "ates ": 669,
      " car": 670,
      "soci": 671,
      "age ": 672,
      "world ": 673,
      "gener": 674,
      " 's ": 675,
      "ak": 676,
      "rin": 677,
      " app": 678,
      "tive ": 679,
      "repres": 680,
      " play": 681,
      "ited ": 682,
      " be": 683,
      "ular": 684,
      "such": 685,
      "scri": 686,
      " @-@": 687,
      "a ch": 688,
      "ca": 689,
      "gun": 690,
      "ju": 691,
      "that the ": 692,
      " au": 693,
      "es of ": 694,
      " co": 695,
      "like ": 696,
      " per": 697,
      "gold ": 698,
      "arker ": 699,
      "blue ": 700,
      "jackets ": 701,
      " to ": 702,
      "ge": 703,
      "long": 704,
      "nan": 705,
      "ren": 706,
      "tri": 707,
      "temp": 708,
      "would ": 709,
      "s of ": 710,
      "in s": 711,
      "erod": 712,
      " as": 713,
      " at the ": 714,
      "ed in the ": 715,
      "reg": 716,
      "ligi": 717,
      "dep": 718,
      "dez": 719,
      "devel": 720,
      ", and the ": 721,
      "old ": 722,
      "ish": 723,
      "comp": 724,
      "new": 725,
      "blue jackets ": 726,
      "erodrom": 727,
      "develop": 728,
      "pec": 729,
      "t , ": 730,
      "ed as ": 731,
      "hist": 732,
      "high": 733,
      "sic": 734,
      " pro": 735,
      "new ": 736,
      "many ": 737,
      "egyptian ": 738,
      "their": 739,
      "nandez": 740,
      " )": 741,
      "a s": 742,
      "cor": 743,
      "fac": 744,
      "nor": 745,
      "nec": 746,
      "ue ": 747,
      " col": 748,
      ", as ": 749,
      "early ": 750,
      "000": 751,
      "use ": 752,
      " arm": 753,
      "work": 754,
      " = = = ": 755,
      "ific": 756,
      "offic": 757,
      "during the ": 758,
      "each": 759,
      "fic": 760,
      "lin": 761,
      "son ": 762,
      "ves ": 763,
      "ond ": 764,
      "ack ": 765,
      "ember ": 766,
      "ollow": 767,
      "186": 768,
      "turn": 769,
      "origin": 770,
      ": ": 771,
      "ed": 772,
      "fun": 773,
      "nh": 774,
      "og": 775,
      "sti": 776,
      "tin": 777,
      "en the ": 778,
      "descri": 779,
      "a , ": 780,
      "sion": 781,
      " wor": 782,
      "icles ": 783,
      "umbu": 784,
      "ronicles ": 785,
      " . the ": 786,
      "den": 787,
      "ew": 788,
      "sur": 789,
      "religi": 790,
      " and the ": 791,
      "dist": 792,
      "betwe": 793,
      "199": 794,
      " as the ": 795,
      "tain": 796,
      "port": 797,
      " comm": 798,
      " @,@ 000": 799,
      "operations ": 800,
      "3 ": 801,
      "cep": 802,
      "han": 803,
      "nav": 804,
      "over ": 805,
      "sy": 806,
      "son": 807,
      "vol": 808,
      "indi": 809,
      "ed a ": 810,
      "end ": 811,
      "al s": 812,
      "releas": 813,
      ". she ": 814,
      "side ": 815,
      "ask": 816,
      " man": 817,
      "ill": 818,
      "\" s": 819,
      "ck ": 820,
      "dol": 821,
      "ili": 822,
      "ther ": 823,
      "inst": 824,
      "of c": 825,
      "reas": 826,
      "roy": 827,
      "state ": 828,
      "design": 829,
      "outh ": 830,
      " were ": 831,
      "lock": 832,
      "ters ": 833,
      "two": 834,
      "e , 19": 835,
      " char": 836,
      "national ": 837,
      "valkyria ch": 838,
      "valkyria chronicles ": 839,
      "hor": 840,
      "phi": 841,
      " at": 842,
      " aerodrom": 843,
      "ed , ": 844,
      "tish": 845,
      "al p": 846,
      "albu": 847,
      "los": 848,
      " by ": 849,
      "made ": 850,
      "posi": 851,
      "which ": 852,
      "fernandez": 853,
      "aid ": 854,
      "ays ": 855,
      "charac": 856,
      "bro": 857,
      "batt": 858,
      "follow": 859,
      "jec": 860,
      "kno": 861,
      "ot": 862,
      "ther": 863,
      "enc": 864,
      ". he ": 865,
      "under": 866,
      "light ": 867,
      "dis": 868,
      "dition ": 869,
      " black": 870,
      "beli": 871,
      " all": 872,
      "building ": 873,
      "umbus ": 874,
      "bas": 875,
      "eas": 876,
      "ful": 877,
      "gli": 878,
      "king ": 879,
      "ni": 880,
      "pop": 881,
      "pub": 882,
      "rac": 883,
      "same ": 884,
      "ven ": 885,
      "wn ": 886,
      "ints ": 887,
      "of a ": 888,
      "es and ": 889,
      "before ": 890,
      "layer ": 891,
      " after ": 892,
      "kingdom": 893,
      "ah": 894,
      "bor": 895,
      "both": 896,
      "bers ": 897,
      "dar": 898,
      "ding": 899,
      "line ": 900,
      "ms ": 901,
      "mat": 902,
      "nat": 903,
      "sin": 904,
      "ton ": 905,
      "vic": 906,
      "zed ": 907,
      "anc": 908,
      "des": 909,
      " whi": 910,
      "log": 911,
      " fe": 912,
      " also": 913,
      "part ": 914,
      " after": 915,
      "pilo": 916,
      "regul": 917,
      "\" , ": 918,
      "10": 919,
      "4 ": 920,
      "dr": 921,
      "hel": 922,
      "ie , 19": 923,
      "my": 924,
      "mar": 925,
      "e of ": 926,
      "erci": 927,
      "ann": 928,
      "res ": 929,
      "revi": 930,
      "regi": 931,
      "lif": 932,
      "dec": 933,
      "act ": 934,
      "cho": 935,
      "gover": 936,
      " ma": 937,
      "may ": 938,
      "viation ": 939,
      "recei": 940,
      " all ": 941,
      "where ": 942,
      "number ": 943,
      " blackie , 19": 944,
      ". this ": 945,
      "; blackie , 19": 946,
      "app": 947,
      "cull": 948,
      "ies ": 949,
      "mis": 950,
      "ving ": 951,
      "them": 952,
      "remain": 953,
      "a . ": 954,
      "ries ": 955,
      "amp": 956,
      "ult ": 957,
      "issu": 958,
      "supp": 959,
      "pos": 960,
      "n @-@ ": 961,
      "import": 962,
      "peri": 963,
      "up ": 964,
      "lower ": 965,
      "egyptian": 966,
      "' ": 967,
      "barker ": 968,
      "dre": 969,
      "day ": 970,
      "gg": 971,
      "pen": 972,
      "vate ": 973,
      "well": 974,
      "ang": 975,
      "ans": 976,
      "rel": 977,
      "atory ": 978,
      "deity ": 979,
      "ritic": 980,
      "sions ": 981,
      " from": 982,
      "en 's ": 983,
      ", a ": 984,
      "produc": 985,
      "ety ": 986,
      "fiel": 987,
      "lass ": 988,
      "joh": 989,
      "light": 990,
      " .": 991,
      " , and ": 992,
      "ber": 993,
      "clu": 994,
      "eu": 995,
      "he": 996,
      "red ": 997,
      "sk": 998,
      "vil": 999,
      " through": 1000,
      "arsen": 1001,
      "ster": 1002,
      "lit": 1003,
      "direc": 1004,
      " par": 1005,
      "ick": 1006,
      " mo": 1007,
      "being ": 1008,
      "contin": 1009,
      "used ": 1010,
      "coun": 1011,
      "egyptians ": 1012,
      "second ": 1013,
      "little rock": 1014,
      "such as ": 1015,
      "ansas ": 1016,
      " ) ": 1017,
      "17": 1018,
      "ail": 1019,
      "cer": 1020,
      "call": 1021,
      "ddes": 1022,
      "hung": 1023,
      "mor": 1024,
      "pan": 1025,
      "pat": 1026,
      "vo": 1027,
      "s . the ": 1028,
      "ed and ": 1029,
      "ingle ": 1030,
      "under ": 1031,
      "lim": 1032,
      "ative ": 1033,
      "goddes": 1034,
      "ray": 1035,
      "ise ": 1036,
      "been": 1037,
      "gods were ": 1038,
      " acti": 1039,
      " with ": 1040,
      "british": 1041,
      "differ": 1042,
      "describ": 1043,
      "govern": 1044,
      "ders ": 1045,
      "gn ": 1046,
      "hy": 1047,
      "ide ": 1048,
      "ound ": 1049,
      "inf": 1050,
      "ented ": 1051,
      "y . ": 1052,
      "united ": 1053,
      "ami": 1054,
      "ome": 1055,
      "dition": 1056,
      "ements ": 1057,
      "al f": 1058,
      " bu": 1059,
      "nov": 1060,
      "been ": 1061,
      " as a ": 1062,
      "times ": 1063,
      "she was ": 1064,
      "increas": 1065,
      "who ": 1066,
      "observ": 1067,
      "aust": 1068,
      ", although": 1069,
      "transp": 1070,
      "howev": 1071,
      " = =": 1072,
      "development ": 1073,
      "13": 1074,
      "a c": 1075,
      "br": 1076,
      "bar": 1077,
      "ist": 1078,
      "ign": 1079,
      "mem": 1080,
      "uk": 1081,
      "ve": 1082,
      "war ": 1083,
      "zrin": 1084,
      "through": 1085,
      "into ": 1086,
      " that the ": 1087,
      " three ": 1088,
      "ed by the ": 1089,
      "ors ": 1090,
      "end": 1091,
      "requ": 1092,
      "to c": 1093,
      "es are ": 1094,
      "live ": 1095,
      "did ": 1096,
      "ash": 1097,
      "ite ": 1098,
      "is the ": 1099,
      " fer": 1100,
      "maj": 1101,
      "season ": 1102,
      "ports ": 1103,
      "feder": 1104,
      " season ": 1105,
      "bia ": 1106,
      "self": 1107,
      "columbus ": 1108,
      " appear": 1109,
      "each ": 1110,
      "12": 1111,
      "88": 1112,
      "bin": 1113,
      "bre": 1114,
      "cal": 1115,
      "dg": 1116,
      "ee": 1117,
      "equ": 1118,
      "fai": 1119,
      "gan": 1120,
      "said ": 1121,
      "ta ": 1122,
      "wri": 1123,
      "in c": 1124,
      "ed air": 1125,
      "order ": 1126,
      "es were ": 1127,
      "role ": 1128,
      "him": 1129,
      "ous": 1130,
      "ace ": 1131,
      "atic": 1132,
      "ement ": 1133,
      "istic": 1134,
      "ople ": 1135,
      "spon": 1136,
      "ently ": 1137,
      "due ": 1138,
      "port ": 1139,
      "last ": 1140,
      "record ": 1141,
      "struc": 1142,
      "gold dol": 1143,
      "temples ": 1144,
      "zriny": 1145,
      " t": 1146,
      " of the ": 1147,
      "bon": 1148,
      "bru": 1149,
      "cur": 1150,
      "cap": 1151,
      "draft ": 1152,
      "fran": 1153,
      "har": 1154,
      "ix": 1155,
      "land ": 1156,
      "name ": 1157,
      "ting": 1158,
      "uk ": 1159,
      "ying ": 1160,
      " att": 1161,
      "al and ": 1162,
      ". \" ": 1163,
      "es ( ": 1164,
      "round ": 1165,
      "stem": 1166,
      "list": 1167,
      "dic": 1168,
      "ass": 1169,
      "urch": 1170,
      " mu": 1171,
      "ted to ": 1172,
      "tain ": 1173,
      " points ": 1174,
      "history ": 1175,
      "offici": 1176,
      "outh of ": 1177,
      "valkyria chronicles ii": 1178,
      "john": 1179,
      "hungari": 1180,
      ") , ": 1181,
      "1 , ": 1182,
      "ath": 1183,
      "din": 1184,
      "fly": 1185,
      "hin": 1186,
      "ide": 1187,
      "led ": 1188,
      "pla": 1189,
      "song": 1190,
      "t and ": 1191,
      "tex": 1192,
      "win": 1193,
      "wom": 1194,
      "ze ": 1195,
      "entr": 1196,
      "ale ": 1197,
      "alli": 1198,
      "respon": 1199,
      "roun": 1200,
      "ro @-@ ": 1201,
      "stu": 1202,
      "ritu": 1203,
      "forc": 1204,
      "form ": 1205,
      "sider": 1206,
      "goal": 1207,
      "was the ": 1208,
      "is a ": 1209,
      "illi": 1210,
      "ised ": 1211,
      "level": 1212,
      "max": 1213,
      "ation of ": 1214,
      "ablish": 1215,
      "lanta ": 1216,
      "vely ": 1217,
      "establish": 1218,
      "ruit": 1219,
      "games ": 1220,
      "ward ": 1221,
      "larg": 1222,
      "lights ": 1223,
      "became ": 1224,
      "sociation ": 1225,
      "received ": 1226,
      "important ": 1227,
      "transport ": 1228,
      "fairies ": 1229,
      "outh of hea": 1230,
      "ro @-@ hungari": 1231,
      " \"": 1232,
      " to": 1233,
      ". an": 1234,
      ". these ": 1235,
      ". they ": 1236,
      "23": 1237,
      "50": 1238,
      "cent": 1239,
      "eer ": 1240,
      "fil": 1241,
      "gar": 1242,
      "gra": 1243,
      "hal": 1244,
      "ok ": 1245,
      "olog": 1246,
      "some": 1247,
      "zher": 1248,
      "zog": 1249,
      "thor": 1250,
      "in a ": 1251,
      "invol": 1252,
      "eric": 1253,
      "erzher": 1254,
      " than": 1255,
      "onom": 1256,
      "of a": 1257,
      "rop": 1258,
      "ros": 1259,
      "un ": 1260,
      "ford ": 1261,
      "ought ": 1262,
      "open": 1263,
      "he was ": 1264,
      "lea": 1265,
      "vities ": 1266,
      "vision ": 1267,
      "other": 1268,
      "succ": 1269,
      "poin": 1270,
      "one of the ": 1271,
      "person": 1272,
      "ifi": 1273,
      "egypt ": 1274,
      "@-@ s": 1275,
      "train": 1276,
      "ground ": 1277,
      "down": 1278,
      "later ": 1279,
      "univer": 1280,
      "human": 1281,
      "represent": 1282,
      "just ": 1283,
      "depic": 1284,
      "nhl ": 1285,
      " charac": 1286,
      "believ": 1287,
      "amily ": 1288,
      "erzherzog": 1289,
      " in the ": 1290,
      "\" m": 1291,
      ", th": 1292,
      "1 @.@ ": 1293,
      "cla": 1294,
      "don ": 1295,
      "do ": 1296,
      "hen": 1297,
      "ilo": 1298,
      "ima": 1299,
      "jam": 1300,
      "ose ": 1301,
      "own": 1302,
      "ps ": 1303,
      "prom": 1304,
      "ry ": 1305,
      "tre": 1306,
      "tec": 1307,
      "ten ": 1308,
      "upp": 1309,
      "y the ": 1310,
      "into the ": 1311,
      "ed on ": 1312,
      "ant": 1313,
      "ard ": 1314,
      "al c": 1315,
      "ing a": 1316,
      "ing c": 1317,
      "states ": 1318,
      " any ": 1319,
      "ing , ": 1320,
      "def": 1321,
      "out the ": 1322,
      "itali": 1323,
      " be ": 1324,
      "not": 1325,
      "sub": 1326,
      "posed ": 1327,
      "work ": 1328,
      "when": 1329,
      "ture ": 1330,
      "peti": 1331,
      "grow": 1332,
      "milit": 1333,
      "myth": 1334,
      "continu": 1335,
      "november ": 1336,
      "zrinyi": 1337,
      "bel": 1338,
      "isi": 1339,
      "ivil": 1340,
      "les": 1341,
      "late ": 1342,
      "pr": 1343,
      "plan": 1344,
      "pair": 1345,
      "vari": 1346,
      "ins ": 1347,
      "ed to": 1348,
      "ed with": 1349,
      "ed to the ": 1350,
      "of these ": 1351,
      "ing a ": 1352,
      "er c": 1353,
      "road ": 1354,
      "stat": 1355,
      "stated ": 1356,
      "in m": 1357,
      "outh": 1358,
      "ird ": 1359,
      " war": 1360,
      "ast ": 1361,
      "198": 1362,
      "consist": 1363,
      "resul": 1364,
      "gods '": 1365,
      "sever": 1366,
      "ticular": 1367,
      "her sist": 1368,
      "when ": 1369,
      "trade ": 1370,
      "they ": 1371,
      " with the ": 1372,
      "troop": 1373,
      "during ": 1374,
      "human ": 1375,
      "little rock ": 1376,
      "standar": 1377,
      "comple": 1378,
      "histor": 1379,
      "religious ": 1380,
      "following ": 1381,
      "public": 1382,
      "life ": 1383,
      "austro @-@ hungari": 1384,
      "bruary ": 1385,
      " of": 1386,
      ". al": 1387,
      "24": 1388,
      "25": 1389,
      "bur": 1390,
      "back": 1391,
      "cus": 1392,
      "ding the ": 1393,
      "hou": 1394,
      "lem": 1395,
      "mil": 1396,
      "mall": 1397,
      "p ": 1398,
      "ways ": 1399,
      "s of the ": 1400,
      "this ": 1401,
      "ed with ": 1402,
      "ens": 1403,
      "al , ": 1404,
      "ref": 1405,
      "es , and ": 1406,
      "stre": 1407,
      "st. ": 1408,
      "unti": 1409,
      " sec": 1410,
      "him ": 1411,
      "del": 1412,
      "rif": 1413,
      "for s": 1414,
      "icro": 1415,
      "ray ": 1416,
      "leag": 1417,
      "connec": 1418,
      "ers and ": 1419,
      " albu": 1420,
      "given ": 1421,
      "take ": 1422,
      "events ": 1423,
      "bodi": 1424,
      "year , ": 1425,
      "group": 1426,
      " aircraf": 1427,
      "union ": 1428,
      "found ": 1429,
      "foot": 1430,
      "music": 1431,
      "navy ": 1432,
      "nature ": 1433,
      "cullen": 1434,
      "lower fairies ": 1435,
      "bonari": 1436,
      " , the ": 1437,
      " has ": 1438,
      "16": 1439,
      "1 – ": 1440,
      "ause ": 1441,
      "craft ": 1442,
      "dn": 1443,
      "dy": 1444,
      "des ": 1445,
      "dra": 1446,
      "fle": 1447,
      "fruit": 1448,
      "gran": 1449,
      "jan": 1450,
      "less ": 1451,
      "near": 1452,
      "oil": 1453,
      "occ": 1454,
      "ra ": 1455,
      "ram": 1456,
      "shi": 1457,
      "t that ": 1458,
      "ut ": 1459,
      "wal": 1460,
      "s , and ": 1461,
      "than ": 1462,
      "ini": 1463,
      " a f": 1464,
      " aviation ": 1465,
      "ed . ": 1466,
      "organ": 1467,
      "of an": 1468,
      "al m": 1469,
      "rem": 1470,
      "return": 1471,
      ". in ": 1472,
      "ator": 1473,
      "desp": 1474,
      "ried ": 1475,
      "in b": 1476,
      "to f": 1477,
      "sive ": 1478,
      "ell ": 1479,
      "eless ": 1480,
      "and the ": 1481,
      "ick ": 1482,
      " mm ": 1483,
      "estim": 1484,
      "ulti": 1485,
      "no ": 1486,
      "make ": 1487,
      "power ": 1488,
      "lub": 1489,
      "again": 1490,
      " ark": 1491,
      "cip": 1492,
      "had a ": 1493,
      "ckey ": 1494,
      "people ": 1495,
      "commerci": 1496,
      "medi": 1497,
      "gambia ": 1498,
      "private ": 1499,
      "great ": 1500,
      "built ": 1501,
      "include ": 1502,
      "humans ": 1503,
      "diffic": 1504,
      "place ": 1505,
      "represented ": 1506,
      "original ": 1507,
      "religion ": 1508,
      "album": 1509,
      "pilots ": 1510,
      "chool": 1511,
      "different ": 1512,
      "influ": 1513,
      "dinand ": 1514,
      "texts ": 1515,
      "half": 1516,
      "james ": 1517,
      "footb": 1518,
      " transport ": 1519,
      "$ ": 1520,
      "aw": 1521,
      "back ": 1522,
      "block": 1523,
      "clo": 1524,
      "da": 1525,
      "dy ": 1526,
      "dam": 1527,
      "ever": 1528,
      "family ": 1529,
      "gres": 1530,
      "id ": 1531,
      "jun": 1532,
      "lec": 1533,
      "man ": 1534,
      "nex": 1535,
      "pol": 1536,
      "ron ": 1537,
      "tor ": 1538,
      "ut": 1539,
      "that": 1540,
      "into": 1541,
      " than ": 1542,
      " ab": 1543,
      "tit": 1544,
      "around ": 1545,
      ", but ": 1546,
      "real": 1547,
      "ing and ": 1548,
      "stor": 1549,
      "stri": 1550,
      "ating ": 1551,
      "ator ": 1552,
      "on @-@ ": 1553,
      " critic": 1554,
      "dest": 1555,
      "defin": 1556,
      "ribu": 1557,
      "iron": 1558,
      "ombar": 1559,
      " pri": 1560,
      "got ": 1561,
      "ic ": 1562,
      "ice ": 1563,
      " more ": 1564,
      "hab": 1565,
      "labor": 1566,
      "space ": 1567,
      "hockey ": 1568,
      "consider": 1569,
      "others ": 1570,
      "track": 1571,
      "tract ": 1572,
      " arsen": 1573,
      " = = =": 1574,
      "even": 1575,
      "eap": 1576,
      "ships ": 1577,
      "formed ": 1578,
      "gus ": 1579,
      "years ": 1580,
      "carbonari": 1581,
      "eff": 1582,
      "previ": 1583,
      " km ": 1584,
      "trans": 1585,
      "small": 1586,
      "chise ": 1587,
      "outside ": 1588,
      "tower building ": 1589,
      "general": 1590,
      "temple ": 1591,
      "their ": 1592,
      "nhl": 1593,
      "between ": 1594,
      "album ": 1595,
      "know": 1596,
      " after the ": 1597,
      "united states ": 1598,
      " ferdinand ": 1599,
      "gold dollar": 1600,
      "league ": 1601,
      " ( ": 1602,
      "\" and ": 1603,
      "'t ": 1604,
      "8 ": 1605,
      "ao": 1606,
      "ba": 1607,
      "eum": 1608,
      "g. ": 1609,
      "galli": 1610,
      "ken": 1611,
      "ldr": 1612,
      "ner ": 1613,
      "osi": 1614,
      "uary ": 1615,
      "wo": 1616,
      "indu": 1617,
      " that": 1618,
      "t of ": 1619,
      "t lic": 1620,
      ", which": 1621,
      "of this ": 1622,
      "ington ": 1623,
      "es . the ": 1624,
      "roles ": 1625,
      "stric": 1626,
      "ater ": 1627,
      " cull": 1628,
      "deal": 1629,
      "river ": 1630,
      "in 18": 1631,
      "in 200": 1632,
      "force ": 1633,
      "chan": 1634,
      " , but ": 1635,
      "disc": 1636,
      " met": 1637,
      " bo": 1638,
      "illu": 1639,
      "ist ": 1640,
      "ission": 1641,
      "exten": 1642,
      "exist": 1643,
      "it is ": 1644,
      "useum": 1645,
      "mov": 1646,
      "about ": 1647,
      "qual": 1648,
      "strum": 1649,
      "particular": 1650,
      "had been": 1651,
      " contro": 1652,
      "ship ": 1653,
      "present ": 1654,
      "game 's ": 1655,
      "five ": 1656,
      "bili": 1657,
      "large ": 1658,
      "species ": 1659,
      "head ": 1660,
      "aff": 1661,
      "re @-@ ": 1662,
      "valkyria ": 1663,
      " americ": 1664,
      "could be ": 1665,
      "new kingdom": 1666,
      "fungus ": 1667,
      "since ": 1668,
      "ggest": 1669,
      " from the ": 1670,
      "field ": 1671,
      "called ": 1672,
      "limited ": 1673,
      " activities ": 1674,
      "however ": 1675,
      "franchise ": 1676,
      "illion ": 1677,
      "austro @-@ hungarian ": 1678,
      "despite ": 1679,
      "next ": 1680,
      "/ ": 1681,
      "30": 1682,
      "40": 1683,
      "9 ": 1684,
      "bul": 1685,
      "cess ": 1686,
      "dd": 1687,
      "dor": 1688,
      "dge ": 1689,
      "dence ": 1690,
      "fa": 1691,
      "flo": 1692,
      "fif": 1693,
      "kh": 1694,
      "men": 1695,
      "mary ": 1696,
      "nash": 1697,
      "oci": 1698,
      "ple ": 1699,
      "pra": 1700,
      "stic": 1701,
      "typ": 1702,
      "wer": 1703,
      "there ": 1704,
      "three ": 1705,
      "inch ": 1706,
      "instrum": 1707,
      " those ": 1708,
      "t of the ": 1709,
      "ordn": 1710,
      "an c": 1711,
      "an s": 1712,
      "often": 1713,
      "reat": 1714,
      "reach": 1715,
      "und": 1716,
      "ing of the ": 1717,
      "dem": 1718,
      "risti": 1719,
      "irc": 1720,
      "ire ": 1721,
      "sible ": 1722,
      "elements ": 1723,
      " wh": 1724,
      " wom": 1725,
      "ts of ": 1726,
      "ither ": 1727,
      "of the year": 1728,
      " bec": 1729,
      " beg": 1730,
      " barker ": 1731,
      "ular ": 1732,
      " ft ": 1733,
      "leg": 1734,
      "vided ": 1735,
      "contro": 1736,
      "try ": 1737,
      "track ": 1738,
      " was the ": 1739,
      "tten": 1740,
      " airports ": 1741,
      "coach": 1742,
      "ity of ": 1743,
      " in ) ": 1744,
      "feat": 1745,
      " sever": 1746,
      "ducted ": 1747,
      "to be a ": 1748,
      "would be ": 1749,
      "north": 1750,
      " commerci": 1751,
      "system": 1752,
      "horus ": 1753,
      "position ": 1754,
      "character ": 1755,
      "under the ": 1756,
      "popular": 1757,
      "publish": 1758,
      " which": 1759,
      "part of the ": 1760,
      "arsenal ": 1761,
      "patter": 1762,
      " buil": 1763,
      "ously ": 1764,
      "hind ": 1765,
      "involved ": 1766,
      "erzherzog ferdinand ": 1767,
      "leship": 1768,
      "prof": 1769,
      "january ": 1770,
      "industr": 1771,
      "illustr": 1772,
      "ordnance ": 1773,
      "erzherzog ferdinand max": 1774,
      "\" the ": 1775,
      ". a": 1776,
      ". there ": 1777,
      "2 , ": 1778,
      "7 ": 1779,
      "band ": 1780,
      "cup": 1781,
      "fel": 1782,
      "fur": 1783,
      "hour": 1784,
      "home ": 1785,
      "hold ": 1786,
      "iz": 1787,
      "i , ": 1788,
      "ks ": 1789,
      "ll ": 1790,
      "mother ": 1791,
      "na": 1792,
      "oc": 1793,
      "per ": 1794,
      "sch": 1795,
      "sho": 1796,
      "slayer ": 1797,
      "tel": 1798,
      "yo": 1799,
      "s the ": 1800,
      "intro": 1801,
      "ere": 1802,
      "enti": 1803,
      "engin": 1804,
      "arm": 1805,
      "often ": 1806,
      "al was ": 1807,
      "allow": 1808,
      "ste": 1809,
      "station ": 1810,
      "atter": 1811,
      "ately ": 1812,
      " cm ": 1813,
      " could ": 1814,
      " class ": 1815,
      " club": 1816,
      "deter": 1817,
      "for a ": 1818,
      "forman": 1819,
      "to re": 1820,
      "el ": 1821,
      " who": 1822,
      " per c": 1823,
      "loy": 1824,
      "low ": 1825,
      " . \" ": 1826,
      "hap": 1827,
      "but": 1828,
      "lay ": 1829,
      "noise ": 1830,
      "ve the ": 1831,
      "begin": 1832,
      "main ": 1833,
      "maat ": 1834,
      "earli": 1835,
      "examp": 1836,
      "exclu": 1837,
      "sequ": 1838,
      "ong ": 1839,
      "ong with ": 1840,
      "protec": 1841,
      "when the ": 1842,
      "fire ": 1843,
      "tradition": 1844,
      " in 19": 1845,
      "guit": 1846,
      "gainst": 1847,
      "range ": 1848,
      "arkansas ": 1849,
      "common ": 1850,
      "commission": 1851,
      " @.@ 5": 1852,
      " inch": 1853,
      "carried ": 1854,
      "player ": 1855,
      "join": 1856,
      "included ": 1857,
      "including ": 1858,
      "becom": 1859,
      "also ": 1860,
      "recorded ": 1861,
      " there 's ": 1862,
      "four ": 1863,
      "numbers ": 1864,
      "can be ": 1865,
      " world ": 1866,
      "surroun": 1867,
      "between the ": 1868,
      "askray ": 1869,
      " aerodromes ": 1870,
      "belief": 1871,
      " feet ": 1872,
      "res ( ": 1873,
      "review": 1874,
      "fields ": 1875,
      "little rock arsen": 1876,
      "members ": 1877,
      "requir": 1878,
      "major": 1879,
      "flying ": 1880,
      "outh of heaven": 1881,
      "imag": 1882,
      "growth ": 1883,
      "military ": 1884,
      "troops ": 1885,
      ". although": 1886,
      "lower fairies of the ": 1887,
      " arkansas ": 1888,
      "got to be a ": 1889,
      "previous ": 1890,
      " per cent ": 1891,
      "got to be a way ": 1892,
      " is ": 1893,
      " lan": 1894,
      "( c": 1895,
      ", they ": 1896,
      "4 , ": 1897,
      "ban": 1898,
      "best ": 1899,
      "eb": 1900,
      "ew ": 1901,
      "fu": 1902,
      "ft ": 1903,
      "fair": 1904,
      "flight ": 1905,
      "ged ": 1906,
      "jur": 1907,
      "lar ": 1908,
      "me ": 1909,
      "mit": 1910,
      "ment": 1911,
      "muni": 1912,
      "nu": 1913,
      "pl": 1914,
      "san": 1915,
      "sto": 1916,
      "sol": 1917,
      "wan": 1918,
      "way": 1919,
      "yor": 1920,
      "y are ": 1921,
      "’ ": 1922,
      "s in ": 1923,
      "thin": 1924,
      "in an": 1925,
      "inten": 1926,
      "er and ": 1927,
      " a m": 1928,
      "on a": 1929,
      "once ": 1930,
      "order": 1931,
      "ends ": 1932,
      "ended ": 1933,
      "arth": 1934,
      "to a ": 1935,
      "es the ": 1936,
      "story ": 1937,
      "unc": 1938,
      " she ": 1939,
      "for p": 1940,
      "disp": 1941,
      "ditions ": 1942,
      "ts , ": 1943,
      "urpo": 1944,
      "emer": 1945,
      "ected ": 1946,
      "but the ": 1947,
      "busin": 1948,
      "ism": 1949,
      "teristic": 1950,
      " fir": 1951,
      "being": 1952,
      ", are ": 1953,
      "<unk> s": 1954,
      "conducted ": 1955,
      "suggest": 1956,
      "comman": 1957,
      "combin": 1958,
      "tion . ": 1959,
      "most": 1960,
      "moved ": 1961,
      "never ": 1962,
      "performan": 1963,
      "that he ": 1964,
      "ead ": 1965,
      "book": 1966,
      "scor": 1967,
      "ed to be ": 1968,
      "former ": 1969,
      "deities , ": 1970,
      " @-@ inch ": 1971,
      "gust ": 1972,
      "avann": 1973,
      "mean": 1974,
      "out of ": 1975,
      "2010": 1976,
      "team ": 1977,
      "played ": 1978,
      "foc": 1979,
      "objec": 1980,
      "because ": 1981,
      "nameless ": 1982,
      "started ": 1983,
      "located ": 1984,
      "servic": 1985,
      " association ": 1986,
      "peci": 1987,
      " ) . ": 1988,
      "cording ": 1989,
      "originally ": 1990,
      " many ": 1991,
      " aerodrome ": 1992,
      "battle ": 1993,
      "help": 1994,
      "held ": 1995,
      "number of ": 1996,
      "appear": 1997,
      "well as ": 1998,
      "hym": 1999,
      "equi": 2000,
      "urchas": 2001,
      "sometimes ": 2002,
      "ified ": 2003,
      "fleet ": 2004,
      "initi": 2005,
      "june ": 2006,
      "carbonaria ": 2007,
      "knowle": 2008,
      "osiri": 2009,
      "ristian ": 2010,
      "young": 2011,
      " inches ( ": 2012,
      " there 's got to be a way ": 2013,
      "avannah": 2014,
      " for": 2015,
      "\" . ": 2016,
      ") and ": 2017,
      ". as ": 2018,
      "100": 2019,
      "1 @,@ ": 2020,
      "26": 2021,
      "29": 2022,
      "8 , ": 2023,
      "cro": 2024,
      "cas": 2025,
      "ces": 2026,
      "clas": 2027,
      "critic": 2028,
      "don": 2029,
      "dou": 2030,
      "ding s": 2031,
      "ey": 2032,
      "evi": 2033,
      "fal": 2034,
      "flow": 2035,
      "g ": 2036,
      "id": 2037,
      "ign ": 2038,
      "jap": 2039,
      "kin": 2040,
      "ked ": 2041,
      "ld": 2042,
      "ments ": 2043,
      "micro": 2044,
      "multi": 2045,
      "ned ": 2046,
      "pit": 2047,
      "pho": 2048,
      "purchas": 2049,
      "run": 2050,
      "rul": 2051,
      "smo": 2052,
      "squ": 2053,
      "sun ": 2054,
      "south": 2055,
      "tly ": 2056,
      "usu": 2057,
      "vanc": 2058,
      "th and ": 2059,
      "in con": 2060,
      "t . ": 2061,
      "ed of ": 2062,
      "orpor": 2063,
      "anim": 2064,
      "enter": 2065,
      "offer": 2066,
      "rest ": 2067,
      "reation": 2068,
      "restric": 2069,
      "ingly ": 2070,
      ". but ": 2071,
      "st the ": 2072,
      "as a ": 2073,
      "ing to ": 2074,
      "depar": 2075,
      "debut ": 2076,
      "ri lan": 2077,
      "in his ": 2078,
      "fort ": 2079,
      "acqu": 2080,
      "omin": 2081,
      " plan": 2082,
      " mis": 2083,
      "ession": 2084,
      "raph": 2085,
      "olar": 2086,
      "ds , ": 2087,
      "ism ": 2088,
      "in the uk ": 2089,
      "lear": 2090,
      "umm": 2091,
      "ted by ": 2092,
      "ation , ": 2093,
      "<unk> and ": 2094,
      "confeder": 2095,
      "post": 2096,
      "ers , ": 2097,
      "tion , ": 2098,
      "tion of the ": 2099,
      "tion = = \n": 2100,
      "abili": 2101,
      "cient ": 2102,
      "set ": 2103,
      "tical ": 2104,
      "giving ": 2105,
      " airfields ": 2106,
      "impro": 2107,
      "time , ": 2108,
      "parti": 2109,
      "even ": 2110,
      "@-@ w": 2111,
      "adn": 2112,
      "who was ": 2113,
      " @.@ 6": 2114,
      " inter": 2115,
      "gamep": 2116,
      "2013": 2117,
      "kings ": 2118,
      "operation ": 2119,
      "pion": 2120,
      "wards ": 2121,
      "selves ": 2122,
      "international ": 2123,
      "finally ": 2124,
      "finish": 2125,
      "creator ": 2126,
      "after": 2127,
      "after ": 2128,
      "become ": 2129,
      "erial": 2130,
      "child ": 2131,
      "childr": 2132,
      "engag": 2133,
      "local ": 2134,
      " betwe": 2135,
      " @-@ po": 2136,
      "caa ": 2137,
      "geor": 2138,
      "distribu": 2139,
      "indic": 2140,
      "phic": 2141,
      " atlanta ": 2142,
      "fernandez ": 2143,
      "characters ": 2144,
      "battleship": 2145,
      "easa ": 2146,
      "n @-@ 88": 2147,
      "dreadn": 2148,
      "relation": 2149,
      "euro": 2150,
      "observatory ": 2151,
      "however , ": 2152,
      "plain m": 2153,
      "women 's ": 2154,
      "studi": 2155,
      "leading ": 2156,
      "success": 2157,
      "universe ": 2158,
      "various ": 2159,
      "her sister ": 2160,
      "until": 2161,
      "rifles ": 2162,
      "fruitbodi": 2163,
      "blocka": 2164,
      "destroy": 2165,
      "defini": 2166,
      "aoh": 2167,
      "introduc": 2168,
      " cm ( ": 2169,
      "business ": 2170,
      "performance ": 2171,
      "ri lank": 2172,
      " on ": 2173,
      ") . ": 2174,
      ", an": 2175,
      ". a ": 2176,
      "14": 2177,
      "5 , ": 2178,
      "500": 2179,
      "; s": 2180,
      "ak ": 2181,
      "bal": 2182,
      "cri": 2183,
      "can ": 2184,
      "came ": 2185,
      "cru": 2186,
      "fing": 2187,
      "ffer": 2188,
      "ger": 2189,
      "gir": 2190,
      "gan ": 2191,
      "hun": 2192,
      "hear": 2193,
      "ken ": 2194,
      "mbo": 2195,
      "ns ": 2196,
      "pas": 2197,
      "prec": 2198,
      "pain": 2199,
      "rar": 2200,
      "rum": 2201,
      "rus": 2202,
      "sha": 2203,
      "ty": 2204,
      "ton": 2205,
      "tar": 2206,
      "tary ": 2207,
      "tory ": 2208,
      "tings ": 2209,
      "ucc": 2210,
      "xed ": 2211,
      "xis ": 2212,
      "yle ": 2213,
      "yxis ": 2214,
      "e was ": 2215,
      "s are ": 2216,
      "then": 2217,
      "third ": 2218,
      "int": 2219,
      "inv": 2220,
      "in this ": 2221,
      "in col": 2222,
      "injur": 2223,
      "ervic": 2224,
      " a c": 2225,
      "ed that ": 2226,
      "ed by": 2227,
      "any ": 2228,
      "of that ": 2229,
      "al con": 2230,
      "retur": 2231,
      "read ": 2232,
      "repair": 2233,
      ". some ": 2234,
      "to a": 2235,
      "to con": 2236,
      "star ": 2237,
      "staff": 2238,
      " cali": 2239,
      " sh": 2240,
      " song": 2241,
      " sign": 2242,
      "a 's ": 2243,
      "richar": 2244,
      "forei": 2245,
      "acti": 2246,
      "sil": 2247,
      "ampion": 2248,
      " wri": 2249,
      "astic": 2250,
      "ts of the ": 2251,
      " plac": 2252,
      " peri": 2253,
      " pilo": 2254,
      "lood ": 2255,
      "emble ": 2256,
      "ical ": 2257,
      " me": 2258,
      " million ": 2259,
      "essen": 2260,
      "econom": 2261,
      " bc": 2262,
      "haw": 2263,
      "with s": 2264,
      "within the ": 2265,
      "ds ( ": 2266,
      "noted ": 2267,
      "now ": 2268,
      "terms ": 2269,
      "opyxis ": 2270,
      "roman ": 2271,
      "lead ": 2272,
      "196": 2273,
      "1920": 2274,
      "ation of the ": 2275,
      "vide": 2276,
      "view": 2277,
      "very ": 2278,
      "excep": 2279,
      "expan": 2280,
      "tion of ": 2281,
      "using ": 2282,
      "recreation": 2283,
      "gods , ": 2284,
      "gods and ": 2285,
      " along": 2286,
      "pped ": 2287,
      "n 't ": 2288,
      "tail": 2289,
      "had been ": 2290,
      "ifest": 2291,
      "up to ": 2292,
      " acros": 2293,
      "der of the ": 2294,
      "scop": 2295,
      "tee ": 2296,
      "ferr": 2297,
      "<unk> ) ": 2298,
      " combin": 2299,
      "avail": 2300,
      " @.@ 4": 2301,
      "february ": 2302,
      "god 's ": 2303,
      "games , ": 2304,
      "ance of ": 2305,
      "green": 2306,
      "greater ": 2307,
      "midd": 2308,
      "phar": 2309,
      "eigh": 2310,
      "later": 2311,
      "2006": 2312,
      "heav": 2313,
      "interac": 2314,
      "including the ": 2315,
      " kno": 2316,
      "named ": 2317,
      "sms ": 2318,
      "rick ": 2319,
      "in 199": 2320,
      "over the ": 2321,
      "struck": 2322,
      " career ": 2323,
      "society ": 2324,
      "generally ": 2325,
      " appro": 2326,
      " author": 2327,
      " august ": 2328,
      " coun": 2329,
      "geopyxis ": 2330,
      "tribu": 2331,
      "newly ": 2332,
      " ) and ": 2333,
      "works ": 2334,
      ": \" ": 2335,
      "instead ": 2336,
      "roydon ": 2337,
      "gliders ": 2338,
      "pope ": 2339,
      " also ": 2340,
      " made ": 2341,
      "pengu": 2342,
      "lightning ": 2343,
      "club": 2344,
      " most ": 2345,
      "goddesses ": 2346,
      "british ": 2347,
      "did not ": 2348,
      "federal ": 2349,
      "official ": 2350,
      "goalten": 2351,
      ", though": 2352,
      "petition ": 2353,
      "standards ": 2354,
      "delphi": 2355,
      "connected ": 2356,
      "estimated ": 2357,
      "influence ": 2358,
      "football ": 2359,
      "ironcla": 2360,
      " metres ( ": 2361,
      "japan": 2362,
      "usually ": 2363,
      "plain maskray ": 2364,
      "middle ": 2365,
      " li": 2366,
      " , a": 2367,
      " \" ": 2368,
      " <unk> ": 2369,
      " ; ": 2370,
      "\" b": 2371,
      "\" . \n": 2372,
      "11": 2373,
      "27": 2374,
      "36": 2375,
      "38": 2376,
      "45": 2377,
      "7 – ": 2378,
      "80": 2379,
      "; the ": 2380,
      "; and ": 2381,
      "[ ": 2382,
      "black": 2383,
      "bill": 2384,
      "bombar": 2385,
      "cy ": 2386,
      "city ": 2387,
      "cour": 2388,
      "dents ": 2389,
      "days ": 2390,
      "eal": 2391,
      "either ": 2392,
      "fre": 2393,
      "fri": 2394,
      "fav": 2395,
      "hol": 2396,
      "ie ": 2397,
      "ii ": 2398,
      "own ": 2399,
      "sun": 2400,
      "sing ": 2401,
      "sent ": 2402,
      "single ": 2403,
      "t are ": 2404,
      "tember ": 2405,
      "uri": 2406,
      "vis": 2407,
      "wif": 2408,
      "west": 2409,
      "well ": 2410,
      "y a": 2411,
      "you": 2412,
      "ystem": 2413,
      "e of the ": 2414,
      "th c": 2415,
      "in that ": 2416,
      "in an ": 2417,
      " third ": 2418,
      "ed , and ": 2419,
      "ed her ": 2420,
      "ed on the ": 2421,
      "ed with the ": 2422,
      "another ": 2423,
      "tively ": 2424,
      ", such as ": 2425,
      "of all ": 2426,
      "tom": 2427,
      "to ac": 2428,
      "took ": 2429,
      "es of the ": 2430,
      "es . \n": 2431,
      "es that ": 2432,
      "room": 2433,
      "rote ": 2434,
      "sts ": 2435,
      "stage ": 2436,
      "ateg": 2437,
      "unic": 2438,
      " call": 2439,
      " civil": 2440,
      " sho": 2441,
      " sub": 2442,
      "deli": 2443,
      "desi": 2444,
      "deci": 2445,
      "death": 2446,
      "rill": 2447,
      "in , ": 2448,
      "in which": 2449,
      "for a": 2450,
      "for f": 2451,
      "acles ": 2452,
      "acarth": 2453,
      "to pro": 2454,
      "elf": 2455,
      " , which": 2456,
      "division ": 2457,
      " pi": 2458,
      "ural ": 2459,
      "eman ": 2460,
      "goal ": 2461,
      " may ": 2462,
      "itors ": 2463,
      "ulation ": 2464,
      "happ": 2465,
      " flower fairies of the ": 2466,
      "behind ": 2467,
      "um ": 2468,
      "spir": 2469,
      "spread ": 2470,
      "vidu": 2471,
      "viation": 2472,
      "were the ": 2473,
      "cons": 2474,
      "cona ": 2475,
      "ers . ": 2476,
      "( 19": 2477,
      "moder": 2478,
      " art ": 2479,
      "nee": 2480,
      "twor": 2481,
      "que ": 2482,
      "s , but ": 2483,
      "tten ": 2484,
      "tax": 2485,
      "ever ": 2486,
      " act": 2487,
      " according ": 2488,
      "189": 2489,
      "incorpor": 2490,
      "ould be ": 2491,
      "book ": 2492,
      "board ": 2493,
      "travel": 2494,
      " comp": 2495,
      "has a ": 2496,
      "licen": 2497,
      "licop": 2498,
      "served ": 2499,
      "command ": 2500,
      "troph": 2501,
      "down ": 2502,
      "games . ": 2503,
      "greg": 2504,
      "during": 2505,
      "lack ": 2506,
      "route ": 2507,
      "mint ": 2508,
      " kg": 2509,
      "created ": 2510,
      "while the ": 2511,
      " amun": 2512,
      "lled air": 2513,
      "much ": 2514,
      " before ": 2515,
      "such as the ": 2516,
      "guns ": 2517,
      " person": 2518,
      "longac": 2519,
      " ass": 2520,
      "depend": 2521,
      "high ": 2522,
      "highway ": 2523,
      " armor": 2524,
      "ific ": 2525,
      "ificant ": 2526,
      "turned ": 2527,
      "descrip": 2528,
      "between": 2529,
      "naval ": 2530,
      "end of the ": 2531,
      "al pilo": 2532,
      "loss ": 2533,
      "losing ": 2534,
      "known": 2535,
      "fully ": 2536,
      "full ": 2537,
      "both ": 2538,
      " february ": 2539,
      "pilot lic": 2540,
      "regulation ": 2541,
      "cullen ": 2542,
      "support ": 2543,
      "drew ": 2544,
      "country ": 2545,
      "goddess ": 2546,
      " activ": 2547,
      ", although ": 2548,
      "major ": 2549,
      "break": 2550,
      "himself": 2551,
      "due to ": 2552,
      " attemp": 2553,
      ". \" \n": 2554,
      " music": 2555,
      "rituals ": 2556,
      "forces ": 2557,
      "established ": 2558,
      "outh of heaven ": 2559,
      "film": 2560,
      "italian ": 2561,
      "occur": 2562,
      "difficult ": 2563,
      "damag": 2564,
      "habit": 2565,
      "eapons ": 2566,
      "bility ": 2567,
      " became ": 2568,
      "control ": 2569,
      "further ": 2570,
      "example ": 2571,
      "guitar": 2572,
      "sanford ": 2573,
      "’ s ": 2574,
      "focus ": 2575,
      "olars ": 2576,
      "children ": 2577,
      "europe": 2578,
      "studio": 2579,
      "blockade ": 2580,
      "essenti": 2581,
      "design ": 2582,
      "acarthur": 2583,
      ", that ": 2584,
      ". th": 2585,
      ". after ": 2586,
      ". after the ": 2587,
      "0 – ": 2588,
      "1 . ": 2589,
      "22": 2590,
      "2 – ": 2591,
      "2 @,@ ": 2592,
      "22 ": 2593,
      "49": 2594,
      ": \n": 2595,
      "] ": 2596,
      "a a": 2597,
      "ast": 2598,
      "ath ": 2599,
      "away ": 2600,
      "aerodrom": 2601,
      "aviation ": 2602,
      "ba ": 2603,
      "blem": 2604,
      "class ": 2605,
      "dun": 2606,
      "den ": 2607,
      "dment ": 2608,
      "dings ": 2609,
      "datory ": 2610,
      "e.": 2611,
      "eli": 2612,
      "eur": 2613,
      "eep": 2614,
      "edition ": 2615,
      "fla": 2616,
      "fron": 2617,
      "free ": 2618,
      "flights ": 2619,
      "gl": 2620,
      "gr": 2621,
      "ih": 2622,
      "lou": 2623,
      "museum": 2624,
      "ning s": 2625,
      "nearly ": 2626,
      "native ": 2627,
      "nington ": 2628,
      "nastic": 2629,
      "ogn": 2630,
      "prin": 2631,
      "prac": 2632,
      "pre @-@ ": 2633,
      "sor": 2634,
      "slow": 2635,
      "sthe": 2636,
      "saf": 2637,
      "show": 2638,
      "school": 2639,
      "tt ": 2640,
      "tal ": 2641,
      "tter": 2642,
      "tent ": 2643,
      "ting the ": 2644,
      "ually ": 2645,
      "ute ": 2646,
      "ufac": 2647,
      "ures ": 2648,
      "van": 2649,
      "w and ": 2650,
      "wil": 2651,
      "west ": 2652,
      "wee": 2653,
      "yn": 2654,
      "æsthe": 2655,
      "s with": 2656,
      "than": 2657,
      "thing ": 2658,
      "th , ": 2659,
      "throp": 2660,
      "only": 2661,
      "ed to s": 2662,
      "ed that the ": 2663,
      "or s": 2664,
      "an arm": 2665,
      "en and ": 2666,
      "ense ": 2667,
      "tili": 2668,
      "tific": 2669,
      "arded ": 2670,
      ", or ": 2671,
      "of air": 2672,
      "ality ": 2673,
      "ing them": 2674,
      ". m": 2675,
      ". it ": 2676,
      "top": 2677,
      "took": 2678,
      "roo": 2679,
      "row": 2680,
      "ating the ": 2681,
      "on . ": 2682,
      "uner": 2683,
      "unch": 2684,
      "units ": 2685,
      " chi": 2686,
      " came ": 2687,
      " sp": 2688,
      " spec": 2689,
      "list ": 2690,
      "as the ": 2691,
      "a @-@ ": 2692,
      "in order ": 2693,
      "for m": 2694,
      "of egyptian ": 2695,
      "to have ": 2696,
      "six": 2697,
      "situ": 2698,
      "chang": 2699,
      " win": 2700,
      " pre": 2701,
      " previ": 2702,
      "goals ": 2703,
      "esti": 2704,
      "ess , ": 2705,
      "ession ": 2706,
      "al operations ": 2707,
      "itable ": 2708,
      "ittee ": 2709,
      "was a ": 2710,
      "was not ": 2711,
      " bri": 2712,
      " . she ": 2713,
      "with a ": 2714,
      "@-@ star ": 2715,
      "opposi": 2716,
      " fly": 2717,
      "began ": 2718,
      "ley ": 2719,
      "lefield ": 2720,
      "mak": 2721,
      "spi": 2722,
      "spr": 2723,
      "spor": 2724,
      ", af": 2725,
      ", ar": 2726,
      "<unk> . ": 2727,
      "conver": 2728,
      "construc": 2729,
      "contract ": 2730,
      "suffer": 2731,
      "expres": 2732,
      " as \"": 2733,
      ", the gods ": 2734,
      ", the blue jackets ": 2735,
      "ate the ": 2736,
      "used to ": 2737,
      " was a ": 2738,
      "moun": 2739,
      "recogn": 2740,
      "or to the ": 2741,
      "ably ": 2742,
      "about the ": 2743,
      "seas": 2744,
      "ticular ": 2745,
      "tic club": 2746,
      "give ": 2747,
      "worthin": 2748,
      " that was ": 2749,
      "ally": 2750,
      "tter ": 2751,
      " air transport ": 2752,
      "imp": 2753,
      "strali": 2754,
      "parate ": 2755,
      "cover": 2756,
      "derick": 2757,
      " = = = \n": 2758,
      "perform": 2759,
      "which are ": 2760,
      "manag": 2761,
      "@-@ them": 2762,
      "other gods ": 2763,
      "other deities ": 2764,
      " contract ": 2765,
      "where": 2766,
      "present": 2767,
      "lyric": 2768,
      "gain": 2769,
      "gave ": 2770,
      "ga sec": 2771,
      "aircraft ": 2772,
      "means ": 2773,
      " posi": 2774,
      "career ": 2775,
      "2012 ": 2776,
      "2011 ": 2777,
      "tions of ": 2778,
      " a single ": 2779,
      "eight ": 2780,
      "2009": 2781,
      "final ": 2782,
      "more than ": 2783,
      "national": 2784,
      "credi": 2785,
      "ells ": 2786,
      ", along with ": 2787,
      "records ": 2788,
      "monitors ": 2789,
      "domin": 2790,
      " addition": 2791,
      "world war ": 2792,
      " beli": 2793,
      "caa": 2794,
      "ished ": 2795,
      "developed ": 2796,
      "ed as a ": 2797,
      " produc": 2798,
      "facili": 2799,
      "necess": 2800,
      " columbus ": 2801,
      "func": 2802,
      "ograph": 2803,
      "still ": 2804,
      " work ": 2805,
      "denomin": 2806,
      "distinc": 2807,
      "symbo": 2808,
      "india ": 2809,
      "release ": 2810,
      "battlefield ": 2811,
      "following the ": 2812,
      "ject ": 2813,
      "glider ": 2814,
      "before the ": 2815,
      "natural ": 2816,
      "march ": 2817,
      "suppor": 2818,
      "period ": 2819,
      "well as the ": 2820,
      "related ": 2821,
      "light aircraf": 2822,
      "helicop": 2823,
      " through the ": 2824,
      "director": 2825,
      "voc": 2826,
      "government ": 2827,
      "united kingdom": 2828,
      "increasingly ": 2829,
      "observations ": 2830,
      "ed aircraft ": 2831,
      "gold dollar ": 2832,
      "name of the ": 2833,
      "became the ": 2834,
      "film ": 2835,
      "ology ": 2836,
      "training ": 2837,
      "representative ": 2838,
      "depicted ": 2839,
      " character ": 2840,
      "resulted ": 2841,
      "standard ": 2842,
      "cussion ": 2843,
      "house ": 2844,
      "reflec": 2845,
      " album": 2846,
      " album ": 2847,
      "in blood ": 2848,
      " mm )": 2849,
      "difficul": 2850,
      "poly": 2851,
      "title ": 2852,
      " private ": 2853,
      "considered ": 2854,
      "wood ": 2855,
      "change ": 2856,
      "movement ": 2857,
      "austro @-@ hungarian navy ": 2858,
      "bullo": 2859,
      "doroth": 2860,
      "father ": 2861,
      "published ": 2862,
      "profession": 2863,
      ". there are ": 2864,
      "beginning ": 2865,
      "earlier ": 2866,
      "traditional ": 2867,
      "gainst the ": 2868,
      " feet ( ": 2869,
      "urposes ": 2870,
      " first ": 2871,
      "mostly ": 2872,
      "evidence ": 2873,
      "ign in blood ": 2874,
      "multiple ": 2875,
      "confederate ": 2876,
      "ability ": 2877,
      "particip": 2878,
      " @-@ pound ": 2879,
      "cruis": 2880,
      "girl": 2881,
      " caliber ": 2882,
      "pharaoh": 2883,
      "heavy ": 2884,
      "goaltender ": 2885,
      "delphia ": 2886,
      "bombardment ": 2887,
      "th cent": 2888,
      "licensed ": 2889,
      "dependent ": 2890,
      "dunnington ": 2891,
      "æsthetic club": 2892,
      "opposite ": 2893,
      " =": 2894,
      " ra": 2895,
      " he ": 2896,
      "\" c": 2897,
      ".s": 2898,
      "37": 2899,
      "3 – ": 2900,
      "4 \n": 2901,
      "5 ": 2902,
      "86": 2903,
      "8 @.@ ": 2904,
      ": the ": 2905,
      "ain ": 2906,
      "adi": 2907,
      "bir": 2908,
      "cul": 2909,
      "centr": 2910,
      "cros": 2911,
      "dl": 2912,
      "done ": 2913,
      "dge": 2914,
      "ean": 2915,
      "eter ": 2916,
      "educ": 2917,
      "eople ": 2918,
      "ff": 2919,
      "fam": 2920,
      "fem": 2921,
      "flu": 2922,
      "fans ": 2923,
      "hon": 2924,
      "ham": 2925,
      "ight ": 2926,
      "iden": 2927,
      "ized ": 2928,
      "ize ": 2929,
      "jeff": 2930,
      "key ": 2931,
      "keep": 2932,
      "lombar": 2933,
      "mer": 2934,
      "macarthur": 2935,
      "nation ": 2936,
      "nine ": 2937,
      "ods ": 2938,
      "pic": 2939,
      "pag": 2940,
      "pment ": 2941,
      "put ": 2942,
      "pick ": 2943,
      "ry": 2944,
      "sbur": 2945,
      "t. ": 2946,
      "tch": 2947,
      "tem": 2948,
      "tations ": 2949,
      "tori": 2950,
      "ving the ": 2951,
      "wa": 2952,
      "wat": 2953,
      "win ": 2954,
      "wis": 2955,
      "wide": 2956,
      "web": 2957,
      "wrote ": 2958,
      "xim": 2959,
      "£ ": 2960,
      "— ": 2961,
      "s to ": 2962,
      "s for ": 2963,
      "these ": 2964,
      "thori": 2965,
      "ince ": 2966,
      "erve ": 2967,
      " threat": 2968,
      " away ": 2969,
      " around ": 2970,
      "on an": 2971,
      "on and ": 2972,
      "on a ": 2973,
      "t to": 2974,
      "ed his ": 2975,
      "ed for ": 2976,
      "ort": 2977,
      "env": 2978,
      "enough": 2979,
      "enef": 2980,
      "tis ": 2981,
      "ary": 2982,
      ", \" ": 2983,
      "of con": 2984,
      "of their": 2985,
      "of all": 2986,
      "read": 2987,
      "reduc": 2988,
      ". \"": 2989,
      "too": 2990,
      "tober ": 2991,
      "toge": 2992,
      "towards ": 2993,
      "row ": 2994,
      "stati": 2995,
      "stra": 2996,
      "st. an": 2997,
      "style ": 2998,
      "ata ": 2999,
      "atur": 3000,
      "on 2": 3001,
      " sch": 3002,
      " some ": 3003,
      "lip": 3004,
      "libr": 3005,
      "hier": 3006,
      "ing in ": 3007,
      "demo": 3008,
      "demon": 3009,
      "decommission": 3010,
      "death ": 3011,
      "fort": 3012,
      "accep": 3013,
      "acred ": 3014,
      "of her ": 3015,
      "of its ": 3016,
      "sid": 3017,
      "sim": 3018,
      "simil": 3019,
      "church": 3020,
      " , s": 3021,
      " , which ": 3022,
      "diam": 3023,
      "diver": 3024,
      "diers ": 3025,
      "ts and ": 3026,
      "love ": 3027,
      "look": 3028,
      "icon": 3029,
      "icide ": 3030,
      " min": 3031,
      " mon": 3032,
      " mem": 3033,
      " main": 3034,
      "ess and ": 3035,
      "rap": 3036,
      "raised ": 3037,
      "was s": 3038,
      " by": 3039,
      " bar": 3040,
      " both": 3041,
      " batt": 3042,
      "is not ": 3043,
      "is a s": 3044,
      " . he ": 3045,
      " . while ": 3046,
      " . it was ": 3047,
      "'s , ": 3048,
      "'s first ": 3049,
      "lau": 3050,
      "launch": 3051,
      "term ": 3052,
      " four": 3053,
      "roman": 3054,
      "began": 3055,
      "lex": 3056,
      "194": 3057,
      "1918": 3058,
      "vili": 3059,
      "view ": 3060,
      "how ": 3061,
      "verage ": 3062,
      "concep": 3063,
      "\" , and ": 3064,
      "ce of ": 3065,
      "suicide ": 3066,
      "expec": 3067,
      "poli": 3068,
      "post ": 3069,
      "points ": 3070,
      "composed ": 3071,
      "( e.": 3072,
      "it . ": 3073,
      "it 's ": 3074,
      "try": 3075,
      " they are ": 3076,
      "ated the ": 3077,
      "ated by the ": 3078,
      "ney ": 3079,
      "nebr": 3080,
      "seen": 3081,
      "seven": 3082,
      "que": 3083,
      "quar": 3084,
      "enty ": 3085,
      "entually ": 3086,
      "worst ": 3087,
      " airspace ": 3088,
      "strong ": 3089,
      "one @-@ ": 3090,
      "tak": 3091,
      "short ": 3092,
      "coin ": 3093,
      ") . the ": 3094,
      "eventually ": 3095,
      "that were ": 3096,
      "raffic": 3097,
      " christian ": 3098,
      "for example ": 3099,
      "ckay ": 3100,
      "s and the ": 3101,
      "forms ": 3102,
      "<unk> @-@ ": 3103,
      "traded ": 3104,
      "presence ": 3105,
      "achin": 3106,
      "adron ": 3107,
      "epith": 3108,
      "lywood ": 3109,
      "off @-@": 3110,
      "with the blue jackets ": 3111,
      "has been ": 3112,
      "seri": 3113,
      "employ": 3114,
      " in s": 3115,
      "cards ": 3116,
      "carey ": 3117,
      "dow ": 3118,
      "pril ": 3119,
      "ance , ": 3120,
      "gree": 3121,
      "team 's ": 3122,
      "bian ": 3123,
      "rought ": 3124,
      "attn": 3125,
      "attemp": 3126,
      "playoff": 3127,
      "mix": 3128,
      "prepar": 3129,
      "latter ": 3130,
      "sely ": 3131,
      " kar": 3132,
      "y and the ": 3133,
      "t as": 3134,
      "most common ": 3135,
      "brief": 3136,
      "names ": 3137,
      "secre": 3138,
      "howson ": 3139,
      "engra": 3140,
      "engine ": 3141,
      "torpe": 3142,
      "out a ": 3143,
      " hel": 3144,
      "tower was ": 3145,
      "strugg": 3146,
      " player ": 3147,
      " @-@ c": 3148,
      " australi": 3149,
      "in some ": 3150,
      " assist": 3151,
      "many deities ": 3152,
      "egyptian deities ": 3153,
      "egyptian religion ": 3154,
      "north ": 3155,
      "lint": 3156,
      "turns ": 3157,
      "still": 3158,
      " work": 3159,
      "1990": 3160,
      "1998": 3161,
      "tained ": 3162,
      " mandatory ": 3163,
      "dollar": 3164,
      "known ": 3165,
      "base ": 3166,
      "based on ": 3167,
      "gliding": 3168,
      "night ": 3169,
      "race ": 3170,
      "materi": 3171,
      " while ": 3172,
      "10 ": 3173,
      "register": 3174,
      "december ": 3175,
      " maj": 3176,
      "where the ": 3177,
      "appro": 3178,
      "issue ": 3179,
      "supply ": 3180,
      "n @-@ 7": 3181,
      " from ": 3182,
      "certain ": 3183,
      "rays ": 3184,
      "governor ": 3185,
      ", although the ": 3186,
      " fernandez": 3187,
      "said to be ": 3188,
      "due to the ": 3189,
      "curr": 3190,
      "valkyria chronicles iii": 3191,
      "valkyria chronicles iii ": 3192,
      "play ": 3193,
      "entry ": 3194,
      "study ": 3195,
      "ritual": 3196,
      " \" there 's got to be a way ": 3197,
      ". another ": 3198,
      "other than": 3199,
      "down the ": 3200,
      "universi": 3201,
      "believed to ": 3202,
      "upper ": 3203,
      "subsequ": 3204,
      "continued to ": 3205,
      "zrinyi was ": 3206,
      "stated that ": 3207,
      " warn": 3208,
      "several ": 3209,
      "complex": 3210,
      "historic": 3211,
      "background ": 3212,
      "house": 3213,
      "ensing ": 3214,
      "streak": 3215,
      "until ": 3216,
      "year , she ": 3217,
      "music ": 3218,
      "dynastic": 3219,
      "draw": 3220,
      "organiz": 3221,
      "influenc": 3222,
      "football": 3223,
      "every": 3224,
      "gress ": 3225,
      "laboration ": 3226,
      "hockey league ": 3227,
      " cullen": 3228,
      "dealer": 3229,
      "particularly ": 3230,
      " controlled air": 3231,
      " american ": 3232,
      "ociety ": 3233,
      "instruments ": 3234,
      " when ": 3235,
      " women 's ": 3236,
      " began ": 3237,
      "industry ": 3238,
      "october ": 3239,
      "scholars ": 3240,
      "entire ": 3241,
      " . \" \n": 3242,
      "fairy ": 3243,
      "mitted ": 3244,
      "munition ": 3245,
      "york": 3246,
      "equipment ": 3247,
      "ummer ": 3248,
      "gameplay ": 3249,
      "engaged in ": 3250,
      "georgi": 3251,
      " atlanta was ": 3252,
      "until the ": 3253,
      "ampionship": 3254,
      "ifestations ": 3255,
      "available ": 3256,
      "penguins ": 3257,
      "ironclad ": 3258,
      "wife ": 3259,
      "wester": 3260,
      "needed ": 3261,
      "gregori": 3262,
      "louis ": 3263,
      ", after ": 3264,
      "derick warn": 3265,
      "@-@ themed ": 3266,
      "facilities ": 3267,
      "necessary ": 3268,
      "light aircraft as": 3269,
      "identi": 3270,
      "statistic": 3271,
      "demonstr": 3272,
      "nebrask": 3273,
      " mandatory suicide ": 3274,
      " <unk>": 3275,
      "\" p": 3276,
      "& b": 3277,
      "( p": 3278,
      ", an ": 3279,
      ".6": 3280,
      ". an ": 3281,
      "12 ": 3282,
      "2 \n": 3283,
      "33": 3284,
      "3 , ": 3285,
      "300": 3286,
      "400": 3287,
      "6 , ": 3288,
      "70": 3289,
      "7 \n": 3290,
      "89": 3291,
      "800": 3292,
      "az": 3293,
      "a and ": 3294,
      "awar": 3295,
      "bol": 3296,
      "bai": 3297,
      "ce": 3298,
      "clock": 3299,
      "cult ": 3300,
      "cup ": 3301,
      "dark": 3302,
      "day": 3303,
      "ett": 3304,
      "fr": 3305,
      "far": 3306,
      "ior": 3307,
      "ivili": 3308,
      "ky ": 3309,
      "ka ": 3310,
      "kill": 3311,
      "lor": 3312,
      "ling ": 3313,
      "lation ": 3314,
      "my ": 3315,
      "mir": 3316,
      "mas": 3317,
      "mine ": 3318,
      "mund ": 3319,
      "mall ": 3320,
      "mess": 3321,
      "nd ": 3322,
      "ner": 3323,
      "nar": 3324,
      "na ": 3325,
      "nel": 3326,
      "ness ": 3327,
      "non @-@ ": 3328,
      "ot ": 3329,
      "odic": 3330,
      "pa": 3331,
      "pass": 3332,
      "sing": 3333,
      "sen ": 3334,
      "sri lank": 3335,
      "tv": 3336,
      "tum": 3337,
      "tact ": 3338,
      "tlanta ": 3339,
      "tford ": 3340,
      "tattn": 3341,
      "val ": 3342,
      "wing": 3343,
      "wers ": 3344,
      "wall": 3345,
      "xii": 3346,
      "zen": 3347,
      "e 's ": 3348,
      "e . \n": 3349,
      "s in the ": 3350,
      "then ": 3351,
      "in their": 3352,
      "inspir": 3353,
      "independent ": 3354,
      "ery ": 3355,
      "erary ": 3356,
      " things ": 3357,
      " thrill": 3358,
      " aspec": 3359,
      " aviation": 3360,
      "onto ": 3361,
      "onds ": 3362,
      "t in ": 3363,
      "ed a": 3364,
      "ed from": 3365,
      "ed him ": 3366,
      "orn": 3367,
      "or the ": 3368,
      "an and ": 3369,
      "ending ": 3370,
      "tivel": 3371,
      "tism": 3372,
      "are": 3373,
      "arch": 3374,
      ", he ": 3375,
      ", 186": 3376,
      "of aircraft ": 3377,
      "of three ": 3378,
      "al a": 3379,
      "always ": 3380,
      "al air transport ": 3381,
      "real ": 3382,
      "reation ": 3383,
      "repor": 3384,
      "replac": 3385,
      "retain": 3386,
      "reign in blood ": 3387,
      "rederick warn": 3388,
      "ingu": 3389,
      "ing that ": 3390,
      ". it was ": 3391,
      "tour": 3392,
      "to a s": 3393,
      "to their ": 3394,
      "togra": 3395,
      "er . ": 3396,
      "stal": 3397,
      "step": 3398,
      "stain": 3399,
      " anim": 3400,
      " another ": 3401,
      "on , ": 3402,
      "unit ": 3403,
      "unded ": 3404,
      " cer": 3405,
      " circ": 3406,
      " sa": 3407,
      " su": 3408,
      " sur": 3409,
      " said ": 3410,
      " slayer ": 3411,
      " school": 3412,
      "lied ": 3413,
      "lives ": 3414,
      "as well as ": 3415,
      "hit ": 3416,
      "ing . ": 3417,
      "dead": 3418,
      "rich": 3419,
      "of his ": 3420,
      "sis ": 3421,
      "ammunition ": 3422,
      "omen": 3423,
      "chap": 3424,
      "elec": 3425,
      "eline ": 3426,
      "atis": 3427,
      " wee": 3428,
      " when": 3429,
      "dies ": 3430,
      "ast , ": 3431,
      "ts in ": 3432,
      "ts were ": 3433,
      "los ": 3434,
      "logi": 3435,
      "lose ": 3436,
      "losed ": 3437,
      "ury ": 3438,
      "of the state ": 3439,
      "emb": 3440,
      "le , ": 3441,
      " my": 3442,
      " mat": 3443,
      " mas": 3444,
      " mil": 3445,
      " mark": 3446,
      " m ) ": 3447,
      " micro": 3448,
      " museum": 3449,
      "esc": 3450,
      " bur": 3451,
      ", and was ": 3452,
      "ull ": 3453,
      "ultim": 3454,
      " . in ": 3455,
      "hao": 3456,
      "hau": 3457,
      "within ": 3458,
      "with f": 3459,
      "@-@ up": 3460,
      "in the united kingdom": 3461,
      ". the road ": 3462,
      "note ": 3463,
      "nounc": 3464,
      " fel": 3465,
      " flight ": 3466,
      " frederick warn": 3467,
      "being s": 3468,
      "lead": 3469,
      "leav": 3470,
      "left ": 3471,
      "ted the ": 3472,
      "195": 3473,
      "1915": 3474,
      "ons , ": 3475,
      "ation of": 3476,
      "<unk> ch": 3477,
      "<unk> . \n": 3478,
      "version ": 3479,
      "\" . the ": 3480,
      "othe": 3481,
      "such ": 3482,
      "exp": 3483,
      "exper": 3484,
      "expe": 3485,
      "experi": 3486,
      "ress ": 3487,
      "resear": 3488,
      "move ": 3489,
      "or to ": 3490,
      " arti": 3491,
      "abo": 3492,
      "quir": 3493,
      "given": 3494,
      "worshi": 3495,
      "his first ": 3496,
      "tting ": 3497,
      "imil": 3498,
      "strong": 3499,
      "stronom": 3500,
      "proposed ": 3501,
      "provided ": 3502,
      "her performance ": 3503,
      "cover ": 3504,
      "dergar": 3505,
      "which was ": 3506,
      "manent ": 3507,
      " action ": 3508,
      " chri": 3509,
      " chang": 3510,
      "ship was ": 3511,
      "bot": 3512,
      "box": 3513,
      "body ": 3514,
      "whe": 3515,
      "what ": 3516,
      "form the ": 3517,
      "formation ": 3518,
      "ity , ": 3519,
      "our ": 3520,
      "traits ": 3521,
      "tradition ": 3522,
      "preser": 3523,
      "tenti": 3524,
      "teneg": 3525,
      "with his ": 3526,
      "theistic": 3527,
      " with a": 3528,
      "airship": 3529,
      "years , ": 3530,
      " competition ": 3531,
      "s . he ": 3532,
      "rub": 3533,
      "figh": 3534,
      "fixed ": 3535,
      "orial ": 3536,
      "series ": 3537,
      "committee ": 3538,
      "trophic": 3539,
      "meas": 3540,
      " power ": 3541,
      " power": 3542,
      "does ": 3543,
      "primary ": 3544,
      "tions , ": 3545,
      "first time ": 3546,
      "ef ": 3547,
      "build ": 3548,
      "building": 3549,
      " regi": 3550,
      "pist": 3551,
      "playstation ": 3552,
      "from his ": 3553,
      "later , ": 3554,
      "tion and ": 3555,
      " them ": 3556,
      " themselves ": 3557,
      "interpre": 3558,
      "in ad": 3559,
      "in are": 3560,
      ", also": 3561,
      "alized ": 3562,
      "english": 3563,
      "england ": 3564,
      "month": 3565,
      "monteneg": 3566,
      "overall": 3567,
      "of small": 3568,
      "local": 3569,
      "ga operations ": 3570,
      "least ": 3571,
      "canc": 3572,
      "standing ": 3573,
      " carter ": 3574,
      "general ": 3575,
      " appli": 3576,
      "july ": 3577,
      "like the ": 3578,
      "long t": 3579,
      "ed as the ": 3580,
      "egyptian texts ": 3581,
      " ) , ": 3582,
      "neck": 3583,
      ", as the ": 3584,
      ", as well as ": 3585,
      "link": 3586,
      "edmund ": 3587,
      "funerary ": 3588,
      "distingu": 3589,
      "syn": 3590,
      "released ": 3591,
      "\" south of heaven ": 3592,
      "designed ": 3593,
      "designated ": 3594,
      "phila": 3595,
      "characteristic": 3596,
      "brother ": 3597,
      "thern": 3598,
      ". he was ": 3599,
      "east ": 3600,
      "region": 3601,
      "region ": 3602,
      "decess": 3603,
      "may be ": 3604,
      " all @-@ star ": 3605,
      "mission ": 3606,
      "missions ": 3607,
      "remained ": 3608,
      "egyptian c": 3609,
      "barker 's ": 3610,
      "production ": 3611,
      "john ": 3612,
      "europ": 3613,
      "sky ": 3614,
      "continue ": 3615,
      "morning ": 3616,
      "patron ": 3617,
      "under @-@ ": 3618,
      "described the ": 3619,
      "who had ": 3620,
      "austri": 3621,
      "self @-@ ": 3622,
      "columbus was ": 3623,
      "said to ": 3624,
      "written": 3625,
      "structure ": 3626,
      "ather , ": 3627,
      "response ": 3628,
      "maxim": 3629,
      "larger": 3630,
      "larger ": 3631,
      "center ": 3632,
      "gradu": 3633,
      " characters ": 3634,
      " characteristic": 3635,
      "erzherzog kar": 3636,
      "claim": 3637,
      "image ": 3638,
      "antly ": 3639,
      "defens": 3640,
      "zrinyi and ": 3641,
      "statu": 3642,
      "consisting ": 3643,
      "consisted of ": 3644,
      "her sisters ": 3645,
      "they were ": 3646,
      "st. edmund ": 3647,
      " aircraft are ": 3648,
      "remuner": 3649,
      "estimates ": 3650,
      "against ": 3651,
      "against the ": 3652,
      " transport operations ": 3653,
      " about ": 3654,
      "around the ": 3655,
      "extended ": 3656,
      "existence ": 3657,
      "new kingdom , ": 3658,
      "prais": 3659,
      "praised ": 3660,
      "legis": 3661,
      "patterson ": 3662,
      "hours ": 3663,
      "navi": 3664,
      "steam": 3665,
      "determin": 3666,
      "carried out ": 3667,
      "becomes ": 3668,
      "little rock arsenal ": 3669,
      "( c . ": 3670,
      "services ": 3671,
      "knowledg": 3672,
      "knowledge ": 3673,
      "double ": 3674,
      "kindergar": 3675,
      "squad ": 3676,
      "in contr": 3677,
      "creator god ": 3678,
      " between ": 3679,
      "dreadnought ": 3680,
      "hunw": 3681,
      "rarely ": 3682,
      "returning ": 3683,
      " songs ": 3684,
      "activities ": 3685,
      "silver ": 3686,
      " period ": 3687,
      "video ": 3688,
      "expanded ": 3689,
      " alongside ": 3690,
      "scope of ": 3691,
      "ferred to ": 3692,
      "later that ": 3693,
      "geopyxis carbonaria ": 3694,
      "tribute ": 3695,
      "favor": 3696,
      "consul": 3697,
      "twork ": 3698,
      "incorporated ": 3699,
      "book of ": 3700,
      "longacre ": 3701,
      "pilot licence ": 3702,
      "damaged ": 3703,
      "eur buil": 3704,
      "ihl ": 3705,
      "practic": 3706,
      "weehaw": 3707,
      "spiri": 3708,
      "whereas ": 3709,
      "dorothy ": 3710,
      "dgeport ": 3711,
      " threaten": 3712,
      "environ": 3713,
      "( e.g. ": 3714,
      "engraver ": 3715,
      " \" there 's got to be a way \" ": 3716,
      "subsequently ": 3717,
      "georgia ": 3718,
      "nebraska ": 3719,
      "deadline ": 3720,
      " frederick warne , ": 3721,
      "expedition ": 3722,
      " de": 3723,
      " to the ": 3724,
      " had ": 3725,
      " for ": 3726,
      " for the ": 3727,
      " of s": 3728,
      "\" was ": 3729,
      "\" mandatory suicide ": 3730,
      ") . \n": 3731,
      ", this ": 3732,
      ". at the ": 3733,
      ". as a ": 3734,
      ". according ": 3735,
      ". addition": 3736,
      "/ h": 3737,
      "21": 3738,
      "28": 3739,
      "35": 3740,
      "4 . \n": 3741,
      "4 – ": 3742,
      "6 ": 3743,
      "6 – ": 3744,
      "75": 3745,
      "7 @.@ 5": 3746,
      "92": 3747,
      "96": 3748,
      "; frederick warne , ": 3749,
      "apo": 3750,
      "b. ": 3751,
      "batter": 3752,
      "cam": 3753,
      "craf": 3754,
      "core ": 3755,
      "cess": 3756,
      "croydon ": 3757,
      "dro": 3758,
      "dri": 3759,
      "eth": 3760,
      "eve ": 3761,
      "eding ": 3762,
      "flower ": 3763,
      "fail": 3764,
      "father , ": 3765,
      "gas": 3766,
      "ied ": 3767,
      "imo": 3768,
      "ious ": 3769,
      "jo ": 3770,
      "jets ": 3771,
      "jacqu": 3772,
      "kep": 3773,
      "kick": 3774,
      "ler": 3775,
      "less": 3776,
      "mari": 3777,
      "mark": 3778,
      "mason ": 3779,
      "mask": 3780,
      "mouth ": 3781,
      "male ": 3782,
      "mckay ": 3783,
      "machin": 3784,
      "ning": 3785,
      "n and ": 3786,
      "neg": 3787,
      "ov": 3788,
      "oun": 3789,
      "otran": 3790,
      "pap": 3791,
      "plic": 3792,
      "pick": 3793,
      "ptember ": 3794,
      "rup": 3795,
      "rhym": 3796,
      "sal": 3797,
      "sou": 3798,
      "sop": 3799,
      "sex": 3800,
      "sci": 3801,
      "sed the ": 3802,
      "ses , ": 3803,
      "south of heaven": 3804,
      "savannah": 3805,
      "sacred ": 3806,
      "summer ": 3807,
      "tz": 3808,
      "tan": 3809,
      "tone ": 3810,
      "table ": 3811,
      "ty and ": 3812,
      "vati": 3813,
      "vit": 3814,
      "van ": 3815,
      "vements ": 3816,
      "vatic": 3817,
      "we ": 3818,
      "water ": 3819,
      "ym": 3820,
      "yot": 3821,
      "yard ": 3822,
      "— the ": 3823,
      "e and ": 3824,
      "e in the ": 3825,
      "e . the ": 3826,
      "s \n": 3827,
      "s ;": 3828,
      "s . \n": 3829,
      "s , the ": 3830,
      "s = = = \n": 3831,
      "s universe ": 3832,
      "th m": 3833,
      "thought ": 3834,
      "in and ": 3835,
      "inci": 3836,
      "in these ": 3837,
      "era ": 3838,
      "erop": 3839,
      "erob": 3840,
      " agre": 3841,
      "oni": 3842,
      "t , and ": 3843,
      "t 's ": 3844,
      "t . the ": 3845,
      "ed g": 3846,
      "ed from the ": 3847,
      "ed their": 3848,
      "ed before ": 3849,
      "ording ": 3850,
      "ors were ": 3851,
      "orders ": 3852,
      "orolog": 3853,
      "ana": 3854,
      "anti": 3855,
      "an m": 3856,
      "enem": 3857,
      "enix": 3858,
      "enomen": 3859,
      "tia ": 3860,
      "tide ": 3861,
      "till": 3862,
      "tizen": 3863,
      "y = = \n": 3864,
      "armor": 3865,
      ", \"": 3866,
      ", or": 3867,
      ", was ": 3868,
      ", where ": 3869,
      "of their ": 3870,
      "of aerodromes ": 3871,
      "aly": 3872,
      "al pro": 3873,
      "al airports ": 3874,
      "relat": 3875,
      "respec": 3876,
      "res of ": 3877,
      "ings and ": 3878,
      "ing aircraft ": 3879,
      "ing that the ": 3880,
      ". most ": 3881,
      ". dunnington ": 3882,
      "to this ": 3883,
      "to an ": 3884,
      "total ": 3885,
      "es in the ": 3886,
      "es , the ": 3887,
      "es at the ": 3888,
      "rook": 3889,
      "roll": 3890,
      "rober": 3891,
      "sting": 3892,
      "ster ": 3893,
      "ston ": 3894,
      "stand ": 3895,
      "stone ": 3896,
      "station": 3897,
      "steri": 3898,
      " ancient ": 3899,
      "aten": 3900,
      "atten": 3901,
      "atlanta ": 3902,
      "on her ": 3903,
      "unities ": 3904,
      "unity ": 3905,
      "unable ": 3906,
      "unlike ": 3907,
      "unds ( ": 3908,
      " city ": 3909,
      " and a ": 3910,
      " ship": 3911,
      " side ": 3912,
      " supp": 3913,
      " south of heaven": 3914,
      " servic": 3915,
      "lik": 3916,
      "liter": 3917,
      "as an ": 3918,
      "hib": 3919,
      "hitch": 3920,
      "ing in the ": 3921,
      "ing . \n": 3922,
      "devol": 3923,
      "devo": 3924,
      "dedic": 3925,
      "a . \n": 3926,
      "in f": 3927,
      "in franchise ": 3928,
      "for these ": 3929,
      "ouse ": 3930,
      "out a": 3931,
      "ace , ": 3932,
      "of pilots ": 3933,
      "to inter": 3934,
      "to make ": 3935,
      "iron ": 3936,
      "size ": 3937,
      "sively ": 3938,
      "sibility ": 3939,
      "amity ": 3940,
      "americ": 3941,
      "cha": 3942,
      "chri": 3943,
      "christian ": 3944,
      "championship": 3945,
      "els ": 3946,
      "el , ": 3947,
      "elev": 3948,
      "elder ": 3949,
      " , to ": 3950,
      " , was ": 3951,
      " , it was ": 3952,
      " would ": 3953,
      " wide ": 3954,
      " weapons ": 3955,
      "ashi": 3956,
      "assign": 3957,
      "assist": 3958,
      "association ": 3959,
      "asn 't ": 3960,
      "ts to ": 3961,
      "ts ( ": 3962,
      " pen": 3963,
      " per ": 3964,
      " phy": 3965,
      " patter": 3966,
      " people ": 3967,
      "of the battlefield ": 3968,
      "emate ": 3969,
      "le ( ": 3970,
      "gobre": 3971,
      " mph": 3972,
      "esp": 3973,
      "ess . ": 3974,
      "ra and ": 3975,
      "rade": 3976,
      "rail": 3977,
      "rather": 3978,
      "ital": 3979,
      "it also": 3980,
      "itself": 3981,
      " bre": 3982,
      " back": 3983,
      " by the ": 3984,
      " billion ": 3985,
      "olin": 3986,
      "hai": 3987,
      "havi": 3988,
      "hathor": 3989,
      "with a": 3990,
      "without ": 3991,
      "an , and ": 3992,
      "@-@ time ": 3993,
      "@-@ like ": 3994,
      "@-@ round ": 3995,
      "in the early ": 3996,
      "law": 3997,
      "label": 3998,
      ". the route ": 3999,
      "now": 4000,
      "term": 4001,
      "ters , ": 4002,
      "opted ": 4003,
      "open ": 4004,
      " fin": 4005,
      " fem": 4006,
      " fran": 4007,
      " follow": 4008,
      " found ": 4009,
      "he had ": 4010,
      "um , ": 4011,
      "ted to the ": 4012,
      "190": 4013,
      "191": 4014,
      "spe": 4015,
      "spent ": 4016,
      "visi": 4017,
      "vide ": 4018,
      ", acc": 4019,
      ", amat": 4020,
      ", atlanta ": 4021,
      "earth ": 4022,
      "hot ": 4023,
      "\" \n": 4024,
      "\" ) ": 4025,
      " a new ": 4026,
      "expen": 4027,
      "power": 4028,
      "ers of ": 4029,
      "tion was ": 4030,
      "tion with the ": 4031,
      "result ": 4032,
      "true ": 4033,
      "eget": 4034,
      "model": 4035,
      "recently ": 4036,
      "ated by ": 4037,
      "ated with ": 4038,
      "again ": 4039,
      "gods . ": 4040,
      "gods are ": 4041,
      "gods who": 4042,
      "gods ' ": 4043,
      " always ": 4044,
      "need to ": 4045,
      "neither ": 4046,
      "citizen": 4047,
      "twin ": 4048,
      "separate ": 4049,
      "september ": 4050,
      "ded by ": 4051,
      "worship": 4052,
      "s , which": 4053,
      " air ": 4054,
      "ong the ": 4055,
      "ong with": 4056,
      "times , ": 4057,
      "propos": 4058,
      "procur": 4059,
      "proces": 4060,
      "taking ": 4061,
      "had not ": 4062,
      "shu": 4063,
      "should be ": 4064,
      "coal ": 4065,
      "cosmo": 4066,
      " = = \n": 4067,
      "performed ": 4068,
      "permanent ": 4069,
      "if ": 4070,
      "which the ": 4071,
      "which re": 4072,
      "egypto": 4073,
      "manufac": 4074,
      " access ": 4075,
      "easter": 4076,
      "for inst": 4077,
      " contin": 4078,
      "th of ": 4079,
      "ation and ": 4080,
      "ship , ": 4081,
      "boat ": 4082,
      "teorolog": 4083,
      "whal": 4084,
      "ations of ": 4085,
      "formed the ": 4086,
      "ferred ": 4087,
      "on the morning ": 4088,
      "appoin": 4089,
      "advanc": 4090,
      "ete ": 4091,
      "ly the ": 4092,
      "offer ": 4093,
      "gau": 4094,
      "gaz": 4095,
      "ga airfields ": 4096,
      "game , ": 4097,
      "game and ": 4098,
      "has since ": 4099,
      "rule ": 4100,
      "ved , ": 4101,
      "peed of ": 4102,
      "group ": 4103,
      "commonly ": 4104,
      "have been": 4105,
      "few": 4106,
      "valu": 4107,
      "es , including ": 4108,
      " pounds ( ": 4109,
      " afric": 4110,
      " seas": 4111,
      "prior to the ": 4112,
      "ance to ": 4113,
      "great": 4114,
      "tions = = \n": 4115,
      "team was ": 4116,
      "effor": 4117,
      "effort ": 4118,
      "gency ": 4119,
      " a seri": 4120,
      "ant coach": 4121,
      "phenomen": 4122,
      "unique ": 4123,
      "speci": 4124,
      "spective ": 4125,
      "specific": 4126,
      "ublic": 4127,
      "lighter ": 4128,
      "crew": 4129,
      "creation ": 4130,
      "author": 4131,
      ", all ": 4132,
      "most important ": 4133,
      "bridge ": 4134,
      "bridgeport ": 4135,
      "small ": 4136,
      "to supp": 4137,
      " aircraft operation ": 4138,
      "divine real": 4139,
      " there are ": 4140,
      "all 's ": 4141,
      "color": 4142,
      "collec": 4143,
      "money ": 4144,
      "it was the ": 4145,
      "toronto ": 4146,
      "fourth ": 4147,
      "lock ": 4148,
      "locations ": 4149,
      "ga , ": 4150,
      " added ": 4151,
      " addition ": 4152,
      " han": 4153,
      "struck ": 4154,
      "15 ": 4155,
      " carey ": 4156,
      " carolin": 4157,
      "akimo": 4158,
      "represents ": 4159,
      " players ": 4160,
      " playoff": 4161,
      " behind ": 4162,
      " @-@ p": 4163,
      "gun p": 4164,
      "just": 4165,
      "judg": 4166,
      " coast ": 4167,
      " performed ": 4168,
      " percussion ": 4169,
      "render": 4170,
      "tridg": 4171,
      " associ": 4172,
      "ed in the uk": 4173,
      "regular": 4174,
      "regarded ": 4175,
      "deploy": 4176,
      "compan": 4177,
      "highest ": 4178,
      ", as well as the ": 4179,
      " armam": 4180,
      "working ": 4181,
      "officers ": 4182,
      "each character ": 4183,
      "edul": 4184,
      "stitu": 4185,
      "ewsk": 4186,
      "taining ": 4187,
      " @,@ 000 ": 4188,
      "hann": 4189,
      "navy , ": 4190,
      "volu": 4191,
      "individu": 4192,
      "end of ": 4193,
      ". she was ": 4194,
      " manag": 4195,
      "\" she ": 4196,
      "ilitary ": 4197,
      "install": 4198,
      "valkyria chronicles ii ": 4199,
      "positive ": 4200,
      "broken ": 4201,
      "there": 4202,
      "enced ": 4203,
      "disappoin": 4204,
      "gliding ": 4205,
      "niewsk": 4206,
      "layer 's ": 4207,
      "ahl": 4208,
      "ahra": 4209,
      "victori": 4210,
      "anctu": 4211,
      "part of ": 4212,
      "pilot ": 4213,
      "regular ": 4214,
      "declin": 4215,
      ". this was ": 4216,
      "; blackie , 194": 4217,
      "drew": 4218,
      "angel": 4219,
      "relati": 4220,
      "light aircraft ": 4221,
      "heal": 4222,
      "skill": 4223,
      " through ": 4224,
      " throughout the ": 4225,
      "direct ": 4226,
      " particular ": 4227,
      "called the ": 4228,
      "panthe": 4229,
      "vocal": 4230,
      " but ": 4231,
      "veal": 4232,
      "veter": 4233,
      "through the ": 4234,
      "into one ": 4235,
      "requi": 4236,
      "to cre": 4237,
      "season . ": 4238,
      " appearance ": 4239,
      "break ": 4240,
      "eeded ": 4241,
      "written ": 4242,
      "atic ": 4243,
      " traffic": 4244,
      "hartford ": 4245,
      "assemb": 4246,
      "history = = \n": 4247,
      "hind": 4248,
      "responsibility ": 4249,
      " took": 4250,
      "opening ": 4251,
      "success ": 4252,
      "personal ": 4253,
      "@-@ shap": 4254,
      "training": 4255,
      "do not ": 4256,
      "promo": 4257,
      "promin": 4258,
      "italian": 4259,
      "military": 4260,
      "myths ": 4261,
      "isis ": 4262,
      "isis and ": 4263,
      "planning ": 4264,
      "variety ": 4265,
      "stated that the ": 4266,
      "trade deadline ": 4267,
      "completed ": 4268,
      "given to ": 4269,
      "take place ": 4270,
      "organis": 4271,
      "of ancona ": 4272,
      "remark": 4273,
      "to fly ": 4274,
      "no valkyria ": 4275,
      "against": 4276,
      "commercial ": 4277,
      "private flying ": 4278,
      "include the ": 4279,
      "closely ": 4280,
      "that are ": 4281,
      "titled ": 4282,
      "strips ": 4283,
      "destin": 4284,
      "tracks ": 4285,
      "effec": 4286,
      " km / h": 4287,
      "general aviation ": 4288,
      "g. carbonaria ": 4289,
      " cullen ": 4290,
      "head coach": 4291,
      "an cal": 4292,
      "reached ": 4293,
      "demand ": 4294,
      "demons ": 4295,
      " ft ) ": 4296,
      "track list": 4297,
      "featur": 4298,
      "features ": 4299,
      " several ": 4300,
      "erzherzog ferdinand max was ": 4301,
      "band 's ": 4302,
      "felt that ": 4303,
      "teleg": 4304,
      "engines ": 4305,
      "majority of ": 4306,
      " per cent of ": 4307,
      "york ": 4308,
      "intended ": 4309,
      "commander of the ": 4310,
      "scoring ": 4311,
      " @-@ inch ( ": 4312,
      "objects ": 4313,
      "osiris , ": 4314,
      "ldren": 4315,
      "pitla": 4316,
      "photogra": 4317,
      "phoenix": 4318,
      "purchase ": 4319,
      "smooth": 4320,
      "sun god ": 4321,
      "rest of the ": 4322,
      "depart": 4323,
      "improvements ": 4324,
      "dreadnough": 4325,
      "relationship": 4326,
      "relationships ": 4327,
      "fruitbodies are ": 4328,
      "fingal ": 4329,
      "rumors ": 4330,
      "in collaboration ": 4331,
      "richards ": 4332,
      "except ": 4333,
      "rick nash": 4334,
      " approach": 4335,
      " authority ": 4336,
      "japanese ": 4337,
      "course ": 4338,
      "visu": 4339,
      "you ": 4340,
      " called ": 4341,
      " piec": 4342,
      "happen": 4343,
      " activity ": 4344,
      " music ": 4345,
      "habitat": 4346,
      "european": 4347,
      "elimin": 4348,
      "free ag": 4349,
      "an army ": 4350,
      "of airworthin": 4351,
      " previous ": 4352,
      "seasons ": 4353,
      "ga sector ": 4354,
      "credited ": 4355,
      "function": 4356,
      "distinct ": 4357,
      "symbolic": 4358,
      "difficulty ": 4359,
      "title track": 4360,
      "lombardo ": 4361,
      "picture ": 4362,
      "water": 4363,
      "widespread ": 4364,
      "webb": 4365,
      "ready ": 4366,
      "together ": 4367,
      "st. andrew ": 4368,
      "library ": 4369,
      "similar ": 4370,
      "rapha": 4371,
      "briefly ": 4372,
      "torpedo": 4373,
      " assistant coach": 4374,
      "n @-@ 71 ": 4375,
      "current ": 4376,
      "university ": 4377,
      " controlled airspace ": 4378,
      "gregorian ": 4379,
      ".69": 4380,
      "awarded ": 4381,
      "los angel": 4382,
      "rubin ": 4383,
      "orial troph": 4384,
      "does not ": 4385,
      "piston @-@ ": 4386,
      "in addition ": 4387,
      "long tons ": 4388,
      "distinguished ": 4389,
      "philadelphia ": 4390,
      "erzherzog karl": 4391,
      "hours flow": 4392,
      "weehawken": 4393,
      "jo no valkyria ": 4394,
      "jacqueline ": 4395,
      "kept ": 4396,
      "otranto ": 4397,
      "rhymes ": 4398,
      "vatican": 4399,
      "vatican ": 4400,
      "eroplan": 4401,
      "erobatic": 4402,
      "stationed ": 4403,
      "sterious ": 4404,
      "hitchco": 4405,
      "gobrech": 4406,
      ", according ": 4407,
      "on the morning of ": 4408,
      " a series of ": 4409,
      " km / h ; ": 4410,
      " d": 4411,
      " l": 4412,
      " o": 4413,
      " or": 4414,
      " it ": 4415,
      " = \n": 4416,
      " during the ": 4417,
      " , a ": 4418,
      " gods were ": 4419,
      "\" a": 4420,
      "\" that ": 4421,
      "\" by ": 4422,
      "\" there 's got to be a way ": 4423,
      "( b": 4424,
      ") was ": 4425,
      ") acros": 4426,
      "+ ": 4427,
      ".. ": 4428,
      ".com": 4429,
      ". atlanta was ": 4430,
      "21 ": 4431,
      "23 ": 4432,
      "47": 4433,
      "4 @,@ ": 4434,
      "4 @.@ ": 4435,
      "56": 4436,
      "5 and ": 4437,
      "5 – ": 4438,
      "5 \n": 4439,
      "62": 4440,
      "6 @,@ ": 4441,
      "6 @.@ 4": 4442,
      "8 and ": 4443,
      "9 @.@ 4": 4444,
      "; they ": 4445,
      "aa ": 4446,
      "ato ": 4447,
      "aded ": 4448,
      "ao ": 4449,
      "ake ": 4450,
      "a co": 4451,
      "aerial": 4452,
      "bl": 4453,
      "bes ": 4454,
      "bly ": 4455,
      "bres": 4456,
      "bap": 4457,
      "bout ": 4458,
      "brin": 4459,
      "bably ": 4460,
      "benef": 4461,
      "brought ": 4462,
      "cr": 4463,
      "cel": 4464,
      "cat ": 4465,
      "cei": 4466,
      "cali": 4467,
      "croy": 4468,
      "circ": 4469,
      "clear": 4470,
      "dd ": 4471,
      "dres": 4472,
      "dai": 4473,
      "data ": 4474,
      "eith": 4475,
      "ek ": 4476,
      "etr": 4477,
      "eag": 4478,
      "eant ": 4479,
      "evision ": 4480,
      "fly ": 4481,
      "fate ": 4482,
      "full": 4483,
      "flower fairies ": 4484,
      "flower fairies of the ": 4485,
      "ging ": 4486,
      "gin ": 4487,
      "gul": 4488,
      "gone ": 4489,
      "h. ": 4490,
      "hom": 4491,
      "here ": 4492,
      "hop": 4493,
      "iif": 4494,
      "je": 4495,
      "jour": 4496,
      "jid ": 4497,
      "ka": 4498,
      "k , ": 4499,
      "ks , ": 4500,
      "khen": 4501,
      "lyp": 4502,
      "led the ": 4503,
      "lation": 4504,
      "leng": 4505,
      "mp": 4506,
      "mun": 4507,
      "mum": 4508,
      "mus": 4509,
      "ny ": 4510,
      "non ": 4511,
      "nic": 4512,
      "ntr": 4513,
      "nah": 4514,
      "os": 4515,
      "oto": 4516,
      "pur": 4517,
      "pted ": 4518,
      "pack": 4519,
      "pray": 4520,
      "purposes ": 4521,
      "rack": 4522,
      "rington ": 4523,
      "ssi": 4524,
      "sco": 4525,
      "sky": 4526,
      "sold ": 4527,
      "sail": 4528,
      "saw": 4529,
      "satis": 4530,
      "sanctu": 4531,
      "tal": 4532,
      "tes ": 4533,
      "treas": 4534,
      "tamp": 4535,
      "t that the ": 4536,
      "us , ": 4537,
      "ue , ": 4538,
      "uck": 4539,
      "utive ": 4540,
      "uries ": 4541,
      "utili": 4542,
      "ving": 4543,
      "vint": 4544,
      "won the ": 4545,
      "will": 4546,
      "wide ": 4547,
      "weap": 4548,
      "weigh": 4549,
      "weapons ": 4550,
      "yc": 4551,
      "yel": 4552,
      "your": 4553,
      "yet ": 4554,
      "zz": 4555,
      "e , and ": 4556,
      "e @-@ ": 4557,
      "e , the ": 4558,
      "s on ": 4559,
      "s \" ": 4560,
      "s for the ": 4561,
      "s = = \n": 4562,
      "s about the ": 4563,
      "thy ": 4564,
      "thers ": 4565,
      "thor ": 4566,
      "those ": 4567,
      "th arkansas ": 4568,
      "in comm": 4569,
      "in char": 4570,
      "in all": 4571,
      "in any ": 4572,
      "ero": 4573,
      "err": 4574,
      "erved ": 4575,
      "erous ": 4576,
      "erry ": 4577,
      " thought ": 4578,
      " are": 4579,
      " a commerci": 4580,
      "ont": 4581,
      " the first ": 4582,
      " the blue jackets ": 4583,
      " the arsen": 4584,
      " the egyptians ": 4585,
      "t for": 4586,
      "t in the ": 4587,
      "t it ": 4588,
      "t ) ": 4589,
      "ed an ": 4590,
      "ed . \n": 4591,
      "ed in a": 4592,
      "ed their ": 4593,
      "ed cruis": 4594,
      "or c": 4595,
      "or , ": 4596,
      "ors , ": 4597,
      "ordin": 4598,
      "orrespon": 4599,
      "oracles ": 4600,
      "an a": 4601,
      "an , ": 4602,
      "en . ": 4603,
      "entim": 4604,
      "enjo": 4605,
      "enters ": 4606,
      "tici": 4607,
      "tized ": 4608,
      "arri": 4609,
      "ary and ": 4610,
      ", in ": 4611,
      ", including ": 4612,
      ", including the ": 4613,
      "of an ": 4614,
      "of arkansas ": 4615,
      "ales ": 4616,
      "allo": 4617,
      "alter": 4618,
      "als , ": 4619,
      "although": 4620,
      "alato ": 4621,
      "reti": 4622,
      "reli": 4623,
      "rets ": 4624,
      "reason ": 4625,
      "rejec": 4626,
      "reports ": 4627,
      "revolu": 4628,
      "ing as ": 4629,
      "ing al": 4630,
      "ing a s": 4631,
      ". to ": 4632,
      ". her ": 4633,
      ". in 19": 4634,
      ". cullen": 4635,
      "tom ": 4636,
      "to their": 4637,
      "town": 4638,
      "today ": 4639,
      "top ": 4640,
      "totten": 4641,
      "er of the ": 4642,
      "er . \n": 4643,
      "es \n": 4644,
      "es in ": 4645,
      "es = = \n": 4646,
      "stum": 4647,
      "stap": 4648,
      "stay": 4649,
      " an in": 4650,
      "atch": 4651,
      "on february ": 4652,
      " can": 4653,
      " cre": 4654,
      " c. ": 4655,
      " can ": 4656,
      " cap": 4657,
      " clas": 4658,
      " and to ": 4659,
      " so": 4660,
      " scor": 4661,
      " sms ": 4662,
      " since ": 4663,
      "lii ": 4664,
      "lieu": 4665,
      "lit . ": 4666,
      "as macarthur": 4667,
      "hic": 4668,
      "histic": 4669,
      "ing . the ": 4670,
      "del ": 4671,
      "dequ": 4672,
      "desc": 4673,
      "deep": 4674,
      "defe": 4675,
      "detail": 4676,
      "deth m": 4677,
      "a of ": 4678,
      "a , and ": 4679,
      "a . the ": 4680,
      "a , the ": 4681,
      "a ) , ": 4682,
      "righ": 4683,
      "river": 4684,
      "riatic": 4685,
      "in which ": 4686,
      "in myth": 4687,
      "in human ": 4688,
      "in june ": 4689,
      "in europ": 4690,
      "forward ": 4691,
      "for which": 4692,
      "act": 4693,
      "acted ": 4694,
      "action ": 4695,
      "access ": 4696,
      "of m": 4697,
      "of ma": 4698,
      "of deities ": 4699,
      "of four": 4700,
      "of egypt ": 4701,
      "of pope ": 4702,
      "to her ": 4703,
      "to pre": 4704,
      "to take ": 4705,
      "to become ": 4706,
      "to perform": 4707,
      "sized ": 4708,
      "sissi": 4709,
      "amed ": 4710,
      "amun": 4711,
      "am of ": 4712,
      "che": 4713,
      " , with the ": 4714,
      " we ": 4715,
      " win ": 4716,
      " wall": 4717,
      " way ": 4718,
      " war ": 4719,
      "disi": 4720,
      "dian ": 4721,
      "diag": 4722,
      "divided ": 4723,
      "dividu": 4724,
      "asp": 4725,
      "ass ": 4726,
      "asy ": 4727,
      " pap": 4728,
      " pain": 4729,
      "and f": 4730,
      "loom": 4731,
      "lost ": 4732,
      "load ": 4733,
      "lotter": 4734,
      "urb": 4735,
      "urfac": 4736,
      "of the divine ": 4737,
      "of the world ": 4738,
      "of the season ": 4739,
      "of the great ": 4740,
      "emoni": 4741,
      "good ": 4742,
      "ically ": 4743,
      "icao ": 4744,
      " mor": 4745,
      " mar": 4746,
      " m18": 4747,
      " m ( ": 4748,
      " m ) . ": 4749,
      "especi": 4750,
      "ly to ": 4751,
      "raham": 4752,
      "ector": 4753,
      "al to ": 4754,
      "at operations ": 4755,
      "at little rock ": 4756,
      "ital ": 4757,
      " ba": 4758,
      " bon": 4759,
      " bas": 4760,
      " ballo": 4761,
      "gho": 4762,
      ", and a ": 4763,
      ", and this ": 4764,
      "is to ": 4765,
      "ill ": 4766,
      "ilver ": 4767,
      " . it ": 4768,
      " . she was ": 4769,
      " . however ": 4770,
      "having ": 4771,
      "haps ": 4772,
      "with c": 4773,
      "ds of ": 4774,
      "islan": 4775,
      "@-@ game ": 4776,
      "@-@ up ": 4777,
      "@-@ giving ": 4778,
      "in the world ": 4779,
      "in the uk": 4780,
      "'s \" ": 4781,
      "lav": 4782,
      "not a": 4783,
      "ter and ": 4784,
      "terran": 4785,
      " fil": 4786,
      "besi": 4787,
      "being the ": 4788,
      "behavi": 4789,
      "leo ": 4790,
      "umed ": 4791,
      "ted a ": 4792,
      "making": 4793,
      "1930": 4794,
      "ent of ": 4795,
      "ent to ": 4796,
      "ent , and ": 4797,
      "sphere ": 4798,
      "ation . ": 4799,
      "ation , the ": 4800,
      "vid ": 4801,
      "via ": 4802,
      "vision": 4803,
      "were not ": 4804,
      "were also": 4805,
      ", ad": 4806,
      ", at ": 4807,
      ", app": 4808,
      "hosti": 4809,
      "<unk> were ": 4810,
      "versions ": 4811,
      "content ": 4812,
      "congress ": 4813,
      "\" in ": 4814,
      "extr": 4815,
      "ers in ": 4816,
      "ers in the ": 4817,
      "come ": 4818,
      "comes ": 4819,
      "competi": 4820,
      "it . \n": 4821,
      ", the egyptians ": 4822,
      "resc": 4823,
      "resemble ": 4824,
      "uss ": 4825,
      "uses ": 4826,
      "white ": 4827,
      "moves ": 4828,
      "recall": 4829,
      "recep": 4830,
      "ated as ": 4831,
      "ated in ": 4832,
      "ated . the ": 4833,
      "or of the ": 4834,
      "age , ": 4835,
      "ages of ": 4836,
      "gods . \n": 4837,
      " allow": 4838,
      "never": 4839,
      "abres ": 4840,
      "civil": 4841,
      "cidents ": 4842,
      "twice ": 4843,
      "twenty ": 4844,
      "ques": 4845,
      "quadron ": 4846,
      "ental ": 4847,
      "entation ": 4848,
      "duat ": 4849,
      "gives ": 4850,
      "word ": 4851,
      "words ": 4852,
      " that is ": 4853,
      "his brother ": 4854,
      " air traffic": 4855,
      "imals ": 4856,
      "imperi": 4857,
      "immedi": 4858,
      "strateg": 4859,
      "one day ": 4860,
      "parach": 4861,
      "progres": 4862,
      "process ": 4863,
      "problem": 4864,
      "tah": 4865,
      "taken": 4866,
      "ter 's ": 4867,
      "had the ": 4868,
      "shar": 4869,
      " = = descrip": 4870,
      " = = background ": 4871,
      ") , and ": 4872,
      "evol": 4873,
      "permitted ": 4874,
      "ifying ": 4875,
      "which came ": 4876,
      "upon ": 4877,
      "egypt , ": 4878,
      "mann": 4879,
      "@-@ and ": 4880,
      "@-@ class ": 4881,
      " actions ": 4882,
      " acting ": 4883,
      " active ": 4884,
      " accoun": 4885,
      " accidents ": 4886,
      "easi": 4887,
      "eaking ": 4888,
      "other mask": 4889,
      "184": 4890,
      "187": 4891,
      "1849": 4892,
      " connec": 4893,
      " consider": 4894,
      "th of the ": 4895,
      "th , and ": 4896,
      "ships were ": 4897,
      "bove the ": 4898,
      "scre": 4899,
      "for the final ": 4900,
      "for the playstation ": 4901,
      "teen": 4902,
      "forming ": 4903,
      "formal ": 4904,
      "lanta": 4905,
      "langu": 4906,
      " their f": 4907,
      "firm": 4908,
      "fired ": 4909,
      "deities . \n": 4910,
      "traw": 4911,
      "traditions ": 4912,
      "tenant ": 4913,
      "tenism ": 4914,
      "adly ": 4915,
      "addon ": 4916,
      "adriatic": 4917,
      "etch": 4918,
      "ety , ": 4919,
      "not be ": 4920,
      "epis": 4921,
      "eptember ": 4922,
      "turn ": 4923,
      "turkey ": 4924,
      "turrets ": 4925,
      " in ) acros": 4926,
      "guin": 4927,
      "guar": 4928,
      "guard ": 4929,
      "they are ": 4930,
      "off the ": 4931,
      "ga activities ": 4932,
      " with a ": 4933,
      "year ": 4934,
      "game . ": 4935,
      "game . \n": 4936,
      "has been": 4937,
      "ruce ": 4938,
      "fix": 4939,
      "whole ": 4940,
      "whose ": 4941,
      "who were ": 4942,
      "gros": 4943,
      "ground": 4944,
      "empire ": 4945,
      "common": 4946,
      "communic": 4947,
      "have been ": 4948,
      "feeding ": 4949,
      "med": 4950,
      "met ": 4951,
      "meteorolog": 4952,
      "senjo no valkyria ": 4953,
      "god was ": 4954,
      " in addition ": 4955,
      "cargo": 4956,
      " set ": 4957,
      "priest": 4958,
      "2012": 4959,
      "2011 , ": 4960,
      "2011 – ": 4961,
      "2014 , ": 4962,
      "grew": 4963,
      "teams ": 4964,
      "team of ": 4965,
      "biograph": 4966,
      "eful": 4967,
      "buildings ": 4968,
      " remain": 4969,
      " religi": 4970,
      "sion , ": 4971,
      "operate ": 4972,
      "operates ": 4973,
      " they were ": 4974,
      " they could ": 4975,
      "genus ": 4976,
      "pius ": 4977,
      "players ": 4978,
      " a sign": 4979,
      "might ": 4980,
      "phy": 4981,
      "presid": 4982,
      "predynastic": 4983,
      "predecess": 4984,
      "significant ": 4985,
      "able of ": 4986,
      "tion at the ": 4987,
      "selec": 4988,
      "selected ": 4989,
      "vener": 4990,
      "vention ": 4991,
      "venue ": 4992,
      "foot ": 4993,
      "head": 4994,
      "heavi": 4995,
      "mini": 4996,
      "minor ": 4997,
      "minut": 4998,
      " theme ": 4999,
      " them . ": 5000,
      "es . in ": 5001,
      "light a": 5002,
      "including s": 5003,
      " khan": 5004,
      "final s": 5005,
      "national p": 5006,
      "oden": 5007,
      "afety ": 5008,
      "aug": 5009,
      "augh": 5010,
      ", all": 5011,
      ", along with": 5012,
      "two @-@ ": 5013,
      "most popular": 5014,
      "transi": 5015,
      "names and ": 5016,
      "smith": 5017,
      "eridian ": 5018,
      "recording ": 5019,
      "sector": 5020,
      "only two": 5021,
      " aircraft noise ": 5022,
      "2 . the ": 5023,
      "chica": 5024,
      "chief ": 5025,
      " their own": 5026,
      "in 194": 5027,
      "in 195": 5028,
      "month ": 5029,
      "blues ": 5030,
      " at home ": 5031,
      "start of the ": 5032,
      "ung by ": 5033,
      "overall ": 5034,
      "ga flights ": 5035,
      "ting to ": 5036,
      " adap": 5037,
      " hour": 5038,
      " among": 5039,
      "ings to ": 5040,
      "<unk> , who": 5041,
      "157": 5042,
      "151 ": 5043,
      "must ": 5044,
      "placed ": 5045,
      "stanti": 5046,
      " carri": 5047,
      " played ": 5048,
      " playing ": 5049,
      "cause ": 5050,
      "gunboat ": 5051,
      " authori": 5052,
      " coins ": 5053,
      " person ": 5054,
      "gold co": 5055,
      "renew": 5056,
      "renamed ": 5057,
      "in size ": 5058,
      " assign": 5059,
      "old kingdom": 5060,
      "compon": 5061,
      "highly ": 5062,
      " ) . \n": 5063,
      "northern": 5064,
      " arms ": 5065,
      "officers and ": 5066,
      "lint ": 5067,
      "son , ": 5068,
      "1863": 5069,
      "edy ": 5070,
      "fundam": 5071,
      "oglyp": 5072,
      " worship": 5073,
      "denied ": 5074,
      "surve": 5075,
      "1997": 5076,
      " communic": 5077,
      "3 : ": 5078,
      "over to the ": 5079,
      "indian ": 5080,
      "al succ": 5081,
      "released in ": 5082,
      "release of ": 5083,
      " manifestations ": 5084,
      "ck & b": 5085,
      "dollar ": 5086,
      "of creation ": 5087,
      "royal ": 5088,
      "national hockey league ": 5089,
      "horn": 5090,
      "losure ": 5091,
      "made of ": 5092,
      "which he ": 5093,
      "fernandez has ": 5094,
      "broke ": 5095,
      "brothers ": 5096,
      "disrup": 5097,
      "building was ": 5098,
      "based on the ": 5099,
      "eased ": 5100,
      "king 's ": 5101,
      "nile ": 5102,
      "popular ": 5103,
      "of a deity ": 5104,
      "darc": 5105,
      "match": 5106,
      "victory ": 5107,
      "logist ": 5108,
      " featur": 5109,
      "regulatory ": 5110,
      "10 @,@ ": 5111,
      "drons ": 5112,
      "march": 5113,
      "mark ": 5114,
      "annu": 5115,
      "anner ": 5116,
      "regions ": 5117,
      "life . ": 5118,
      "decline ": 5119,
      "chose ": 5120,
      "may have ": 5121,
      "number one ": 5122,
      ". this species ": 5123,
      "miss universe ": 5124,
      "themselves ": 5125,
      "remained the ": 5126,
      "remainder of the ": 5127,
      "issued ": 5128,
      "poss": 5129,
      "possible ": 5130,
      "periodic": 5131,
      "egyptian beli": 5132,
      "penetr": 5133,
      "deity 's ": 5134,
      "sions , ": 5135,
      "sions relat": 5136,
      " . these ": 5137,
      "heli": 5138,
      " particular": 5139,
      " move ": 5140,
      "certific": 5141,
      "limb": 5142,
      "limit": 5143,
      "described ": 5144,
      "described as ": 5145,
      " buck & b": 5146,
      "increased ": 5147,
      "development of ": 5148,
      "13 – ": 5149,
      "through ": 5150,
      "throughout ": 5151,
      "throughout the ": 5152,
      "season . \n": 5153,
      " appeared ": 5154,
      " appearanc": 5155,
      "each other ": 5156,
      "calyp": 5157,
      "calamity ": 5158,
      "him the ": 5159,
      "structions ": 5160,
      "zrinyi ": 5161,
      "curtis ": 5162,
      "capable of ": 5163,
      "draft of ": 5164,
      "listed ": 5165,
      "listen ": 5166,
      " much": 5167,
      " much ": 5168,
      "officially ": 5169,
      "winning ": 5170,
      "window ": 5171,
      "women ": 5172,
      "responsible ": 5173,
      "form of ": 5174,
      "goals and ": 5175,
      "largely ": 5176,
      "23 , ": 5177,
      "23 \n": 5178,
      "centuries ": 5179,
      "involving ": 5180,
      "leadeth m": 5181,
      "other and ": 5182,
      "point ": 5183,
      "personnel": 5184,
      "human world ": 5185,
      ", then ": 5186,
      "1 @.@ 5": 5187,
      "1 @.@ 8": 5188,
      "henry ": 5189,
      "treat": 5190,
      "antasy ": 5191,
      "subjec": 5192,
      "belo": 5193,
      "lesh": 5194,
      "resulting ": 5195,
      "result , ": 5196,
      "when he ": 5197,
      "life @-@ giving ": 5198,
      "bury ": 5199,
      "mallory ": 5200,
      "ensemble ": 5201,
      "refer ": 5202,
      "street ": 5203,
      "streak ": 5204,
      "st. louis ": 5205,
      " second ": 5206,
      " seconds ": 5207,
      "rifle ": 5208,
      "year , $ ": 5209,
      "nature of the ": 5210,
      "occa": 5211,
      "occup": 5212,
      "shif": 5213,
      "waldrons ": 5214,
      "rements ": 5215,
      " arka": 5216,
      "gambia 's ": 5217,
      "represented the ": 5218,
      "close ": 5219,
      "dahau": 5220,
      "david ": 5221,
      "every ": 5222,
      "that a ": 5223,
      "storrington ": 5224,
      " critical ": 5225,
      "laboratory ": 5226,
      "outside the ": 5227,
      "gold dollar was ": 5228,
      "basi": 5229,
      "basic": 5230,
      "g. carbonari": 5231,
      "gallian army ": 5232,
      "in 2007": 5233,
      "discus": 5234,
      "extensive ": 5235,
      "qualified ": 5236,
      "valkyria of the battlefield ": 5237,
      "fifth ": 5238,
      "type ": 5239,
      "types of ": 5240,
      "instrumentation ": 5241,
      "an ship": 5242,
      "of the year . ": 5243,
      " barker 's ": 5244,
      " ft )": 5245,
      " commercial operations ": 5246,
      "pattern": 5247,
      "slayer 's ": 5248,
      "television ": 5249,
      "entific": 5250,
      "engine": 5251,
      "armland ": 5252,
      "determine ": 5253,
      "earliest ": 5254,
      "examples ": 5255,
      "excluded ": 5256,
      "guitar ": 5257,
      "included the ": 5258,
      "becoming ": 5259,
      "surrounding ": 5260,
      "members of the ": 5261,
      "images ": 5262,
      ". although ": 5263,
      "ew of the ": 5264,
      "nubia ": 5265,
      "plan ": 5266,
      "stood ": 5267,
      "soldiers ": 5268,
      "in ancient ": 5269,
      " a min": 5270,
      "urpose ": 5271,
      "emerged ": 5272,
      "that he had ": 5273,
      "books ": 5274,
      "meaning ": 5275,
      "located in ": 5276,
      "helped ": 5277,
      "hymn": 5278,
      "initially ": 5279,
      "osiris ": 5280,
      "classi": 5281,
      "dougl": 5282,
      "falc": 5283,
      "microlights ": 5284,
      "rules ": 5285,
      "learn": 5286,
      "postcards ": 5287,
      " interview": 5288,
      "2013 , ": 5289,
      "after the ": 5290,
      "indicated ": 5291,
      "n @-@ 88 ": 5292,
      "successful": 5293,
      "destroyed ": 5294,
      "definition , ": 5295,
      "business jets ": 5296,
      "500 ": 5297,
      "ballo": 5298,
      "fingal was ": 5299,
      "heard ": 5300,
      "precious ": 5301,
      "paintings ": 5302,
      "rush": 5303,
      "targ": 5304,
      "uccess": 5305,
      "return ": 5306,
      "richard ": 5307,
      "foreign": 5308,
      " pilots ": 5309,
      "economic": 5310,
      "1960": 5311,
      "video": 5312,
      " across the ": 5313,
      " combinations ": 5314,
      " known": 5315,
      " knots ( ": 5316,
      "sms bres": 5317,
      " authorities ": 5318,
      " counter": 5319,
      "federal troops ": 5320,
      "days later ": 5321,
      "friends ": 5322,
      "sundi": 5323,
      " called the ": 5324,
      "to provide ": 5325,
      "division of the ": 5326,
      "taxonom": 5327,
      " actress ": 5328,
      " complex": 5329,
      " kg )": 5330,
      " personal ": 5331,
      "highway system": 5332,
      "al pilots ": 5333,
      "al pilot lic": 5334,
      "losing streak": 5335,
      " attempted to ": 5336,
      "occurred ": 5337,
      " became the ": 5338,
      "european ": 5339,
      ". thus ": 5340,
      "den expedition ": 5341,
      "flag": 5342,
      "museum of ": 5343,
      "ning system": 5344,
      "princip": 5345,
      "sorb": 5346,
      "shown ": 5347,
      "will ": 5348,
      "situations ": 5349,
      "estival": 5350,
      "ession of the ": 5351,
      " flying ": 5352,
      "makes ": 5353,
      "spring ": 5354,
      "expressed ": 5355,
      "mounted ": 5356,
      "management ": 5357,
      "denomination ": 5358,
      "helicopter ": 5359,
      "helicopters ": 5360,
      "resulted in ": 5361,
      "bulloch": 5362,
      "bulloch ": 5363,
      " @-@ pound ( ": 5364,
      ".s.": 5365,
      "education ": 5366,
      "famili": 5367,
      "jeff carter ": 5368,
      "sburg": 5369,
      "tempor": 5370,
      "wisniewsk": 5371,
      "ximately ": 5372,
      "straight ": 5373,
      "hieroglyp": 5374,
      "fortun": 5375,
      "diameter ": 5376,
      "diverse ": 5377,
      " battle ": 5378,
      "'s , pitla": 5379,
      "queen": 5380,
      "quarters ": 5381,
      "strong growth ": 5382,
      "epithets ": 5383,
      "series . ": 5384,
      "greek": 5385,
      "secretary ": 5386,
      "lintlock": 5387,
      " major ": 5388,
      "entry draft ": 5389,
      "rituals were ": 5390,
      "housefull ": 5391,
      "organization ": 5392,
      "scholars have ": 5393,
      "western": 5394,
      "light aircraft association ": 5395,
      "demonstrated ": 5396,
      "lord ": 5397,
      "tattnall": 5398,
      " thriller ": 5399,
      "stained g": 5400,
      " weeks ": 5401,
      " miles ( ": 5402,
      " m ) long": 5403,
      "above ": 5404,
      "worshipp": 5405,
      "imilar": 5406,
      "bottom ": 5407,
      "preserv": 5408,
      "measure ": 5409,
      " region": 5410,
      "in areas ": 5411,
      "montenegro": 5412,
      "cancer ": 5413,
      "syncre": 5414,
      "written by ": 5415,
      "defenseman ": 5416,
      "st. edmund 's , pitla": 5417,
      "kindergarten": 5418,
      "in contrast , ": 5419,
      "later that year , she ": 5420,
      "favorite ": 5421,
      "dorothy barker ": 5422,
      "environment": 5423,
      "camden expedition ": 5424,
      "cessna ": 5425,
      "flower fairy ": 5426,
      "failed to ": 5427,
      "gasar ": 5428,
      "sophistic": 5429,
      "yotes ": 5430,
      "rookie ": 5431,
      "robert ": 5432,
      "devolved ": 5433,
      "radetz": 5434,
      " break": 5435,
      " female ": 5436,
      ", amateur buil": 5437,
      "egetth": 5438,
      "processions ": 5439,
      "cosmos ": 5440,
      "egyptologist ": 5441,
      "manufacture ": 5442,
      " continu": 5443,
      "ferred to the ": 5444,
      "valuable ": 5445,
      "akimoto ": 5446,
      " behind the ": 5447,
      "therefore ": 5448,
      "requirements ": 5449,
      "to create ": 5450,
      "hindman ": 5451,
      "photograph": 5452,
      "in collaboration with ": 5453,
      "eliminated ": 5454,
      "gregorian tower ": 5455,
      "long tons ( ": 5456,
      "aerial work": 5457,
      "brindisi": 5458,
      "croydon": 5459,
      "daily ": 5460,
      "iifa a": 5461,
      "nahant ": 5462,
      "tampa ": 5463,
      "vintage ": 5464,
      "staples ": 5465,
      "lieutenant ": 5466,
      "lit . valkyria of the battlefield ": 5467,
      "dequate ": 5468,
      "sissipp": 5469,
      "diagno": 5470,
      "especially ": 5471,
      "leo xii": 5472,
      "extra ": 5473,
      "imperial ": 5474,
      "groundsel": 5475,
      "2011 – 12": 5476,
      "chicago": 5477,
      "chief engraver ": 5478,
      "egyptian belief": 5479,
      "douglas macarthur": 5480,
      "sms breslau": 5481,
      "stained glass ": 5482,
      "sophisticated ": 5483,
      " ;": 5484,
      " di": 5485,
      " le": 5486,
      " or ": 5487,
      " one ": 5488,
      " , and the ": 5489,
      " two": 5490,
      " games ": 5491,
      " jam": 5492,
      " during ": 5493,
      " years ": 5494,
      " green": 5495,
      " ( c . ": 5496,
      "! ": 5497,
      "\" a ": 5498,
      "\" ch": 5499,
      "\" there ": 5500,
      "' first ": 5501,
      "( play": 5502,
      ", there ": 5503,
      ". all": 5504,
      ". after": 5505,
      ".vision ": 5506,
      ". they are ": 5507,
      "0 ": 5508,
      "0 m": 5509,
      "1st ": 5510,
      "11 ": 5511,
      "1 @,@ 000": 5512,
      "13 ": 5513,
      "110": 5514,
      "2 . ": 5515,
      "28 ": 5516,
      "2nd ": 5517,
      "39": 5518,
      "3 \n": 5519,
      "3100": 5520,
      "422": 5521,
      "54": 5522,
      "59": 5523,
      "77": 5524,
      "700": 5525,
      "84": 5526,
      "8 – ": 5527,
      "8 \n": 5528,
      "91": 5529,
      "900": 5530,
      "; m": 5531,
      "; re": 5532,
      "a that ": 5533,
      "apro": 5534,
      "a se": 5535,
      "a car": 5536,
      "a at the ": 5537,
      "ault ": 5538,
      "a controlled airspace ": 5539,
      "ajid ": 5540,
      "adequate ": 5541,
      "a.vision ": 5542,
      "bas ": 5543,
      "bat ": 5544,
      "bay ": 5545,
      "bark": 5546,
      "bay": 5547,
      "bought ": 5548,
      "bahra": 5549,
      "c. ": 5550,
      "cou": 5551,
      "cit": 5552,
      "cis ": 5553,
      "clay": 5554,
      "care ": 5555,
      "cused ": 5556,
      "city of ": 5557,
      "center": 5558,
      "dv": 5559,
      "das": 5560,
      "dly ": 5561,
      "dent": 5562,
      "dang": 5563,
      "dwell ": 5564,
      "dney ": 5565,
      "dtv": 5566,
      "dahl": 5567,
      "daugh": 5568,
      "ee ": 5569,
      "e. ": 5570,
      "etic": 5571,
      "ey and ": 5572,
      "eer , ": 5573,
      "elit": 5574,
      "eback": 5575,
      "fon": 5576,
      "fer ": 5577,
      "fec": 5578,
      "fit ": 5579,
      "fres": 5580,
      "fren": 5581,
      "fy the ": 5582,
      "fast ": 5583,
      "ffal": 5584,
      "f.com": 5585,
      "fantasy ": 5586,
      "festival": 5587,
      "gon ": 5588,
      "g , ": 5589,
      "gum": 5590,
      "gers ": 5591,
      "gn @-@ ": 5592,
      "gray": 5593,
      "hu": 5594,
      "hs ": 5595,
      "ha ": 5596,
      "hand ": 5597,
      "hori": 5598,
      "hash": 5599,
      "ig": 5600,
      "ik": 5601,
      "i and ": 5602,
      "ia ": 5603,
      "igh": 5604,
      "ids ": 5605,
      "ible ": 5606,
      "ja": 5607,
      "jen": 5608,
      "jou": 5609,
      "jes": 5610,
      "jan ": 5611,
      "jar ": 5612,
      "jet ": 5613,
      "kn": 5614,
      "kar": 5615,
      "kin ": 5616,
      "kit": 5617,
      "kum": 5618,
      "kate ": 5619,
      "kin c": 5620,
      "kesp": 5621,
      "lon": 5622,
      "l , ": 5623,
      "la @-@ ": 5624,
      "m. ": 5625,
      "mas ": 5626,
      "m . ": 5627,
      "men ": 5628,
      "mit ": 5629,
      "mits ": 5630,
      "met": 5631,
      "memp": 5632,
      "m wide ": 5633,
      "mother and ": 5634,
      "nin": 5635,
      "non": 5636,
      "nou": 5637,
      "npp": 5638,
      "none ": 5639,
      "ndtv": 5640,
      "o s": 5641,
      "ott": 5642,
      "oke ": 5643,
      "otry": 5644,
      "otrophic": 5645,
      "ps": 5646,
      "pu": 5647,
      "py": 5648,
      "pon": 5649,
      "pt ": 5650,
      "plu": 5651,
      "pine ": 5652,
      "pher ": 5653,
      "ply": 5654,
      "plat": 5655,
      "pell": 5656,
      "pace ": 5657,
      "pty": 5658,
      "ptah": 5659,
      "purpose ": 5660,
      "rof": 5661,
      "ring": 5662,
      "ring ": 5663,
      "rand ": 5664,
      "rate ": 5665,
      "rated ": 5666,
      "re , ": 5667,
      "rhy": 5668,
      "rash": 5669,
      "rying ": 5670,
      "ss": 5671,
      "sz": 5672,
      "ser ": 5673,
      "sal ": 5674,
      "sons ": 5675,
      "seg": 5676,
      "sent": 5677,
      "sure ": 5678,
      "south ": 5679,
      "says ": 5680,
      "tl": 5681,
      "t th": 5682,
      "tac": 5683,
      "tag": 5684,
      "test ": 5685,
      "tuni": 5686,
      "tell": 5687,
      "t aircraft ": 5688,
      "tgun": 5689,
      "task": 5690,
      "tsbur": 5691,
      "tegetth": 5692,
      "u ": 5693,
      "uj": 5694,
      "uel": 5695,
      "uter": 5696,
      "ught ": 5697,
      "u @-@ ": 5698,
      "uthori": 5699,
      "var": 5700,
      "vag": 5701,
      "vent": 5702,
      "ved the ": 5703,
      "vinc": 5704,
      "ves . ": 5705,
      "vey ": 5706,
      "vill": 5707,
      "vail": 5708,
      "wy": 5709,
      "wear": 5710,
      "wise ": 5711,
      "willi": 5712,
      "wasn 't ": 5713,
      "yl": 5714,
      "yar": 5715,
      "yati": 5716,
      "y as ": 5717,
      "yet": 5718,
      "y at the ": 5719,
      "ylin": 5720,
      "y armam": 5721,
      "zer": 5722,
      "zation ": 5723,
      "zed the ": 5724,
      "zure ": 5725,
      "zaw": 5726,
      "ziz": 5727,
      "– w": 5728,
      "— were ": 5729,
      "₹ ": 5730,
      "のウ": 5731,
      "ァル": 5732,
      "キュ": 5733,
      "リア": 5734,
      "場のウ": 5735,
      "戦場のウ": 5736,
      "e to ": 5737,
      "e ) ": 5738,
      "e river ": 5739,
      "s ti": 5740,
      "s a ": 5741,
      "s con": 5742,
      "s that ": 5743,
      "s from the ": 5744,
      "tho": 5745,
      "thum": 5746,
      "thm ": 5747,
      "thus ": 5748,
      "threat": 5749,
      "thouse ": 5750,
      "d the ": 5751,
      "ink": 5752,
      "ines ": 5753,
      "inch": 5754,
      "inity ": 5755,
      "iness ": 5756,
      "inence ": 5757,
      "inely ": 5758,
      "inside ": 5759,
      "instruc": 5760,
      "inforc": 5761,
      "inhab": 5762,
      "inner ": 5763,
      "in sever": 5764,
      "inhabit": 5765,
      "erc": 5766,
      "eras ": 5767,
      "eras": 5768,
      "erce ": 5769,
      "er than": 5770,
      " though": 5771,
      " thous": 5772,
      " ap": 5773,
      " a p": 5774,
      " a b": 5775,
      " a con": 5776,
      " awar": 5777,
      " aray": 5778,
      " award ": 5779,
      " aground ": 5780,
      " against the ": 5781,
      " average ": 5782,
      " april ": 5783,
      "onth ": 5784,
      "on their": 5785,
      "ones . ": 5786,
      " the ship": 5787,
      " the game ": 5788,
      " the inter": 5789,
      " the tower ": 5790,
      " the gods were ": 5791,
      " the plain maskray ": 5792,
      " the waldrons ": 5793,
      "t @-@ ": 5794,
      "t on the ": 5795,
      "ed at ": 5796,
      "ed @-@ ": 5797,
      "ed to c": 5798,
      "ed cullen ": 5799,
      "oran": 5800,
      "or an": 5801,
      "or was ": 5802,
      "ors and ": 5803,
      "or with": 5804,
      "orous ": 5805,
      "or more ": 5806,
      "ano": 5807,
      "an an": 5808,
      "anch": 5809,
      "anci": 5810,
      "ans and ": 5811,
      "antry ": 5812,
      "announc": 5813,
      "an assistant coach": 5814,
      "en , ": 5815,
      "enne": 5816,
      "enses ": 5817,
      "en beg": 5818,
      "envision": 5819,
      "enlisted ": 5820,
      "tile ": 5821,
      "tice ": 5822,
      "tied to ": 5823,
      "tifi": 5824,
      "till ": 5825,
      "y of the ": 5826,
      "y 's ": 5827,
      "art ": 5828,
      "ards ": 5829,
      "archi": 5830,
      "arently ": 5831,
      ", to ": 5832,
      ", is ": 5833,
      ", were ": 5834,
      ", su": 5835,
      ", had ": 5836,
      ", with the ": 5837,
      ", represent": 5838,
      "of at": 5839,
      "alm": 5840,
      "al w": 5841,
      "al as ": 5842,
      "alty ": 5843,
      "rep": 5844,
      "resi": 5845,
      "really ": 5846,
      "repe": 5847,
      "recomm": 5848,
      "remain ": 5849,
      "remix": 5850,
      "reform the ": 5851,
      "referred to ": 5852,
      "reinforc": 5853,
      "ing career ": 5854,
      ". by ": 5855,
      ". its ": 5856,
      ". during the ": 5857,
      ". barker ": 5858,
      ". each ": 5859,
      ". horus ": 5860,
      ". \" the ": 5861,
      ". when the ": 5862,
      ". because ": 5863,
      ". fernandez ": 5864,
      ". webb": 5865,
      "tool": 5866,
      "told ": 5867,
      "to these ": 5868,
      "toms ": 5869,
      "to any ": 5870,
      "tolem": 5871,
      "tower": 5872,
      "to ass": 5873,
      "es of": 5874,
      "es ; ": 5875,
      "roy ": 5876,
      "rose ": 5877,
      "rock": 5878,
      "rott ": 5879,
      "st and ": 5880,
      "sts and ": 5881,
      "store ": 5882,
      "stings ": 5883,
      "sted , ": 5884,
      "stro @-@ hungari": 5885,
      "stages of ": 5886,
      "stmas ": 5887,
      " annu": 5888,
      " anthrop": 5889,
      " announc": 5890,
      " analy": 5891,
      " an aircraft operation ": 5892,
      "at an": 5893,
      "at a ": 5894,
      "ats and ": 5895,
      "ature ": 5896,
      "ators ": 5897,
      "on november ": 5898,
      "on march ": 5899,
      "undi": 5900,
      "unding ": 5901,
      "unlock": 5902,
      "unlimited ": 5903,
      "unified ": 5904,
      "unlicensed ": 5905,
      " cal ": 5906,
      " cla": 5907,
      " cover": 5908,
      " camp": 5909,
      " sk": 5910,
      " sha": 5911,
      " sim": 5912,
      " so ": 5913,
      " sav": 5914,
      " show": 5915,
      " says ": 5916,
      " single ": 5917,
      " sports ": 5918,
      " small": 5919,
      " shap": 5920,
      " speci": 5921,
      "life": 5922,
      "lian cal": 5923,
      "hibi": 5924,
      "hire ": 5925,
      "hildren": 5926,
      "hie river ": 5927,
      "ing , and ": 5928,
      "ing up": 5929,
      "dev": 5930,
      "deem": 5931,
      "deal ": 5932,
      "dest ": 5933,
      "delay": 5934,
      "deck": 5935,
      "detro": 5936,
      "dell": 5937,
      "destitu": 5938,
      "a god ": 5939,
      "a gold ": 5940,
      "a part of the ": 5941,
      "rit": 5942,
      "riel": 5943,
      "rish": 5944,
      "right ": 5945,
      "in ma": 5946,
      "in early ": 5947,
      "in use ": 5948,
      "in later ": 5949,
      "in 2010": 5950,
      "in february ": 5951,
      "for an": 5952,
      "for c": 5953,
      "for con": 5954,
      "for this ": 5955,
      "for ad": 5956,
      "forni": 5957,
      "for all ": 5958,
      "for more ": 5959,
      "for many ": 5960,
      "for both": 5961,
      "ouver ": 5962,
      "accoun": 5963,
      "acros": 5964,
      "acmil": 5965,
      "according ": 5966,
      "of 4": 5967,
      "of many ": 5968,
      "of ed": 5969,
      "of each ": 5970,
      "of maat ": 5971,
      "of easa ": 5972,
      "of \" south of heaven ": 5973,
      "to his ": 5974,
      "to do": 5975,
      "to represent": 5976,
      "to trade ": 5977,
      "to finish": 5978,
      "to build ": 5979,
      "to purchase ": 5980,
      "the ship": 5981,
      "the time ": 5982,
      "the gods '": 5983,
      "the spir": 5984,
      "sia ": 5985,
      "site ": 5986,
      "among": 5987,
      "amun ": 5988,
      "amoun": 5989,
      "amuel": 5990,
      "amorous ": 5991,
      "omor": 5992,
      "oming ": 5993,
      "ch and ": 5994,
      "chall": 5995,
      "chest": 5996,
      "chann": 5997,
      "chedul": 5998,
      "chtl": 5999,
      "eling ": 6000,
      " , were ": 6001,
      " , with ": 6002,
      " , such as ": 6003,
      " , when": 6004,
      " , but the ": 6005,
      " , georgia ": 6006,
      "atible ": 6007,
      " wo": 6008,
      " wish": 6009,
      "did": 6010,
      "diad": 6011,
      "died in ": 6012,
      "dica": 6013,
      "assed ": 6014,
      "aspec": 6015,
      "ts a ": 6016,
      "ts at the ": 6017,
      " pac": 6018,
      " prom": 6019,
      " prac": 6020,
      " phar": 6021,
      " public": 6022,
      "and other ": 6023,
      "and its ": 6024,
      "and her sisters ": 6025,
      "lot ": 6026,
      "loy ": 6027,
      "logen": 6028,
      "loven": 6029,
      "loaded ": 6030,
      "urt ": 6031,
      "urrec": 6032,
      "urder ": 6033,
      "of the win": 6034,
      "of the alli": 6035,
      "of the temple ": 6036,
      "of the gods , ": 6037,
      "emo": 6038,
      "ember": 6039,
      "eman s": 6040,
      "le and ": 6041,
      "le in the ": 6042,
      "goti": 6043,
      "gosp": 6044,
      "goeb": 6045,
      "ici": 6046,
      "ical": 6047,
      "ic p": 6048,
      "ical and ": 6049,
      " mal": 6050,
      " mall": 6051,
      " mary ": 6052,
      " mili": 6053,
      " multi": 6054,
      " m ) and ": 6055,
      "essed ": 6056,
      "escap": 6057,
      "rage ": 6058,
      "rapi": 6059,
      "raphi": 6060,
      "raven ": 6061,
      "econd ": 6062,
      "al of ": 6063,
      "al to the ": 6064,
      "al form": 6065,
      "ity": 6066,
      "itsu": 6067,
      "it as ": 6068,
      "was injur": 6069,
      "was carried out ": 6070,
      " bus": 6071,
      " best ": 6072,
      " back ": 6073,
      " benef": 6074,
      " brought ": 6075,
      "gh pen": 6076,
      ", and her ": 6077,
      "is also": 6078,
      "older ": 6079,
      "oldiers ": 6080,
      "ollywood ": 6081,
      "ulace ": 6082,
      "il ": 6083,
      "ilent ": 6084,
      " . its ": 6085,
      " . because ": 6086,
      "having the ": 6087,
      "hathor ": 6088,
      "with m": 6089,
      "with a s": 6090,
      "with their ": 6091,
      "an 's ": 6092,
      "an under @-@ ": 6093,
      "but a": 6094,
      "island ": 6095,
      "@-@ li": 6096,
      "@-@ five ": 6097,
      "in the same ": 6098,
      "in the 198": 6099,
      "in the country ": 6100,
      "in the sky ": 6101,
      "in the adriatic": 6102,
      "'s c": 6103,
      "lad": 6104,
      "lap": 6105,
      "lay , ": 6106,
      ". the gods ": 6107,
      ". the ship": 6108,
      ". the team": 6109,
      ". the new": 6110,
      ". the song": 6111,
      ". the caa ": 6112,
      "no.": 6113,
      "noting ": 6114,
      "opo": 6115,
      "opy ": 6116,
      "opport": 6117,
      " fun": 6118,
      " fif": 6119,
      " fruit": 6120,
      " family ": 6121,
      " fuj": 6122,
      "ve mason ": 6123,
      "he leadeth m": 6124,
      "bear": 6125,
      "better ": 6126,
      "beam of ": 6127,
      "bechtl": 6128,
      "lef": 6129,
      "let ": 6130,
      "lean": 6131,
      "leaf": 6132,
      "letter ": 6133,
      "ump": 6134,
      "ume ": 6135,
      "umstan": 6136,
      "umber": 6137,
      "umbia ": 6138,
      "ummary ": 6139,
      "umbai": 6140,
      "ted on ": 6141,
      "ted as ": 6142,
      "ted and ": 6143,
      "ted by the ": 6144,
      "ted into ": 6145,
      "en of ": 6146,
      "en , and ": 6147,
      "mag": 6148,
      "map ": 6149,
      "magaz": 6150,
      "197": 6151,
      "1919": 6152,
      "1988": 6153,
      "1940": 6154,
      "1911": 6155,
      "1970": 6156,
      "ons and ": 6157,
      "ent of the ": 6158,
      "ent ist": 6159,
      "spent": 6160,
      "spap": 6161,
      "sport ": 6162,
      "spee": 6163,
      "space , ": 6164,
      "ation was ": 6165,
      "ation or ": 6166,
      "viol": 6167,
      "viable ": 6168,
      "visions ": 6169,
      "visible ": 6170,
      "were re": 6171,
      "were no": 6172,
      ", at the ": 6173,
      "earth": 6174,
      "eare 's ": 6175,
      "hosp": 6176,
      "host ": 6177,
      "<unk> the ": 6178,
      "vertic": 6179,
      "vertical ": 6180,
      "conf": 6181,
      "contra": 6182,
      "constan": 6183,
      "concer": 6184,
      "consequ": 6185,
      "\" for": 6186,
      "\" god ": 6187,
      "\" one of the ": 6188,
      "l / ": 6189,
      "sup": 6190,
      "superi": 6191,
      " a little ": 6192,
      "exter": 6193,
      "exist ": 6194,
      "extent ": 6195,
      "exchange ": 6196,
      "exhib": 6197,
      "poor": 6198,
      "pover": 6199,
      "pose ": 6200,
      "powers ": 6201,
      " as he ": 6202,
      " as they were ": 6203,
      " as brindisi": 6204,
      "ers , and ": 6205,
      "coming ": 6206,
      "compar": 6207,
      "competition ": 6208,
      "( i": 6209,
      "( us ": 6210,
      "it \" ": 6211,
      "it red ": 6212,
      "it would be ": 6213,
      "it wasn 't ": 6214,
      ", the co": 6215,
      ", the tower building ": 6216,
      "tion in the ": 6217,
      "tion . the ": 6218,
      "tion . \n": 6219,
      "resses ": 6220,
      "reserve ": 6221,
      "resurrec": 6222,
      "ush": 6223,
      "used in ": 6224,
      "use . ": 6225,
      "used in the ": 6226,
      "used as a ": 6227,
      "tru": 6228,
      "trac": 6229,
      " they": 6230,
      "whitish": 6231,
      " was not ": 6232,
      " was bor": 6233,
      "from s": 6234,
      "from a ": 6235,
      "from which": 6236,
      "mobili": 6237,
      "model ": 6238,
      "recent ": 6239,
      "rector": 6240,
      "recyc": 6241,
      "ated in the ": 6242,
      "so ": 6243,
      "soon": 6244,
      "so that ": 6245,
      "sound": 6246,
      "so they could ": 6247,
      "or \" ": 6248,
      "agli": 6249,
      "agree ": 6250,
      "aggres": 6251,
      " argu": 6252,
      " arran": 6253,
      "gods could ": 6254,
      "ney": 6255,
      "network ": 6256,
      "neotry": 6257,
      "negoti": 6258,
      "to the per": 6259,
      "to the first ": 6260,
      "to the apo": 6261,
      "abric": 6262,
      "absorb": 6263,
      "cial ": 6264,
      "cience ": 6265,
      "ties , ": 6266,
      "sea": 6267,
      "sea ": 6268,
      "seem": 6269,
      "sett": 6270,
      "seph": 6271,
      "set a": 6272,
      "set , ": 6273,
      "seven ": 6274,
      "qui": 6275,
      "quick": 6276,
      "layers of ": 6277,
      "enter ": 6278,
      "duties ": 6279,
      "duff": 6280,
      "n on ": 6281,
      "n . the ": 6282,
      "s , were ": 6283,
      "s , 1930": 6284,
      "ally and ": 6285,
      "his next ": 6286,
      "his mother ": 6287,
      "his contract ": 6288,
      "his wife ": 6289,
      " airline ": 6290,
      " airport ": 6291,
      " airworthin": 6292,
      "impres": 6293,
      "string ": 6294,
      "stration ": 6295,
      "streng": 6296,
      "one in the ": 6297,
      "park": 6298,
      "park ": 6299,
      "parents ": 6300,
      "particular ": 6301,
      "parrott ": 6302,
      "projec": 6303,
      "project ": 6304,
      "probably ": 6305,
      "tast": 6306,
      "taught ": 6307,
      "ter , ": 6308,
      "shr": 6309,
      "shell": 6310,
      "short": 6311,
      "cot": 6312,
      "coin": 6313,
      "cobr": 6314,
      "coexist": 6315,
      "costum": 6316,
      " = = early ": 6317,
      ") ;": 6318,
      ") for the ": 6319,
      ") ; blackie , 19": 6320,
      "event ": 6321,
      "ev mas": 6322,
      "person ": 6323,
      "o @-@ ": 6324,
      "o <unk> ": 6325,
      "o 151 ": 6326,
      "upon": 6327,
      "upon the ": 6328,
      "manifest": 6329,
      "manifestations ": 6330,
      "man ship": 6331,
      "are the ": 6332,
      "@-@ p": 6333,
      "@-@ season ": 6334,
      "@-@ produc": 6335,
      "@-@ playing ": 6336,
      "ding nash": 6337,
      "les and ": 6338,
      "that she ": 6339,
      " accep": 6340,
      " acting": 6341,
      "ities , ": 6342,
      "ed the game ": 6343,
      "lowest ": 6344,
      "east": 6345,
      "for her ": 6346,
      "for recreation": 6347,
      "ported ": 6348,
      "18 , ": 6349,
      " concep": 6350,
      " conclu": 6351,
      " contact ": 6352,
      "its range ": 6353,
      "its gameplay ": 6354,
      "its current ": 6355,
      "bow and ": 6356,
      "boston ": 6357,
      "scen": 6358,
      "for the society ": 6359,
      "for the first time ": 6360,
      "for the preserv": 6361,
      "tech": 6362,
      "what": 6363,
      "whom": 6364,
      "ed to with": 6365,
      "ed to take ": 6366,
      "ations , ": 6367,
      "forms , ": 6368,
      "ference ": 6369,
      "fertili": 6370,
      "20th cent": 6371,
      "ity of": 6372,
      "lanc": 6373,
      "land": 6374,
      "lan , ": 6375,
      "lands ": 6376,
      "on the blue jackets ": 6377,
      "ar deity ": 6378,
      "ar dealer": 6379,
      "<unk> ( ": 6380,
      "<unk> <unk> , ": 6381,
      "by their ": 6382,
      "first": 6383,
      "deities . ": 6384,
      "deities were ": 6385,
      "deities are ": 6386,
      "deities ' ": 6387,
      "trading nash": 6388,
      "tenism": 6389,
      "at the same ": 6390,
      "ached ": 6391,
      "aching ": 6392,
      "ached to the ": 6393,
      "adap": 6394,
      "ading s": 6395,
      "adopted ": 6396,
      "admini": 6397,
      "ety": 6398,
      "not to ": 6399,
      " @-@ game ": 6400,
      " in his ": 6401,
      " in 200": 6402,
      "guide ": 6403,
      "guid": 6404,
      "lying ": 6405,
      "ly after": 6406,
      "offen": 6407,
      "gain ": 6408,
      "ga aircraft ": 6409,
      "aircraf": 6410,
      "year . \n": 6411,
      "years . ": 6412,
      " compan": 6413,
      " competi": 6414,
      "ranked ": 6415,
      "ran aground ": 6416,
      "s . some ": 6417,
      "ge of the ": 6418,
      "has com": 6419,
      "licensing ": 6420,
      "fight ": 6421,
      "peted ": 6422,
      "peziz": 6423,
      "serb": 6424,
      "empha": 6425,
      "communities ": 6426,
      "have a ": 6427,
      "have a s": 6428,
      " @.@ 0": 6429,
      " @.@ 2": 6430,
      " @.@ 7": 6431,
      "meet": 6432,
      "meet ": 6433,
      "mechan": 6434,
      "senate ": 6435,
      "valent ": 6436,
      "es , cro": 6437,
      " in a s": 6438,
      " influ": 6439,
      " poli": 6440,
      " potenti": 6441,
      "doc": 6442,
      " seen": 6443,
      " separate ": 6444,
      "prise ": 6445,
      "primar": 6446,
      "2011": 6447,
      "2015": 6448,
      "2012 , ": 6449,
      "2011 . ": 6450,
      "grew ": 6451,
      "ment of ": 6452,
      "tions and ": 6453,
      "first overall": 6454,
      "biotrophic": 6455,
      " represent": 6456,
      " reveal": 6457,
      " relation": 6458,
      "i , the ": 6459,
      "kings were ": 6460,
      "laced ": 6461,
      "us 38": 6462,
      "attar": 6463,
      "attack": 6464,
      "attack ": 6465,
      "operated ": 6466,
      "played in ": 6467,
      " a su": 6468,
      "mid": 6469,
      "mixed ": 6470,
      "ing school": 6471,
      "tude ": 6472,
      "tually ": 6473,
      "signific": 6474,
      "from her ": 6475,
      "from its ": 6476,
      "ed in 200": 6477,
      "tioned ": 6478,
      "sell": 6479,
      "time the ": 6480,
      "founded ": 6481,
      "speculation ": 6482,
      "specific ": 6483,
      "johan": 6484,
      "joseph": 6485,
      "obstructions ": 6486,
      "ubis ": 6487,
      " theme was ": 6488,
      "to be the ": 6489,
      "to be held ": 6490,
      "interest": 6491,
      "intersec": 6492,
      "intermedi": 6493,
      "international": 6494,
      "includes ": 6495,
      "financi": 6496,
      "charter ": 6497,
      "national and ": 6498,
      "in au": 6499,
      "in april ": 6500,
      "crew ": 6501,
      "aught ": 6502,
      "two twin ": 6503,
      "two layers of ": 6504,
      "ed by two ": 6505,
      "from the late ": 6506,
      "from the album ": 6507,
      "way . ": 6508,
      "eries . ": 6509,
      "y , but ": 6510,
      "also be": 6511,
      "to su": 6512,
      "to some ": 6513,
      "mainly ": 6514,
      "maintain": 6515,
      "main theme was ": 6516,
      "recordings ": 6517,
      "secutive ": 6518,
      "while his ": 6519,
      "2 , and ": 6520,
      "2 ( ": 6521,
      "2 record ": 6522,
      " their lives ": 6523,
      "divine order ": 6524,
      "engage ": 6525,
      "all @-@ time ": 6526,
      "mond ": 6527,
      "monton ": 6528,
      "monothe": 6529,
      "it was believ": 6530,
      "oked ": 6531,
      "tor . ": 6532,
      "torre ": 6533,
      " at least ": 6534,
      "over a ": 6535,
      "overtime ": 6536,
      "of sloven": 6537,
      "diff.com": 6538,
      "location ": 6539,
      "herself": 6540,
      "her armor": 6541,
      " adv": 6542,
      " admir": 6543,
      "outgrowth ": 6544,
      " har": 6545,
      " hann": 6546,
      "1 , the ": 6547,
      " amat": 6548,
      "ings of the ": 6549,
      "tower of the win": 6550,
      "158": 6551,
      "canuck": 6552,
      "much": 6553,
      "place . ": 6554,
      "place of ": 6555,
      "stanley ": 6556,
      " cartridg": 6557,
      "society , ": 6558,
      "world 's ": 6559,
      "general p": 6560,
      " played the ": 6561,
      " played in the ": 6562,
      " playstation ": 6563,
      " being ": 6564,
      " @-@ caliber ": 6565,
      "a chop": 6566,
      "caused ": 6567,
      "gun ": 6568,
      "guns in ": 6569,
      "julian cal": 6570,
      "that the blue jackets ": 6571,
      " austri": 6572,
      " cover ": 6573,
      "gold coin ": 6574,
      "geable ": 6575,
      "longer ": 6576,
      "rency ": 6577,
      "tried to ": 6578,
      "tripty": 6579,
      "would not be ": 6580,
      "in sri lank": 6581,
      "in servic": 6582,
      "in sajid ": 6583,
      " at the same ": 6584,
      "ed in the tower building ": 6585,
      "old rhymes ": 6586,
      "compet": 6587,
      "company ": 6588,
      "compatible ": 6589,
      "news ": 6590,
      "new and ": 6591,
      "new s": 6592,
      "newcom": 6593,
      "newspap": 6594,
      "pecific": 6595,
      "pecific ": 6596,
      "ed as far": 6597,
      "higher ": 6598,
      " protec": 6599,
      " proposed ": 6600,
      " provided ": 6601,
      "many of the ": 6602,
      "many gods ": 6603,
      "egyptian religious ": 6604,
      "a sen": 6605,
      "cording": 6606,
      "norm": 6607,
      "norway ": 6608,
      " colle": 6609,
      " collec": 6610,
      "use of ": 6611,
      " army ": 6612,
      "ification ": 6613,
      "ves and ": 6614,
      "1860": 6615,
      "1862 , ": 6616,
      "edmonton ": 6617,
      "ographi": 6618,
      "describe ": 6619,
      "a , which was ": 6620,
      " . the two ": 6621,
      "distric": 6622,
      " as the back ": 6623,
      "portable ": 6624,
      " command ": 6625,
      " @,@ 000 civil": 6626,
      " @,@ 000 buck & b": 6627,
      "3 ) ": 6628,
      "hang ": 6629,
      "handl": 6630,
      "end the ": 6631,
      "al sh": 6632,
      "released on ": 6633,
      ". she has ": 6634,
      ". she also": 6635,
      "asked ": 6636,
      " manufac": 6637,
      "\" silent ": 6638,
      "\" summary ": 6639,
      "of ca": 6640,
      "of chao": 6641,
      "reasons ": 6642,
      "state , ": 6643,
      "state line ": 6644,
      "state highway system": 6645,
      "state of sloven": 6646,
      "designs ": 6647,
      "designed to ": 6648,
      "two s": 6649,
      "two m": 6650,
      "two f": 6651,
      " charcoal ": 6652,
      "national football ": 6653,
      "national football": 6654,
      "horthy ": 6655,
      "al par": 6656,
      "al purposes ": 6657,
      "losses ": 6658,
      "loss of ": 6659,
      "fernandez 's ": 6660,
      "character": 6661,
      "ences ": 6662,
      "enclosed ": 6663,
      "underw": 6664,
      "disorder ": 6665,
      "disagree ": 6666,
      "based ": 6667,
      "niel": 6668,
      "nikit": 6669,
      "popmat": 6670,
      "ton cal": 6671,
      "ancer ": 6672,
      "desir": 6673,
      " which ": 6674,
      " few ": 6675,
      "regulated by the ": 6676,
      "\" , \" ": 6677,
      "4 , the ": 6678,
      "4 ) ": 6679,
      "dram": 6680,
      "hell ": 6681,
      "help ": 6682,
      "review of the ": 6683,
      "decad": 6684,
      "deceased ": 6685,
      "governor": 6686,
      " maxim": 6687,
      "may '": 6688,
      "number 5": 6689,
      "number of aerodromes ": 6690,
      "cullen 's ": 6691,
      "mississipp": 6692,
      "theme ": 6693,
      "them , ": 6694,
      "remaining ": 6695,
      "remainder ": 6696,
      "issues ": 6697,
      "posthum": 6698,
      "n @-@ 92": 6699,
      "important": 6700,
      "importance of ": 6701,
      "periods ": 6702,
      "up to the ": 6703,
      "up for s": 6704,
      "egyptian s": 6705,
      "day , ": 6706,
      "ggres": 6707,
      ", a role ": 6708,
      "produced ": 6709,
      "arsenal , ": 6710,
      "director ": 6711,
      "directly ": 6712,
      " park ": 6713,
      " moder": 6714,
      "counter": 6715,
      "egyptians believ": 6716,
      " ) \n": 6717,
      "17 ": 6718,
      "calling ": 6719,
      "hungary ": 6720,
      "morality ": 6721,
      "patch": 6722,
      "british @-@ ": 6723,
      "british micro": 6724,
      "different": 6725,
      "government": 6726,
      "infantry ": 6727,
      "al fail": 6728,
      "al flights ": 6729,
      "al fin f": 6730,
      "november": 6731,
      "increase ": 6732,
      "increasing ": 6733,
      "who is ": 6734,
      "observator": 6735,
      "barrack": 6736,
      "ister ": 6737,
      "memory ": 6738,
      "memorial troph": 6739,
      "uki ": 6740,
      "vehic": 6741,
      "endor": 6742,
      "endar ": 6743,
      "request ": 6744,
      " season . ": 6745,
      "equally ": 6746,
      "writer ": 6747,
      "writing": 6748,
      "in croydon ": 6749,
      "in cattar": 6750,
      "role @-@ playing ": 6751,
      "him . ": 6752,
      "atic and ": 6753,
      "currency ": 6754,
      "captain": 6755,
      "capital ": 6756,
      "draft pick ": 6757,
      "draft pick": 6758,
      "francis ": 6759,
      "ying , ": 6760,
      " attack ": 6761,
      "lists ": 6762,
      "assum": 6763,
      " points in ": 6764,
      "history . ": 6765,
      "history . \n": 6766,
      "officials ": 6767,
      "john ab": 6768,
      "john cullen ": 6769,
      ") , which": 6770,
      "ideas ": 6771,
      "song \"": 6772,
      "song \" ": 6773,
      "text ": 6774,
      "winner ": 6775,
      "entrance ": 6776,
      "form of the ": 6777,
      "levels ": 6778,
      "leveland ": 6779,
      "levels , and ": 6780,
      "largest ": 6781,
      "received a ": 6782,
      "important gods ": 6783,
      " todd ": 6784,
      ". they were ": 6785,
      "50 @,@ 000": 6786,
      "centage ": 6787,
      "garri": 6788,
      "garden": 6789,
      "garden ": 6790,
      "garner": 6791,
      "someth": 6792,
      "of aviation ": 6793,
      "opening them": 6794,
      "vision of the ": 6795,
      "otherwise ": 6796,
      "pointed ": 6797,
      "personifi": 6798,
      "training c": 6799,
      "universal ": 6800,
      "human s": 6801,
      "depict ": 6802,
      "nhl entry draft ": 6803,
      "don 't ": 6804,
      "prompted ": 6805,
      "trees ": 6806,
      "treated ": 6807,
      "ing club": 6808,
      "define ": 6809,
      "def jam": 6810,
      "defenses ": 6811,
      "notata ": 6812,
      "subject ": 6813,
      "work done ": 6814,
      "when c": 6815,
      "mytholog": 6816,
      "continued ": 6817,
      "continues ": 6818,
      "ivil aviation ": 6819,
      "late in the ": 6820,
      "plann": 6821,
      "paired ": 6822,
      "statue ": 6823,
      "stated that he had ": 6824,
      "in mumbai": 6825,
      "1986": 6826,
      "consisted ": 6827,
      "gods ' actions ": 6828,
      "severely ": 6829,
      "history and ": 6830,
      "historical ": 6831,
      "religious belief": 6832,
      "following year": 6833,
      "public transport operations ": 6834,
      ". along": 6835,
      "24 cm ( ": 6836,
      "25 – ": 6837,
      "25 \n": 6838,
      "burned ": 6839,
      "custom": 6840,
      "housed ": 6841,
      "connecting ": 6842,
      "union ship": 6843,
      "union navy ": 6844,
      "nature . \n": 6845,
      "cullen was ": 6846,
      "1 – 2 record ": 6847,
      "drawn": 6848,
      "flex": 6849,
      "grand": 6850,
      "grant ": 6851,
      "less than ": 6852,
      "near the ": 6853,
      "rame": 6854,
      "shire ": 6855,
      "than other mask": 6856,
      " a four": 6857,
      "of another ": 6858,
      "returned to ": 6859,
      " mm ) ": 6860,
      "ultiplic": 6861,
      "had a beam of ": 6862,
      "commercial operations ": 6863,
      "mediterran": 6864,
      "media.vision ": 6865,
      "half of ": 6866,
      "half of the ": 6867,
      "james river ": 6868,
      "james b. ": 6869,
      "james wisniewsk": 6870,
      "closed ": 6871,
      "dave ": 6872,
      "damage ": 6873,
      "pola ": 6874,
      "into a ": 6875,
      " than others ": 6876,
      "titles ": 6877,
      "habsburg": 6878,
      "previously ": 6879,
      " km ) ": 6880,
      "transferred to ": 6881,
      "transferred to the ": 6882,
      "smallest ": 6883,
      "general aviation": 6884,
      "general manag": 6885,
      "nhl season ": 6886,
      "album 's ": 6887,
      "united states navy ": 6888,
      "gallia ": 6889,
      " that are ": 6890,
      "deal with the ": 6891,
      "river , ": 6892,
      "force the ": 6893,
      "changeable ": 6894,
      " metal ": 6895,
      "extends ": 6896,
      "moved to ": 6897,
      "qualifi": 6898,
      " control ": 6899,
      "fungus is ": 6900,
      "austro @-@ hungarian navy , ": 6901,
      "despite the ": 6902,
      "faul": 6903,
      "floor ": 6904,
      "flotill": 6905,
      "khenty ": 6906,
      "men and ": 6907,
      "there are ": 6908,
      "three days later ": 6909,
      "an civil": 6910,
      "ircul": 6911,
      " where ": 6912,
      "of the year ": 6913,
      " because ": 6914,
      "controll": 6915,
      "track to the apo": 6916,
      " in ) / ": 6917,
      "north carolin": 6918,
      "system , ": 6919,
      "position in the ": 6920,
      "under the command ": 6921,
      "profitable ": 6922,
      "industry . ": 6923,
      "illustrator": 6924,
      "ordnance activities ": 6925,
      "cup . the ": 6926,
      "nadiad": 6927,
      "ocus ": 6928,
      "shot ": 6929,
      "show ": 6930,
      "erefore ": 6931,
      "steel": 6932,
      "steve mason ": 6933,
      "deterior": 6934,
      "el tu": 6935,
      " who had ": 6936,
      "protect": 6937,
      "protective ": 6938,
      "gainst a": 6939,
      "arkansas museum of ": 6940,
      "joint a": 6941,
      "included in the ": 6942,
      "surrounding": 6943,
      "surrounding the ": 6944,
      "required to ": 6945,
      "military history ": 6946,
      "troops in servic": 6947,
      "( cat ": 6948,
      "munitions of ": 6949,
      "wanted to ": 6950,
      "way that ": 6951,
      " a my": 6952,
      " a month ": 6953,
      "ended his ": 6954,
      "display": 6955,
      "displaced ": 6956,
      "emerg": 6957,
      "ected the ": 6958,
      "commander ": 6959,
      "scored ": 6960,
      " @-@ inch dahl": 6961,
      "focused ": 6962,
      "objective ": 6963,
      "appeared ": 6964,
      "hymns ": 6965,
      "initially": 6966,
      "youngest ": 6967,
      "1 @,@ 300": 6968,
      "casemate ": 6969,
      "critic ra": 6970,
      "ldwide ": 6971,
      "microscop": 6972,
      "pittsbur": 6973,
      "squadron ": 6974,
      "vancouver ": 6975,
      "restricted ": 6976,
      "restrictions ": 6977,
      "restrictive ": 6978,
      "ing to w": 6979,
      "acquisi": 6980,
      " airfields were ": 6981,
      "improved ": 6982,
      "@-@ wing aircraft ": 6983,
      "erial work ": 6984,
      "local deities ": 6985,
      " between": 6986,
      " @-@ pounder ": 6987,
      "distribution and ": 6988,
      "indicates ": 6989,
      "women 's football ": 6990,
      "women 's national football ": 6991,
      "; society ": 6992,
      "balk": 6993,
      "critici": 6994,
      "came to ": 6995,
      "german ship": 6996,
      "passen": 6997,
      "passed ": 6998,
      "painted ": 6999,
      "rumors were ": 7000,
      "rushie river ": 7001,
      "third period ": 7002,
      "invent": 7003,
      "al concer": 7004,
      "repaired ": 7005,
      " signed ": 7006,
      "foreign ": 7007,
      "foreign @-@ ": 7008,
      "silver": 7009,
      " writings ": 7010,
      " periods ": 7011,
      "ical observations ": 7012,
      "economy ": 7013,
      " bc ) . ": 7014,
      "within the world ": 7015,
      "lead and ": 7016,
      "expansion ": 7017,
      " combined ": 7018,
      "availability ": 7019,
      "greenaway ": 7020,
      "over the last ": 7021,
      "struck the ": 7022,
      " approximately ": 7023,
      " august , 186": 7024,
      "gliders , ": 7025,
      "british gliding": 7026,
      "federal government ": 7027,
      "official religion ": 7028,
      "official biograph": 7029,
      "standards of airworthin": 7030,
      "connected with ": 7031,
      "estimated to be ": 7032,
      "ironclads ": 7033,
      "japan , ": 7034,
      "plain maskray is ": 7035,
      "middle kingdom": 7036,
      " lives ": 7037,
      " lively ": 7038,
      "billboard ": 7039,
      "ealed ": 7040,
      "holy": 7041,
      "stage = = \n": 7042,
      "ategor": 7043,
      " shots ": 7044,
      "deliver": 7045,
      "deliber": 7046,
      "decided ": 7047,
      "decisions relat": 7048,
      "elf @-@ c": 7049,
      " , which was ": 7050,
      "happy ": 7051,
      "modern": 7052,
      "modern ": 7053,
      " according to ": 7054,
      "mint director": 7055,
      " kg ) and ": 7056,
      "longacre , ": 7057,
      "naval base ": 7058,
      "loss to the ": 7059,
      "known as the ": 7060,
      "pilot licensing ": 7061,
      "due to its ": 7062,
      "control of the ": 7063,
      "children ’ s ": 7064,
      "studio album ": 7065,
      "essential ": 7066,
      "22 .69": 7067,
      "astel": 7068,
      "elite ": 7069,
      "glamorous ": 7070,
      "pre @-@ dreadnought ": 7071,
      "slowed ": 7072,
      "slowly ": 7073,
      "s with music ": 7074,
      "en and sms breslau": 7075,
      " child ": 7076,
      " species ": 7077,
      "a @-@ hungary ": 7078,
      "in order to ": 7079,
      "for mak": 7080,
      "of egyptian history ": 7081,
      "suffered a ": 7082,
      " as \" an aircraft operation ": 7083,
      ", the blue jackets were ": 7084,
      "covered the ": 7085,
      "lyrics ": 7086,
      "gained ": 7087,
      "gainst ": 7088,
      "means of ": 7089,
      "2011 . the ": 7090,
      "dominant ": 7091,
      "dominantly ": 7092,
      "world war i , ": 7093,
      "symboli": 7094,
      "vocal ": 7095,
      "vocals ": 7096,
      "polytheistic": 7097,
      "polycha": 7098,
      "evidence of ": 7099,
      " @-@ pound parrott ": 7100,
      "bombardment of the ": 7101,
      "37 , ": 7102,
      "cults ": 7103,
      "central ": 7104,
      "crosses ": 7105,
      "dlc": 7106,
      "eter ( ": 7107,
      "female ": 7108,
      "honor ": 7109,
      "honjou": 7110,
      "merge ": 7111,
      "pageant ": 7112,
      "ryan ": 7113,
      "wisdom": 7114,
      "erve as ": 7115,
      "reduced his ": 7116,
      "style of ": 7117,
      "iconograph": 7118,
      "iconographi": 7119,
      " minut": 7120,
      " members ": 7121,
      "was sung by ": 7122,
      " battleship": 7123,
      "is a speci": 7124,
      "laugh": 7125,
      "romantic": 7126,
      "1918 , ": 7127,
      "expected to ": 7128,
      "police ": 7129,
      "political ": 7130,
      "seen as ": 7131,
      "one @-@ dollar": 7132,
      "short @-@ li": 7133,
      " christian knowledg": 7134,
      "secret ": 7135,
      " help": 7136,
      " @-@ centim": 7137,
      " australia ": 7138,
      "in some cas": 7139,
      "lintlock ": 7140,
      "material ": 7141,
      "registered aircraft ": 7142,
      "approach": 7143,
      "supply of pilots ": 7144,
      "other than a commerci": 7145,
      "household ": 7146,
      "drawings ": 7147,
      "organizations ": 7148,
      "instruments were ": 7149,
      "scholars disagree ": 7150,
      "engaged in ga activities ": 7151,
      "western ": 7152,
      "necessary to ": 7153,
      "light aircraft associ": 7154,
      "identifi": 7155,
      "33 \n": 7156,
      "ceil": 7157,
      "ette ": 7158,
      "ior wall": 7159,
      "mason": 7160,
      " aspects of ": 7161,
      "ed a contract ": 7162,
      "area ": 7163,
      "al air transport ( cat ": 7164,
      "reported ": 7165,
      "tournam": 7166,
      " saw ": 7167,
      " suggest": 7168,
      "richmond ": 7169,
      "logies ": 7170,
      " microlights ": 7171,
      "escop": 7172,
      "ultimate ": 7173,
      "ultimately ": 7174,
      "leading the ": 7175,
      "leading s": 7176,
      "leaving ": 7177,
      "ation of christian knowledg": 7178,
      "<unk> chronicles ": 7179,
      "experim": 7180,
      "experience ": 7181,
      "experienced ": 7182,
      "research": 7183,
      "research ": 7184,
      " artist ": 7185,
      "quired ": 7186,
      "whether": 7187,
      "local manifestations ": 7188,
      "necklac": 7189,
      "funerary god ": 7190,
      "egyptian cul": 7191,
      "structure of the ": 7192,
      "maximum ": 7193,
      "larger airports ": 7194,
      "consisting of ": 7195,
      "consisted of four ": 7196,
      "remunerated ": 7197,
      "existence of ": 7198,
      "legislation ": 7199,
      "patterson had ": 7200,
      "navig": 7201,
      "steam ": 7202,
      "steamer ": 7203,
      "double eag": 7204,
      "hunwick": 7205,
      "hunwick ": 7206,
      "expanded edition ": 7207,
      "scope of easa ": 7208,
      "tribute album": 7209,
      "practices ": 7210,
      "spirits of the ": 7211,
      "( e.g. <unk> ) ": 7212,
      " \" there 's got to be a way \" ( ": 7213,
      ". as a result , ": 7214,
      ". additionally ": 7215,
      "; frederick warne , 200": 7216,
      "lesser ": 7217,
      "mariah": 7218,
      "market ": 7219,
      "negative ": 7220,
      "savannah ": 7221,
      "van dor": 7222,
      "to an end ": 7223,
      "stingray ": 7224,
      "unable to ": 7225,
      " south of heaven was ": 7226,
      "likely ": 7227,
      "to make the ": 7228,
      "american civil": 7229,
      "assigned to the ": 7230,
      " per hour": 7231,
      " physic": 7232,
      " mph ) . \n": 7233,
      "railroad ": 7234,
      "rather than ": 7235,
      " background ": 7236,
      " billion ( us ": 7237,
      "haiti": 7238,
      " following the ": 7239,
      "eastern ": 7240,
      "for instance , ": 7241,
      "advanced as far": 7242,
      "ete wor": 7243,
      "greatly ": 7244,
      "gun port ": 7245,
      " associations ": 7246,
      "regarded as ": 7247,
      "companying ": 7248,
      "taining maat ": 7249,
      "hanneman ": 7250,
      "individuals ": 7251,
      "broken up for s": 7252,
      " particular god ": 7253,
      "called the ba ": 7254,
      "pantheon ": 7255,
      "assembled ": 7256,
      "@-@ shaped ": 7257,
      "promote ": 7258,
      "prominent ": 7259,
      "planning decisions relat": 7260,
      "organisations ": 7261,
      "featured ": 7262,
      "telegraph": 7263,
      "phoenix co": 7264,
      "visual ": 7265,
      "free agenc": 7266,
      "title track , ": 7267,
      "st. andrew 's ": 7268,
      "raphael tu": 7269,
      "los angeles ": 7270,
      "piston @-@ engine ": 7271,
      "erzherzog karl clas": 7272,
      "weehawken and ": 7273,
      "stationed in cattar": 7274,
      "hitchcock": 7275,
      "gobrecht 's ": 7276,
      "californi": 7277,
      "either": 7278,
      "jeev mas": 7279,
      "mummi": 7280,
      "sanctuary ": 7281,
      "treasury ": 7282,
      "weapon ": 7283,
      "weighed ": 7284,
      "in commerce ": 7285,
      "ero club": 7286,
      " the arsenal was ": 7287,
      "ed cruisers ": 7288,
      "enjoy": 7289,
      "tized with ": 7290,
      "arrived ": 7291,
      "rejected ": 7292,
      "of pope pius ": 7293,
      " win over the ": 7294,
      "aspir": 7295,
      " m1822 .69": 7296,
      " basic": 7297,
      "besides ": 7298,
      "behavior ": 7299,
      "resemble the ": 7300,
      "reception = = \n": 7301,
      "neverth": 7302,
      "immediately ": 7303,
      "scream": 7304,
      "trawl": 7305,
      "grossing ": 7306,
      "senjo no valkyria 3 : ": 7307,
      "2014 , fernandez": 7308,
      " religious ": 7309,
      " a significant ": 7310,
      "physic": 7311,
      "including some ": 7312,
      " khan , ": 7313,
      " hours ": 7314,
      "hornung": 7315,
      "darcsen ": 7316,
      "chose not to ": 7317,
      "possession of the ": 7318,
      "calypse ": 7319,
      "below ": 7320,
      "resulting in the ": 7321,
      "st. louis blues ": 7322,
      "occasion": 7323,
      " arkadelphia ": 7324,
      "television repor": 7325,
      "soldiers would be ": 7326,
      "n @-@ 88 turns ": 7327,
      "uccessful": 7328,
      " known as ": 7329,
      "al pilot licence ": 7330,
      "families ": 7331,
      "hieroglyphs ": 7332,
      "queen mary ": 7333,
      "secretary of the ": 7334,
      "lord of the ": 7335,
      " regional airports ": 7336,
      "st. edmund 's , pitlak": 7337,
      "cessna 17": 7338,
      "radetzky ": 7339,
      "croydon art ": 7340,
      "iifa award ": 7341,
      "tampa bay ": 7342,
      "lit . valkyria of the battlefield 3 ": 7343,
      "diagnosed ": 7344,
      "extra edition ": 7345,
      "stained glass window ": 7346,
      "422nd ": 7347,
      "; macmil": 7348,
      "aprotrophic": 7349,
      "clayton cal": 7350,
      "dasyati": 7351,
      "grayish": 7352,
      "horiz": 7353,
      "kespeare 's ": 7354,
      "memphis ": 7355,
      "nourish": 7356,
      "nppl ": 7357,
      "put the ": 7358,
      "rhythm ": 7359,
      "szent ist": 7360,
      "sent a ": 7361,
      "vailable ": 7362,
      "william": 7363,
      "ylinder ": 7364,
      "zure revolu": 7365,
      "ァルキュ": 7366,
      "戦場のウァルキュ": 7367,
      " araya ": 7368,
      "orange ": 7369,
      "ennead ": 7370,
      "en begrand ": 7371,
      "tified ": 7372,
      "reform the julian cal": 7373,
      "tolema": 7374,
      " anthropomor": 7375,
      "ats and serb": 7376,
      "detroit red ": 7377,
      "riela ": 7378,
      "the spiracles ": 7379,
      " pharaoh": 7380,
      "gospel": 7381,
      "goeben and sms breslau": 7382,
      " mallory ": 7383,
      "gh penguin": 7384,
      "umstanc": 7385,
      "magazine ": 7386,
      "speech": 7387,
      "contradic": 7388,
      " a little book of ": 7389,
      "recycled ": 7390,
      "soundtrack to the apo": 7391,
      "quickly ": 7392,
      "s , 1930s \n": 7393,
      " accepted ": 7394,
      "its current name ": 7395,
      "bow and ster": 7396,
      "for the preservation of christian knowledg": 7397,
      "es , croats and serb": 7398,
      "attack on an": 7399,
      "significantly ": 7400,
      "stanley cup": 7401,
      "triptych": 7402,
      " at the same time , ": 7403,
      "cordingly ": 7404,
      "edmonton oil": 7405,
      " @,@ 000 buck & ball": 7406,
      " manufactur": 7407,
      "\" silent scream": 7408,
      "state of slovenes , croats and serb": 7409,
      "popmatters ": 7410,
      "posthumously ": 7411,
      "egyptians believed the ": 7412,
      "al fin fold ": 7413,
      "november and ": 7414,
      "vehicles ": 7415,
      "john abraham": 7416,
      " todd richards ": 7417,
      "def jam ": 7418,
      "24 cm ( 9 @.@ 4": 7419,
      "nadiadwal": 7420,
      "pittsburgh penguin": 7421,
      "; society for the preservation of christian knowledg": 7422,
      "british gliding association ": 7423,
      "s with music ; blackie , 19": 7424,
      "polychaete wor": 7425,
      " @-@ centimeter ( ": 7426,
      "other than a commercial air transport ": 7427,
      " billion ( us $ ": 7428,
      "broken up for sc": 7429,
      "jeev masand ": 7430,
      "; macmillan , ": 7431,
      "clayton calthrop": 7432,
      "szent istvan": 7433,
      "戦場のウァルキュリア": 7434,
      "detroit red wing": 7435,
      "soundtrack to the apocalypse ": 7436,
      "; society for the preservation of christian knowledge , 19": 7437,
      " (": 7438,
      " :": 7439,
      " z": 7440,
      " °": 7441,
      " un": 7442,
      " no": 7443,
      " team": 7444,
      " nation": 7445,
      " den": 7446,
      " rac": 7447,
      " temples ": 7448,
      " st. ": 7449,
      " however ": 7450,
      " erzherzog ferdinand max": 7451,
      " out of ": 7452,
      " evidence ": 7453,
      " zrinyi was ": 7454,
      " & b": 7455,
      " note ": 7456,
      " geopyxis carbonaria ": 7457,
      " 75": 7458,
      " ga airfields ": 7459,
      " on the morning of ": 7460,
      " northern": 7461,
      " yar": 7462,
      "\" f": 7463,
      "\" a s": 7464,
      "\" all": 7465,
      "\" appear": 7466,
      "\" who": 7467,
      "\" most ": 7468,
      "\" person": 7469,
      "\" but ": 7470,
      "\" charcoal ": 7471,
      "& ": 7472,
      "' c": 7473,
      "' f": 7474,
      "' re": 7475,
      "( w": 7476,
      "( f": 7477,
      "( from": 7478,
      "( wri": 7479,
      "( power": 7480,
      "( percussion ": 7481,
      "( maxim": 7482,
      ") was a ": 7483,
      ") as \" an aircraft operation ": 7484,
      ", their": 7485,
      ", through": 7486,
      ", that the ": 7487,
      ", they are ": 7488,
      "- ": 7489,
      ". and ": 7490,
      ". that ": 7491,
      ". their": 7492,
      ". ad": 7493,
      ". as the ": 7494,
      ". all ": 7495,
      "... ": 7496,
      ". among": 7497,
      ". they": 7498,
      "05": 7499,
      "0 @.@ ": 7500,
      "0 points ": 7501,
      "0 @-@ pound parrott ": 7502,
      "1 @-@ ": 7503,
      "14 ": 7504,
      "1 points ": 7505,
      "11 , ": 7506,
      "11 – ": 7507,
      "1 mm )": 7508,
      "1 in a s": 7509,
      "2 c": 7510,
      "2 p": 7511,
      "2 was ": 7512,
      "2 in ": 7513,
      "2 inches ( ": 7514,
      "28 , ": 7515,
      "2 @.@ 6": 7516,
      "2 cm ( ": 7517,
      "3 @-@ ": 7518,
      "3 with ": 7519,
      "31 , ": 7520,
      "3 metres ( ": 7521,
      "3 february ": 7522,
      "43": 7523,
      "44": 7524,
      "4 in": 7525,
      "44 ": 7526,
      "4 km ": 7527,
      "48 ": 7528,
      "4 billion ": 7529,
      "5 to ": 7530,
      "5 points ": 7531,
      "5 @.@ 5": 7532,
      "53 – ": 7533,
      "66": 7534,
      "68": 7535,
      "600": 7536,
      "6 @.@ 6": 7537,
      "6 @-@ pounder ": 7538,
      "65 points ": 7539,
      "7 and ": 7540,
      "7 @,@ ": 7541,
      "7 @.@ ": 7542,
      "77 ": 7543,
      "7 inches ( ": 7544,
      "7 @.@ 6": 7545,
      "89 ": 7546,
      "8 mm )": 7547,
      "94": 7548,
      "9 and ": 7549,
      "9 , ": 7550,
      "9 m": 7551,
      "9 – ": 7552,
      "9 @,@ ": 7553,
      ": a": 7554,
      ": po": 7555,
      ": main": 7556,
      "; th": 7557,
      "; a ": 7558,
      "; in": 7559,
      "; c. ": 7560,
      "[ .": 7561,
      "[ she ": 7562,
      "ae ": 7563,
      "aon": 7564,
      "ato": 7565,
      "ads ": 7566,
      "ave ": 7567,
      "ader ": 7568,
      "aay": 7569,
      "a comm": 7570,
      "apos": 7571,
      "a commerci": 7572,
      "aeroplan": 7573,
      "a collec": 7574,
      "aero club": 7575,
      "b ": 7576,
      "bn": 7577,
      "bed ": 7578,
      "ben": 7579,
      "bra": 7580,
      "bate ": 7581,
      "bab": 7582,
      "ball": 7583,
      "bar ": 7584,
      "bore ": 7585,
      "bes , ": 7586,
      "black ": 7587,
      "bill ": 7588,
      "badly ": 7589,
      "banner ": 7590,
      "cen": 7591,
      "cli": 7592,
      "cil": 7593,
      "cle": 7594,
      "ccon": 7595,
      "cn ": 7596,
      "cav": 7597,
      "catt": 7598,
      "ction": 7599,
      "ces of ": 7600,
      "clos": 7601,
      "cast ": 7602,
      "cut": 7603,
      "clock ": 7604,
      "ceeded ": 7605,
      "c.s.": 7606,
      "caught ": 7607,
      "cealed ": 7608,
      "categor": 7609,
      "dh": 7610,
      "da ": 7611,
      "dha": 7612,
      "dent ": 7613,
      "date ": 7614,
      "draf": 7615,
      "dary ": 7616,
      "dap": 7617,
      "dore ": 7618,
      "dout ": 7619,
      "dwar": 7620,
      "dy , ": 7621,
      "dwell": 7622,
      "drop": 7623,
      "dalm": 7624,
      "dbar ": 7625,
      "ek": 7626,
      "edi": 7627,
      "ean ": 7628,
      "ebri": 7629,
      "edom": 7630,
      "eback ": 7631,
      "editions ": 7632,
      "fl": 7633,
      "fro": 7634,
      "fat": 7635,
      "fra": 7636,
      "fit": 7637,
      "f . ": 7638,
      "fear": 7639,
      "fers ": 7640,
      "fine ": 7641,
      "fare ": 7642,
      "f ac": 7643,
      "fits ": 7644,
      "fru": 7645,
      "fish": 7646,
      "fused ": 7647,
      "flint ": 7648,
      "flesh": 7649,
      "flintlock": 7650,
      "frame": 7651,
      "gs ": 7652,
      "ger ": 7653,
      "g and ": 7654,
      "gic": 7655,
      "grec": 7656,
      "gent": 7657,
      "gar ": 7658,
      "glas": 7659,
      "gets ": 7660,
      "get ": 7661,
      "gram": 7662,
      "gments ": 7663,
      "h ": 7664,
      "ht": 7665,
      "hat": 7666,
      "hri": 7667,
      "hem": 7668,
      "h b": 7669,
      "hyp": 7670,
      "hall": 7671,
      "hull": 7672,
      "hall ": 7673,
      "hates ": 7674,
      "hamp": 7675,
      "hous": 7676,
      "hull ": 7677,
      "hlii ": 7678,
      "iel": 7679,
      "ile ": 7680,
      "i m": 7681,
      "i . ": 7682,
      "ive ": 7683,
      "i was ": 7684,
      "im ": 7685,
      "ider ": 7686,
      "iety ": 7687,
      "ieu": 7688,
      "ied by": 7689,
      "i made ": 7690,
      "ibility ": 7691,
      "ium , ": 7692,
      "i always ": 7693,
      "i brought ": 7694,
      "i fuj": 7695,
      "io <unk> ": 7696,
      "jon": 7697,
      "j. ": 7698,
      "junk": 7699,
      "ji ": 7700,
      "ja s": 7701,
      "ko": 7702,
      "ku": 7703,
      "kt ": 7704,
      "kor": 7705,
      "k. ": 7706,
      "ker ": 7707,
      "kas ": 7708,
      "kri": 7709,
      "kel": 7710,
      "kim": 7711,
      "kone ": 7712,
      "kap": 7713,
      "kari": 7714,
      "kub": 7715,
      "kets ": 7716,
      "ket ": 7717,
      "kansas ": 7718,
      "key": 7719,
      "kerry ": 7720,
      "lt": 7721,
      "ls ": 7722,
      "len": 7723,
      "l and ": 7724,
      "lur": 7725,
      "ling , ": 7726,
      "ling of the ": 7727,
      "lvan": 7728,
      "lt. ": 7729,
      "mes ": 7730,
      "m and ": 7731,
      "mom": 7732,
      "mel": 7733,
      "m , ": 7734,
      "me , ": 7735,
      "mph": 7736,
      "mates ": 7737,
      "member ": 7738,
      "med and ": 7739,
      "mented ": 7740,
      "milli": 7741,
      "mon , ": 7742,
      "mcel": 7743,
      "meridian ": 7744,
      "murder ": 7745,
      "n the ": 7746,
      "nur": 7747,
      "nes": 7748,
      "nis": 7749,
      "nor ": 7750,
      "nations ": 7751,
      "n . \n": 7752,
      "nish": 7753,
      "nsy": 7754,
      "ned , ": 7755,
      "nass": 7756,
      "n. an": 7757,
      "nao": 7758,
      "nomin": 7759,
      "os ": 7760,
      "o a": 7761,
      "ots ": 7762,
      "o m": 7763,
      "oter": 7764,
      "oot": 7765,
      "pe ": 7766,
      "pun": 7767,
      "pac": 7768,
      "pul": 7769,
      "pl ": 7770,
      "ps , ": 7771,
      "pre ": 7772,
      "pleas": 7773,
      "pled ": 7774,
      "past ": 7775,
      "pull ": 7776,
      "pruce ": 7777,
      "p. all": 7778,
      "pump": 7779,
      "pastel": 7780,
      "ptolema": 7781,
      "rhi": 7782,
      "rong": 7783,
      "rare ": 7784,
      "ra , ": 7785,
      "ramp": 7786,
      "rami": 7787,
      "r & b": 7788,
      "sw": 7789,
      "sat": 7790,
      "sem": 7791,
      "sation ": 7792,
      "sunk": 7793,
      "sk ": 7794,
      "sing the ": 7795,
      "say": 7796,
      "ses . ": 7797,
      "sing a": 7798,
      "slip": 7799,
      "sabres ": 7800,
      "sakimoto ": 7801,
      "tam": 7802,
      "tted ": 7803,
      "tation ": 7804,
      "tent": 7805,
      "t their": 7806,
      "t this ": 7807,
      "tance ": 7808,
      "t they ": 7809,
      "tree ": 7810,
      "tric": 7811,
      "t as a ": 7812,
      "tying ": 7813,
      "tner ": 7814,
      "tlist ": 7815,
      "tells ": 7816,
      "traffic": 7817,
      "tgs ": 7818,
      "uto": 7819,
      "ues ": 7820,
      "uli": 7821,
      "ugo": 7822,
      "ugh": 7823,
      "uit ": 7824,
      "utr": 7825,
      "us and ": 7826,
      "ujo": 7827,
      "ut a": 7828,
      "uting ": 7829,
      "uffer": 7830,
      "ures of ": 7831,
      "u.s.": 7832,
      "uinely ": 7833,
      "ucn ": 7834,
      "vul": 7835,
      "ved": 7836,
      "ving a ": 7837,
      "vince ": 7838,
      "vfr": 7839,
      "vity , ": 7840,
      "w. ": 7841,
      "won ": 7842,
      "w , ": 7843,
      "wrec": 7844,
      "wea": 7845,
      "wii": 7846,
      "wish": 7847,
      "wed": 7848,
      "wound ": 7849,
      "wid": 7850,
      "wii ": 7851,
      "waddon ": 7852,
      "wrong": 7853,
      "x , ": 7854,
      "xford ": 7855,
      "y th": 7856,
      "ya ": 7857,
      "yles ": 7858,
      "y a s": 7859,
      "youth ": 7860,
      "ymbo": 7861,
      "ydney ": 7862,
      "yo 151 ": 7863,
      "yugo": 7864,
      "za ": 7865,
      "zed in ": 7866,
      "zed by ": 7867,
      "ze of ": 7868,
      "z ferdinand ": 7869,
      "~ ": 7870,
      "² ) ": 7871,
      "µm ": 7872,
      "e the ": 7873,
      "e on the ": 7874,
      "e star": 7875,
      "e in m": 7876,
      "e history = = \n": 7877,
      "e ka": 7878,
      "e aay": 7879,
      "s was ": 7880,
      "s from": 7881,
      "s at the ": 7882,
      "s from ": 7883,
      "s ; ": 7884,
      "s , and the ": 7885,
      "s them": 7886,
      "s ] ": 7887,
      "s of three ": 7888,
      "s praised ": 7889,
      "s ' f": 7890,
      "thes ": 7891,
      "thur": 7892,
      "thod ": 7893,
      "ths of ": 7894,
      "thous": 7895,
      "th plac": 7896,
      "thplace of ": 7897,
      "d )": 7898,
      "d . ": 7899,
      "d of ": 7900,
      "d @-@ ": 7901,
      "inn": 7902,
      "int ": 7903,
      "ina ": 7904,
      "ink ": 7905,
      "in ar": 7906,
      "inine ": 7907,
      "ino ": 7908,
      "ins and ": 7909,
      "inese ": 7910,
      "in aircraft ": 7911,
      "in their ": 7912,
      "insur": 7913,
      "in all ": 7914,
      "informed ": 7915,
      "inka ": 7916,
      "in afric": 7917,
      "institu": 7918,
      "inaug": 7919,
      "inadequate ": 7920,
      "intru": 7921,
      "ina , which was ": 7922,
      "inforce the ": 7923,
      "ering ": 7924,
      "erou": 7925,
      "er as ": 7926,
      "er that ": 7927,
      "ered by ": 7928,
      "ery , ": 7929,
      "ertain ": 7930,
      "erra ": 7931,
      "eremoni": 7932,
      " thor": 7933,
      " thom": 7934,
      " then ": 7935,
      " thick": 7936,
      " thrash": 7937,
      " therefore ": 7938,
      " ag": 7939,
      " ali": 7940,
      " apo": 7941,
      " ash": 7942,
      " at a": 7943,
      " able ": 7944,
      " awards ": 7945,
      " a player ": 7946,
      " astronom": 7947,
      " above the ": 7948,
      " aids ": 7949,
      "ony": 7950,
      "ones ": 7951,
      "ones , ": 7952,
      "on a s": 7953,
      "on their ": 7954,
      "online ": 7955,
      "ones were ": 7956,
      "on aircraft noise ": 7957,
      " the co": 7958,
      " the ob": 7959,
      " the same ": 7960,
      " the itali": 7961,
      " the union ": 7962,
      " the gambia ": 7963,
      " the number of ": 7964,
      " the creator god ": 7965,
      " the care ": 7966,
      " the objective ": 7967,
      " the soldiers would be ": 7968,
      "t to ": 7969,
      "t to be ": 7970,
      "t inst": 7971,
      "t of arkansas ": 7972,
      "ed it ": 7973,
      "ed up": 7974,
      "ed other ": 7975,
      "ed out ": 7976,
      "ed pri": 7977,
      "ed her": 7978,
      "ed would ": 7979,
      "ed of a ": 7980,
      "ed \" , ": 7981,
      "ed into ": 7982,
      "ed him": 7983,
      "ed last ": 7984,
      "ed for s": 7985,
      "ed humans ": 7986,
      "ed between the ": 7987,
      "ed from his ": 7988,
      "ed light aircraft ": 7989,
      "ed @-@ wing aircraft ": 7990,
      "ed significantly ": 7991,
      "orti": 7992,
      "orac": 7993,
      "orted ": 7994,
      "ort the ": 7995,
      "ors . ": 7996,
      "or mu": 7997,
      "anth": 7998,
      "anic": 7999,
      "ands ": 8000,
      "ander ": 8001,
      "anish": 8002,
      "anford ": 8003,
      "another": 8004,
      "andon": 8005,
      "antee ": 8006,
      "an bri": 8007,
      "anadi": 8008,
      "an women 's ": 8009,
      "analy": 8010,
      "anubis ": 8011,
      "ane ka": 8012,
      "enz": 8013,
      "enth": 8014,
      "enge ": 8015,
      "eness ": 8016,
      "endar": 8017,
      "ending": 8018,
      "enacted ": 8019,
      "tip": 8020,
      "tier ": 8021,
      "tiful": 8022,
      "ticip": 8023,
      "tice of ": 8024,
      "y sp": 8025,
      "y with ": 8026,
      "y states ": 8027,
      "y gho": 8028,
      "y kum": 8029,
      "y fish": 8030,
      "arti": 8031,
      "arac": 8032,
      "ar , ": 8033,
      "arm ": 8034,
      "area": 8035,
      "argu": 8036,
      "artill": 8037,
      "argum": 8038,
      ", sp": 8039,
      ", deities ": 8040,
      ", who": 8041,
      ", have ": 8042,
      ", <unk> , ": 8043,
      ", like ": 8044,
      ", offic": 8045,
      ", follow": 8046,
      ", who ": 8047,
      ", not": 8048,
      ", but": 8049,
      ", even ": 8050,
      ", who was ": 8051,
      ", however , ": 8052,
      ", while the ": 8053,
      ", such as the ": 8054,
      ", both ": 8055,
      ", reflec": 8056,
      ", 194": 8057,
      ", zrinyi was ": 8058,
      ", 6 @.@ 4": 8059,
      ", dahau": 8060,
      "of al": 8061,
      "of americ": 8062,
      "of sever": 8063,
      "of atlanta ": 8064,
      "of competition ": 8065,
      "of them ": 8066,
      "of several ": 8067,
      "of august , 186": 8068,
      "alo": 8069,
      "aling ": 8070,
      "alho": 8071,
      "alone ": 8072,
      "alman": 8073,
      "al com": 8074,
      "almost ": 8075,
      "ales of ": 8076,
      "al comm": 8077,
      "ales and ": 8078,
      "alace ": 8079,
      "alistic": 8080,
      "alist ": 8081,
      "along with ": 8082,
      "al activ": 8083,
      "al work ": 8084,
      "along the ": 8085,
      "already ": 8086,
      "red": 8087,
      "rear": 8088,
      "rely ": 8089,
      "rel ": 8090,
      "remo": 8091,
      "res , ": 8092,
      "reform": 8093,
      "refer": 8094,
      "rement ": 8095,
      "remin": 8096,
      "reau": 8097,
      "reign": 8098,
      "reve": 8099,
      "repeti": 8100,
      "rebel": 8101,
      "restor": 8102,
      "rearm": 8103,
      "remembers ": 8104,
      "referr": 8105,
      "reveal": 8106,
      "rediff.com": 8107,
      "reenacted ": 8108,
      "ingsp": 8109,
      "ings , ": 8110,
      "ing ch": 8111,
      "ing their": 8112,
      "ing these ": 8113,
      "ing at the ": 8114,
      "ing all": 8115,
      "ing assign": 8116,
      ". in the ": 8117,
      ". <unk>": 8118,
      ". his ": 8119,
      ". per": 8120,
      ". <unk> ": 8121,
      ". not ": 8122,
      ". gen": 8123,
      ". by the ": 8124,
      ". little ": 8125,
      ". while ": 8126,
      ". har": 8127,
      ". when ": 8128,
      ". during ": 8129,
      ". people ": 8130,
      ". nash": 8131,
      ". <unk> and ": 8132,
      ". however , ": 8133,
      ". sanford ": 8134,
      ". whereas ": 8135,
      ". congress ": 8136,
      ". bulloch": 8137,
      ". later that year , she ": 8138,
      ". horthy ": 8139,
      "to and ": 8140,
      "tomo": 8141,
      "to al": 8142,
      "topp": 8143,
      "to that ": 8144,
      "to air": 8145,
      "tolic": 8146,
      "to them": 8147,
      "to ad": 8148,
      "to comm": 8149,
      "to all": 8150,
      "to all ": 8151,
      "to appear": 8152,
      "toward ": 8153,
      "toshi": 8154,
      "tout ": 8155,
      "to those ": 8156,
      "topped ": 8157,
      "totten ": 8158,
      "towers ": 8159,
      "toler": 8160,
      "to approach": 8161,
      "to counter": 8162,
      "er in ": 8163,
      "er <unk> ": 8164,
      "er rick ": 8165,
      "er kar": 8166,
      "es -": 8167,
      "es as ": 8168,
      "es \" ": 8169,
      "es from": 8170,
      "es for the ": 8171,
      "es car": 8172,
      "es during the ": 8173,
      "es . these ": 8174,
      "es place ": 8175,
      "es per ": 8176,
      "es for p": 8177,
      "es known ": 8178,
      "es should be ": 8179,
      "roke ": 8180,
      "rock ": 8181,
      "stations ": 8182,
      "stair": 8183,
      "stori": 8184,
      "stak": 8185,
      "sts of ": 8186,
      "stead ": 8187,
      "stacles ": 8188,
      "styles ": 8189,
      " ans": 8190,
      " anni": 8191
    }
  }
}